{"<unk>":0,"<pad>":1,"<bos>":2,"<eos>":3,"!":4,"\"":5,"#":6,"$":7,"%":8,"&":9,"'":10,"(":11,")":12,"*":13,"+":14,",":15,"-":16,".":17,"/":18,"0":19,"1":20,"2":21,"3":22,"4":23,"5":24,"6":25,"7":26,"8":27,"9":28,":":29,";":30,"<":31,"=":32,">":33,"?":34,"@":35,"A":36,"B":37,"C":38,"D":39,"E":40,"F":41,"G":42,"H":43,"I":44,"J":45,"K":46,"L":47,"M":48,"N":49,"O":50,"P":51,"Q":52,"R":53,"S":54,"T":55,"U":56,"V":57,"W":58,"X":59,"Y":60,"Z":61,"[":62,"\\":63,"]":64,"^":65,"_":66,"`":67,"a":68,"b":69,"c":70,"d":71,"e":72,"f":73,"g":74,"h":75,"i":76,"j":77,"k":78,"l":79,"m":80,"n":81,"o":82,"p":83,"q":84,"r":85,"s":86,"t":87,"u":88,"v":89,"w":90,"x":91,"y":92,"z":93,"{":94,"|":95,"}":96,"~":97,"¡":98,"¢":99,"£":100,"¤":101,"¥":102,"¦":103,"§":104,"¨":105,"©":106,"ª":107,"«":108,"¬":109,"®":110,"¯":111,"°":112,"±":113,"²":114,"³":115,"´":116,"µ":117,"¶":118,"·":119,"¸":120,"¹":121,"º":122,"»":123,"¼":124,"½":125,"¾":126,"¿":127,"À":128,"Á":129,"Â":130,"Ã":131,"Ä":132,"Å":133,"Æ":134,"Ç":135,"È":136,"É":137,"Ê":138,"Ë":139,"Ì":140,"Í":141,"Î":142,"Ï":143,"Ð":144,"Ñ":145,"Ò":146,"Ó":147,"Ô":148,"Õ":149,"Ö":150,"×":151,"Ø":152,"Ù":153,"Ú":154,"Û":155,"Ü":156,"Ý":157,"Þ":158,"ß":159,"à":160,"á":161,"â":162,"ã":163,"ä":164,"å":165,"æ":166,"ç":167,"è":168,"é":169,"ê":170,"ë":171,"ì":172,"í":173,"î":174,"ï":175,"ð":176,"ñ":177,"ò":178,"ó":179,"ô":180,"õ":181,"ö":182,"÷":183,"ø":184,"ù":185,"ú":186,"û":187,"ü":188,"ý":189,"þ":190,"ÿ":191,"Ā":192,"ā":193,"Ă":194,"ă":195,"Ą":196,"ą":197,"Ć":198,"ć":199,"Ĉ":200,"ĉ":201,"Ċ":202,"ċ":203,"Č":204,"č":205,"Ď":206,"ď":207,"Đ":208,"đ":209,"Ē":210,"ē":211,"Ĕ":212,"ĕ":213,"Ė":214,"ė":215,"Ę":216,"ę":217,"Ě":218,"ě":219,"Ĝ":220,"ĝ":221,"Ğ":222,"ğ":223,"Ġ":224,"ġ":225,"Ģ":226,"ģ":227,"Ĥ":228,"ĥ":229,"Ħ":230,"ħ":231,"Ĩ":232,"ĩ":233,"Ī":234,"ī":235,"Ĭ":236,"ĭ":237,"Į":238,"į":239,"İ":240,"ı":241,"Ĳ":242,"ĳ":243,"Ĵ":244,"ĵ":245,"Ķ":246,"ķ":247,"ĸ":248,"Ĺ":249,"ĺ":250,"Ļ":251,"ļ":252,"Ľ":253,"ľ":254,"Ŀ":255,"ŀ":256,"Ł":257,"ł":258,"Ń":259,"Ġt":260,"he":261,"Ġa":262,"ou":263,"in":264,"Ġw":265,"Ġs":266,"Ġthe":267,"re":268,"Ġy":269,"Ġyou":270,"Ġb":271,"Ġm":272,"on":273,"ha":274,"Ġd":275,"ll":276,"it":277,"ĠI":278,"nd":279,"Ġf":280,"ing":281,"Ġc":282,"er":283,"is":284,"Ġto":285,"Ġo":286,"Ġg":287,"Ġl":288,"an":289,"Ġhe":290,"..":291,"ed":292,"Ġp":293,"Ġand":294,"Ġh":295,"or":296,"ve":297,"hat":298,"Ġof":299,"es":300,"Ġn":301,"ck":302,"ot":303,"Ġin":304,"en":305,"'s":306,"as":307,"om":308,"ar":309,"Ġth":310,"at":311,"ow":312,"Ġbe":313,"us":314,"Ġha":315,"Ġk":316,"et":317,"le":318,"Ġit":319,"'t":320,"ut":321,"id":322,"ill":323,"Ġon":324,"im":325,"ld":326,"ke":327,"Ġme":328,"Ġe":329,"Ġthat":330,"ay":331,"Ġwe":332,"Ġyour":333,"out":334,"...":335,"ad":336,"oo":337,"Ġli":338,"gh":339,"Ġst":340,"Ġis":341,"Ġsh":342,"ith":343,"al":344,"Ġr":345,"se":346,"am":347,"Ġu":348,"ic":349,"Ġwith":350,"Ġmy":351,"Ġdo":352,"Ġwas":353,"ĠT":354,"ir":355,"Ġfor":356,"ver":357,"uck":358,"'re":359,"if":360,"Ġwh":361,"Ġhave":362,"ra":363,"Ġan":364,"ly":365,"ght":366,"ĠS":367,"ĠW":368,"ould":369,"Ġre":370,"ant":371,"ĠY":372,"ch":373,"Ġhim":374,"Ġ\"":375,"st":376,"Ġthis":377,"Ġj":378,"Ġdon":379,"ie":380,"ĠA":381,"Ġlike":382,"ust":383,"Ġgo":384,"Ġse":385,"'m":386,"all":387,"ur":388,"Ġkill":389,"ome":390,"her":391,"Ġas":392,"ĠYou":393,"ce":394,"Ġout":395,"Ġkn":396,"Ġhis":397,"Ġfuck":398,"ĠH":399,"Ġif":400,"Ġnot":401,"Ġup":402,"Ġbut":403,"Ġher":404,"op":405,"un":406,"Ġwhat":407,"Ġde":408,"Ġthey":409,"Ġget":410,"Ġare":411,"'ll":412,"Ġso":413,"ent":414,"ight":415,"ĠM":416,"Ġcan":417,"ĠB":418,"Ġwant":419,"ro":420,"Ġknow":421,"il":422,"Ġall":423,"ion":424,"Ġfr":425,"ack":426,"Ġwho":427,"ĠD":428,"one":429,"Ġwhe":430,"ell":431,"Ġne":432,"Ġab":433,"ter":434,"Ġat":435,"ake":436,"Ġjust":437,"ĠC":438,"ct":439,"ĠG":440,"Ġshe":441,"Ġor":442,"ink":443,"use":444,"ook":445,"ess":446,"na":447,"ick":448,"ore":449,"ig":450,"ĠThe":451,"Ġbl":452,"Ġwill":453,"Ġone":454,"hing":455,"ive":456,"Ġthem":457,"Ġman":458,"Ġabout":459,"ind":460,"Ġtr":461,"Ġdid":462,"ood":463,"Ġwould":464,"ak":465,"od":466,"Ġhell":467,"pp":468,"ag":469,"um":470,"ast":471,"amn":472,"Ġsome":473,"ca":474,"Ġhere":475,"Ġsa":476,"ers":477,"art":478,"Ġshit":479,"our":480,"Ġwhen":481,"Ġno":482,"onna":483,"ul":484,"Ġfucking":485,"Ġthink":486,"Ġgonna":487,"Ġsu":488,"est":489,"and":490,"Ġthere":491,"ab":492,"ĠL":493,"very":494,"Ġwor":495,"Ġhad":496,"Ġoff":497,"ist":498,"ĠN":499,"ally":500,"Ġfrom":501,"ĠJ":502,"Ġany":503,"ain":504,"el":505,"itt":506,"red":507,"ĠO":508,"ĠHe":509,"Ġus":510,"Ġcra":511,"os":512,"lf":513,"Ġgot":514,"Ġgu":515,"Ġwere":516,"Ġlook":517,"Ġle":518,"cause":519,"Ġal":520,"han":521,"ound":522,"ĠP":523,"ĠF":524,"ous":525,"Ġgoing":526,"....":527,"ven":528,"ep":529,"ol":530,"own":531,"ri":532,"ard":533,"'ve":534,"other":535,"Ġpl":536,"Ġcould":537,"fe":538,"'d":539,"Ġnow":540,"Ġint":541,"Ġpe":542,"Ġsp":543,"ĠR":544,"ry":545,"Ġlo":546,"Ġv":547,"Ġex":548,"Ġback":549,"Ġthen":550,"ĠAnd":551,"ong":552,"ull":553,"ate":554,"Ġtim":555,"Ġsee":556,"Ġar":557,"ame":558,"ace":559,"ittle":560,"zy":561,"Ġdamn":562,"qu":563,"ide":564,".\"":565,"Ġguy":566,"Ġ...":567,"Ġevery":568,"Ġthing":569,"Ġ-":570,"Ġlittle":571,"Ġdie":572,"Ġright":573,"Ġkilled":574,"ose":575,"ĠIt":576,"Ġcom":577,"way":578,"are":579,"Ġ'":580,"Ġsay":581,"Ġby":582,"ople":583,"Ġhow":584,"ĠWhat":585,"nt":586,"Ġbecause":587,"Ġsaid":588,"Ġcrazy":589,"Ġsc":590,"ap":591,"Ġtoo":592,"oot":593,"alk":594,"Ġtake":595,"Ġpeople":596,"ge":597,"ĠE":598,"Ġbr":599,"ough":600,"Ġtime":601,"Ġhead":602,"ath":603,"Ġtell":604,"Ġsex":605,"ool":606,"Ġfe":607,"Ġeven":608,"Ġinto":609,"ble":610,"res":611,"Ġdr":612,"ice":613,"Ġcon":614,"self":615,"ies":616,"Ġdown":617,"up":618,"Ġag":619,"Ġdidn":620,"Ġwom":621,"Ġlet":622,"urn":623,"Ġtheir":624,"Ġdead":625,"Ġass":626,"Ġcl":627,"ty":628,"ish":629,"ear":630,"ine":631,"Ġthan":632,"Ġsm":633,"Ġgir":634,"oy":635,"ite":636,"Ġonly":637,"Ġch":638,"Ġtw":639,"Ġgive":640,"em":641,"ation":642,"ud":643,"Ġour":644,"Ġpro":645,"th":646,"Ġmore":647,"iss":648,"ĠK":649,"ip":650,"ass":651,"ĠWe":652,"Ġput":653,"Ġwhy":654,"omet":655,"Ġbeen":656,"thing":657,"ea":658,"ought":659,"Ġshould":660,"Ġgirl":661,"Ġpr":662,"ire":663,"ther":664,"Ġcome":665,"Ġmake":666,"ob":667,"Ġreally":668,"che":669,"Ġpo":670,"Ġhand":671,"Ġsomet":672,"Ġco":673,"Ġover":674,"Ġmo":675,"ĠIf":676,"Ġtalk":677,"Ġdoes":678,"ave":679,"ody":680,"ĠGod":681,"Ġshoot":682,"Ġgood":683,"Ġneed":684,"fore":685,"be":686,"ity":687,"Ġbet":688,"iend":689,"Ġthr":690,"ure":691,"ff":692,"reat":693,"Ġold":694,"Ġmean":695,"Ġlife":696,"Ġfat":697,"Ġun":698,"Ġqu":699,"ort":700,"Ġcall":701,"less":702,"Ġthose":703,"ying":704,"Ġbad":705,"ving":706,"Ġsl":707,"wn":708,"Ġother":709,"Ġbefore":710,"......":711,"Ġhas":712,"Ġway":713,"Ġen":714,"Ġagain":715,"ied":716,"au":717,"Ġtwo":718,"Ġmad":719,"age":720,"âĢ":721,"Ġwhere":722,",\"":723,"ect":724,"Ġsomething":725,"pl":726,"Ġblood":727,"ĠWh":728,"Ġday":729,"ree":730,"ian":731,"Ġcr":732,"Ġbig":733,"ĠThat":734,"ĠTh":735,"ng":736,"Ġam":737,"Ġthought":738,"ac":739,"dd":740,"Ġshot":741,"Ġaf":742,"ting":743,"Ġnever":744,"Ġcut":745,"urd":746,"Ġmay":747,"Ġfool":748,"rew":749,"Ġwoman":750,"ang":751,"Ġdeath":752,"Ġdis":753,"Ġthese":754,"nder":755,"Ġblack":756,"upid":757,"Ġdoing":758,"Ġkid":759,"Ġwon":760,"ich":761,"ew":762,"ĠBut":763,"ase":764,"ue":765,"ret":766,"rain":767,"Ġgr":768,"eah":769,"irst":770,"ber":771,"orn":772,"Ġsw":773,"iz":774,"ĠShe":775,"Ġke":776,"Ġaround":777,"ile":778,"ĠThey":779,"itch":780,"Ġface":781,"Ġstupid":782,"Ġsomeone":783,"Ġmon":784,"Ġfind":785,"Ġfriend":786,"ons":787,"Ġcar":788,"ug":789,"Ġstill":790,"Ġbre":791,"Ġhat":792,"Ġfl":793,"Ġro":794,"ild":795,"Ġrid":796,"sh":797,"Ġhapp":798,"ĠOh":799,"Ġmu":800,"unk":801,"able":802,"Ġsha":803,"Ġfirst":804,"ach":805,"ved":806,"Ġboy":807,"Ġstop":808,"Ġuse":809,"ub":810,"ife":811,"ĠSt":812,"Ġlove":813,"Ġcou":814,"ouse":815,"ĠSo":816,"ny":817,"Ġkeep":818,"Ġim":819,"Ġwork":820,"Ġbel":821,"Ġtold":822,"atch":823,"Ġwell":824,"Ġmuch":825,"Ġcare":826,"Ġever":827,"Ġhit":828,"Ġwr":829,"Ġshut":830,"Ġche":831,"Ġunder":832,"Ġown":833,"get":834,"ĠSh":835,"Ġaway":836,"Ġbull":837,"pt":838,"ord":839,"aking":840,"Ġdoesn":841,"Ġafter":842,"Ġanything":843,"Ġfa":844,"Ġho":845,"ady":846,"oney":847,"ft":848,"Ġmurd":849,"Ġmother":850,"ress":851,"Ġyear":852,"ious":853,"ark":854,"per":855,"Ġnight":856,"Ġgun":857,"ves":858,"Ġlast":859,"Ġsle":860,"ment":861,"Ġkind":862,"Ġmust":863,"Ġey":864,"Ġcha":865,"ĠNo":866,"Ġfeel":867,"Ġwanted":868,"Ġbeing":869,"aught":870,"ond":871,"outh":872,"here":873,"ĠThis":874,"Ġmen":875,"Ġbetter":876,"Ġturn":877,"ways":878,"Ġstart":879,"Ġlong":880,"ump":881,"Ġdog":882,"Ġsuck":883,"ait":884,"Ġdest":885,"Ġbrain":886,"kay":887,"ock":888,"ne":889,"man":890,"sy":891,"Ġreal":892,"body":893,"ful":894,"ĠCh":895,"vil":896,"Ġkilling":897,"Ġworld":898,"Ġsick":899,"Ġ1":900,"ĠV":901,"Ġhel":902,"Ġfather":903,"Ġrem":904,"ank":905,"Ġmoney":906,"Ġalways":907,"ĠWell":908,"ict":909,"ise":910,"Ġscrew":911,"ence":912,"Ġpart":913,"Ġins":914,"Ġplay":915,"Ġter":916,"roy":917,"Ġend":918,"Ġshow":919,"ered":920,"Ġwhich":921,"Ġbelie":922,"Ġac":923,"Ġsk":924,"Ġrat":925,"Ġsuch":926,"Ġguys":927,"Ġmouth":928,"Ġball":929,"Ġvery":930,"ily":931,"ans":932,"Ġte":933,"ated":934,"Ġhappen":935,"Ġtalking":936,"ren":937,"Ġhouse":938,"Ġmind":939,"Ġburn":940,"Ġask":941,"og":942,"Ġoh":943,"Ġnothing":944,"Ġhelp":945,"Ġbot":946,"Ġhands":947,"ia":948,"ĠDon":949,"Ġtrying":950,"Ġlot":951,"Ġson":952,"ail":953,"Ġbrother":954,"Ġdestroy":955,"ating":956,"Ġper":957,"ĠMr":958,"Ġsure":959,"Ġmaybe":960,"Ġwhole":961,"Ġmom":962,"Ġdes":963,"Ġenough":964,"Ġthrough":965,"pe":966,"Ġhar":967,"Ġthings":968,"Ġmade":969,"ster":970,"Ġact":971,"ss":972,"Ġrun":973,"Ġel":974,"Ġgodd":975,"ign":976,"ense":977,"ird":978,"Ġatt":979,"Ġfire":980,"int":981,"Ġfucked":982,"ĠU":983,"aw":984,"Ġspe":985,"Ġplace":986,"!\"":987,"hed":988,"Ġyears":989,"Ġwait":990,"Ġdir":991,"Ġhome":992,"uff":993,"ger":994,"Ġwomen":995,"ĠBe":996,"ĠGet":997,"ary":998,"icul":999,"?\"":1000,"Ġanother":1001,"Ġtook":1002,"Ġyourself":1003,"Ġeverything":1004,"Ġwife":1005,"Ġmight":1006,"Ġsleep":1007,"Ġwithout":1008,"hen":1009,"Ġsec":1010,"Ġstr":1011,"mer":1012,"Ġhate":1013,"oss":1014,"we":1015,"iet":1016,"isten":1017,"Ġthree":1018,"Ġchan":1019,"00":1020,"Ġunt":1021,"--":1022,"ever":1023,"unch":1024,"ash":1025,"pen":1026,"ple":1027,"Ġwhite":1028,"ater":1029,"Ġmess":1030,"Ġgra":1031,"Ġbelieve":1032,"ched":1033,"Ġwouldn":1034,"Ġdone":1035,"day":1036,"ance":1037,"Ġgoddamn":1038,"xt":1039,"Ġbab":1040,"Ġmost":1041,"ial":1042,"ĠWhy":1043,"ual":1044,"Ġpoor":1045,"Ġkick":1046,"Ġpret":1047,"ning":1048,"oc":1049,"Ġgreat":1050,"les":1051,"Ġthrow":1052,"erson":1053,"Ġtra":1054,"Ġfun":1055,"akes":1056,"Ġcame":1057,"Ġleave":1058,"Ġleft":1059,"umb":1060,"Ġchild":1061,"ho":1062,"ĠNow":1063,"ope":1064,"ory":1065,"Ġuntil":1066,"ars":1067,"ek":1068,"igh":1069,"Ġfam":1070,"ably":1071,"Ġeyes":1072,"Ġbloody":1073,"my":1074,"ĠYeah":1075,"Ġcop":1076,"Ġbody":1077,"Ġnew":1078,"Ġcle":1079,"Ġbitch":1080,"ors":1081,"Ġanyone":1082,"Ġhum":1083,"ĠHow":1084,"Ġhimself":1085,"Ġknew":1086,"ms":1087,"ont":1088,"Ġeat":1089,"Ġokay":1090,"ream":1091,"Ġsame":1092,"urt":1093,"ĠMy":1094,"Ġmurder":1095,"illy":1096,"Ġblow":1097,"Ġeveryone":1098,"rible":1099,"Ġser":1100,"Ġcont":1101,"âĢĻ":1102,"orry":1103,"ib":1104,"led":1105,"Ġcrap":1106,"Ġheart":1107,"iculous":1108,"der":1109,"ĠYour":1110,"Ġelse":1111,"row":1112,"Ġtry":1113,"Ġbeat":1114,"pect":1115,"Ġwants":1116,"ude":1117,"med":1118,"Ġpre":1119,"Ġsmell":1120,"Ġname":1121,"oll":1122,"Ġbutt":1123,"Ġbu":1124,"Ġmin":1125,"Ġyeah":1126,"Ġdirty":1127,"Ġhu":1128,"ute":1129,"Ġwar":1130,"Ġonce":1131,"ere":1132,"Ġsupp":1133,"ĠDamn":1134,"Ġbaby":1135,"Ġridiculous":1136,"Ġbit":1137,"amp":1138,"ince":1139,"Ġbring":1140,"Ġkiller":1141,"Ġlos":1142,"Ġres":1143,"Ġjob":1144,"bably":1145,"Ġmar":1146,"ions":1147,"Ġplan":1148,"Ġuseless":1149,"Ġhang":1150,"Ġpig":1151,"Ġ.":1152,"Ġfre":1153,"lease":1154,"Ġad":1155,"ling":1156,"ĠDo":1157,"oke":1158,"Ġpull":1159,"ness":1160,"Ġide":1161,"Ġbreak":1162,"Ġopen":1163,"oh":1164,"pped":1165,"gg":1166,"Ġlooking":1167,"Ġmany":1168,"ison":1169,"Ġbus":1170,"Ġfound":1171,"shit":1172,"Ġlisten":1173,"Ġballs":1174,"ix":1175,"ired":1176,"key":1177,"Ġperson":1178,"Ġwhile":1179,"osed":1180,"Ġwatch":1181,"ross":1182,"Ġfight":1183,"Ġpus":1184,"Ġhot":1185,"Ġnext":1186,"Ġleg":1187,"az":1188,"Ġtried":1189,"Ġneck":1190,"ost":1191,"ually":1192,"Ġpat":1193,"als":1194,"ches":1195,"Ġbest":1196,"Ġprobably":1197,"Ġcompl":1198,"you":1199,"orm":1200,"Ġem":1201,"Ġgirls":1202,"ĠAll":1203,"Ġhard":1204,"so":1205,"Ġsur":1206,"Ġfamily":1207,"ister":1208,"Ġbro":1209,"arb":1210,"Ġph":1211,"Ġsorry":1212,"astard":1213,"ult":1214,"Ġboth":1215,"Ġgay":1216,"ike":1217,"Ġmyself":1218,"Ġwent":1219,"ps":1220,"ets":1221,"Ġlive":1222,"Ġrest":1223,"Ġid":1224,"Ġwrong":1225,"aid":1226,"Ġhear":1227,"ert":1228,"ower":1229,"Ġhalf":1230,"Ġsch":1231,"Ġcount":1232,"ical":1233,"Ġcomm":1234,"ee":1235,"Ġgl":1236,"Ġstay":1237,"ĠIn":1238,"ĠFuck":1239,"iot":1240,"Ġgetting":1241,"Ġpol":1242,"Ġfin":1243,"Ġbo":1244,"Ġwasn":1245,"uts":1246,"Ġdec":1247,"ete":1248,"Ġ2":1249,"Ġsit":1250,"aughter":1251,"Ġsaw":1252,"Ġpiss":1253,"Ġcour":1254,"te":1255,"Ġug":1256,"Ġimp":1257,"ible":1258,"Ġkids":1259,"Ġpretty":1260,"Ġfriends":1261,"Ġroom":1262,"ried":1263,"Ġfuckin":1264,"Ġbastard":1265,"Ġcomp":1266,"ier":1267,"ung":1268,"head":1269,"Ġwalk":1270,"ĠThere":1271,"Ġacc":1272,"Ġhurt":1273,"Ġstand":1274,"omb":1275,"Ġseen":1276,"anc":1277,"ember":1278,"hind":1279,"Ġsays":1280,"Ġterrible":1281,"Ġsn":1282,"ĠWhen":1283,"ens":1284,"Ġhair":1285,"Ġdrink":1286,"Ġapp":1287,"Ġdad":1288,"the":1289,"Ġdoor":1290,"Ġsilly":1291,"Ġfront":1292,"ĠWho":1293,"Ġstuff":1294,"rist":1295,"ĠHey":1296,"av":1297,"Ġcalled":1298,"ither":1299,"Ġcow":1300,"Ġword":1301,"Ġbehind":1302,"ted":1303,"iv":1304,"Ġidea":1305,"gether":1306,"its":1307,"Ġsound":1308,"Ġob":1309,"ĠJust":1310,"uc":1311,"Ġhour":1312,"ner":1313,"ok":1314,"Ġpie":1315,"Ġugly":1316,"act":1317,"Ġgave":1318,"Ġquiet":1319,"Ġtogether":1320,"atter":1321,"Ġdisg":1322,"Ġkiss":1323,"Ġscrewed":1324,"ĠFr":1325,"ey":1326,"arn":1327,"Ġgone":1328,"Ġfull":1329,"ĠLook":1330,"Ġhor":1331,"Ġinst":1332,"Ġlooked":1333,"Ġyoung":1334,"ten":1335,"Ġlost":1336,"Ġsca":1337,"ĠBl":1338,"iness":1339,"Ġbed":1340,"itting":1341,"ins":1342,"ason":1343,"Ġlooks":1344,"ta":1345,"ants":1346,"Ġmis":1347,"Ġbec":1348,"Ġtoday":1349,"fect":1350,"har":1351,"Ġrec":1352,"ĠDe":1353,"Ġdick":1354,"Ġproble":1355,"ped":1356,"Ġbur":1357,"ane":1358,"Ġdeal":1359,"Ġdra":1360,"Ġgets":1361,"ĠBr":1362,"Ġschool":1363,"Ġused":1364,"anna":1365,"Ġmiss":1366,"Ġtou":1367,"Ġ(":1368,"Ġweek":1369,"ĠThen":1370,"Ġremember":1371,"Ġagainst":1372,"Ġcur":1373,"Ġunderst":1374,"ĠLet":1375,"het":1376,"Ġsoon":1377,"Ġheard":1378,"Ġrap":1379,"Ġanim":1380,"Ġste":1381,"Ġidiot":1382,"Ġpay":1383,"Ġpain":1384,"Ġpick":1385,"Ġain":1386,"end":1387,"ĠShit":1388,"Ġent":1389,"Ġsecond":1390,"bed":1391,"Ġsaying":1392,"Ġdied":1393,"ale":1394,"ks":1395,"Ġaw":1396,"Ġinc":1397,"ĠChrist":1398,"eth":1399,"ready":1400,"ade":1401,"Ġdamned":1402,"ize":1403,"Ġcouldn":1404,"Ġhey":1405,"ove":1406,"Ġbullshit":1407,"Ġhope":1408,"ĠAre":1409,"Ġdrunk":1410,"Ġplease":1411,"Ġtimes":1412,"Ġhus":1413,"Ġisn":1414,"unt":1415,"Ġbreast":1416,"Ġalready":1417,"Ġhaving":1418,"att":1419,"ec":1420,"Ġnice":1421,"Ġstre":1422,"Ġap":1423,"Ġeach":1424,"Ġcrim":1425,"onsense":1426,"Ġsupposed":1427,"Ġits":1428,"roat":1429,"Ġsend":1430,"ians":1431,"usting":1432,"where":1433,"Ġhuman":1434,"Ġcomplete":1435,"band":1436,"aked":1437,"dy":1438,"oul":1439,"Ġsent":1440,"Ġdevil":1441,"ween":1442,"ient":1443,"Ġpoint":1444,"Ġrel":1445,"old":1446,"Ġmonster":1447,"Ġrep":1448,"Ġbunch":1449,"Ġyes":1450,"Ġunderstand":1451,"ief":1452,"Ġtaking":1453,"ĠâĢ":1454,"cept":1455,"arbage":1456,"Ġalone":1457,"Ġret":1458,"most":1459,"Ġhappened":1460,"ork":1461,"air":1462,"ĠIs":1463,"Ġleast":1464,"Ġcouple":1465,"Ġsister":1466,"Ġfing":1467,"Ġthroat":1468,"ĠOr":1469,"ards":1470,"Ġexpl":1471,"by":1472,"Ġalso":1473,"Ġattack":1474,"Ġdrug":1475,"meric":1476,"Ġknows":1477,"Ġdays":1478,"Ġdaughter":1479,"Ġnonsense":1480,"Ġgarbage":1481,"Ġfil":1482,"ding":1483,"Ġwanna":1484,"Ġfact":1485,"ush":1486,"Ġbetween":1487,"ged":1488,"Ġstick":1489,"ĠAl":1490,"aut":1491,"Ġalive":1492,"aken":1493,"Ġdem":1494,"riend":1495,"Ġhusband":1496,"gin":1497,"Ġlau":1498,"utes":1499,"hes":1500,"Ġmatter":1501,"ĠWhere":1502,"ex":1503,"arent":1504,"aster":1505,"Ġsince":1506,"Ġmove":1507,"Ġmiser":1508,"Ġmakes":1509,"ised":1510,"Ġbusiness":1511,"Ġble":1512,"Ġpar":1513,"got":1514,"Ġcor":1515,"Ġstab":1516,"Ġpower":1517,"Ġexc":1518,"ists":1519,"sych":1520,"Ġfar":1521,"ĠAmeric":1522,"Ġalmost":1523,"ings":1524,"ĠBecause":1525,"Ġfall":1526,"ctor":1527,"Ġskin":1528,"Ġfore":1529,"Ġeither":1530,"Ġfew":1531,"Ġcountry":1532,"Ġcourse":1533,"Ġfreak":1534,"ces":1535,"mor":1536,"Ġhole":1537,"ead":1538,"hetic":1539,"ĠMay":1540,"ipp":1541,"anger":1542,"Ġset":1543,"me":1544,"Ġbomb":1545,"iful":1546,"Ġcomes":1547,"Ġloser":1548,"ĠMar":1549,"Ġgen":1550,"imes":1551,"Ġbeaut":1552,"Ġmid":1553,"Ġpun":1554,"Ġbag":1555,"ction":1556,"ĠFor":1557,"?!":1558,"arly":1559,"Ġdrop":1560,"Ġshooting":1561,"ats":1562,"Ġlaw":1563,"ced":1564,"Ġfive":1565,"Ġguess":1566,"Ġswe":1567,"iff":1568,"ĠNot":1569,"Ġside":1570,"Ġred":1571,"ohn":1572,"iver":1573,"Ġhold":1574,"Ġdark":1575,"Ġpsych":1576,"Ġhigh":1577,"Ġmonth":1578,"ouble":1579,"Ġluck":1580,"Ġment":1581,"Ġmorn":1582,"Ġru":1583,"Ġsqu":1584,"Ġweird":1585,"Ġfunny":1586,"You":1587,"Ġfree":1588,"ates":1589,"ax":1590,"ident":1591,"Ġstink":1592,"Ġinter":1593,"Ġcons":1594,"Ġeas":1595,"Ġmaking":1596,"ition":1597,"Ġprom":1598,"app":1599,"Ġdisgusting":1600,"arr":1601,"Ġpussy":1602,"Ġevil":1603,"Ġproblem":1604,"Ġclean":1605,"land":1606,"Ġmorning":1607,"men":1608,"Ġes":1609,"to":1610,"Ġreason":1611,"apt":1612,"Ġlight":1613,"Ġbullet":1614,"Ġmet":1615,"Ġtouch":1616,"ather":1617,"Ġmeans":1618,"uth":1619,"Ġfoolish":1620,"ured":1621,"asty":1622,"Ġago":1623,"aring":1624,"ah":1625,"pr":1626,"Ġrob":1627,"Ġchance":1628,"Ġabs":1629,"Ġchick":1630,"Ġturned":1631,"ject":1632,"Ġwitch":1633,"Ġdumb":1634,"arth":1635,"raid":1636,"ys":1637,"ĠCome":1638,"sel":1639,"Ġmist":1640,"Ġmonkey":1641,"Ġpathetic":1642,"Ġwhatever":1643,"Ġfeet":1644,"ĠJes":1645,"Ġmag":1646,"Ġworth":1647,"Ġcase":1648,"Ġlie":1649,"ĠShut":1650,"ci":1651,"Ġfour":1652,"Ġthinking":1653,"Ġeye":1654,"Ġinf":1655,"Ġable":1656,"sed":1657,"Ġpass":1658,"Ġsmall":1659,"Ġtor":1660,"Ġstarted":1661,"Ġchest":1662,"Ġafraid":1663,"erk":1664,"ines":1665,"Ġfoll":1666,"ĠJohn":1667,"Ġgre":1668,"ared":1669,"ount":1670,"ric":1671,"Ġgoes":1672,"ror":1673,"ole":1674,"oice":1675,"Ġinside":1676,"Ġcock":1677,"Ġasked":1678,"Ġhours":1679,"Ġtaken":1680,"Ġforget":1681,"Ġcops":1682,"Ġbar":1683,"Ġstra":1684,"ward":1685,"ĠQ":1686,"cher":1687,"atic":1688,"Ġself":1689,"ĠAn":1690,"Ġpiece":1691,"Ġ3":1692,"ĠAs":1693,"ph":1694,"Ġclose":1695,"Ġdies":1696,"icide":1697,"Ġsexual":1698,"Ġfell":1699,"Ġtown":1700,"ĠSome":1701,"Ġpolice":1702,"Ġminutes":1703,"eg":1704,"Ġcoll":1705,"Ġchar":1706,"Ġmiserable":1707,"Ġthough":1708,"Ġcold":1709,"Ġchildren":1710,"Ġwall":1711,"Ġcoming":1712,"Ġwater":1713,"Ġtelling":1714,"Ġposs":1715,"ator":1716,"elt":1717,"Ġwind":1718,"Ġsave":1719,".'":1720,"Ġgame":1721,"ures":1722,"Ġnasty":1723,"Ġsell":1724,"Ġcity":1725,"ract":1726,"Ġrather":1727,"Ġworse":1728,"Ġnaked":1729,"ĠAr":1730,"Ġnose":1731,"Ġsing":1732,"hole":1733,"Ġphone":1734,"Ġrot":1735,"Ġground":1736,"Ġtea":1737,"but":1738,"Ġthinks":1739,"Ġhappy":1740,"ĠTo":1741,"Ġbird":1742,"uss":1743,"Ġbeautiful":1744,"Ġgi":1745,"ĠMaybe":1746,"Ġcompletely":1747,"Ġsomebody":1748,"Ġbreasts":1749,"cess":1750,"cle":1751,"ames":1752,"Ġmil":1753,"ler":1754,"ern":1755,"ĠJack":1756,"Ġgotta":1757,"ĠJew":1758,"Ġread":1759,"Ġconf":1760,"oe":1761,"dle":1762,"Ġknife":1763,"Ġinv":1764,"ony":1765,"Ġlady":1766,"Ġdrive":1767,"ĠJesus":1768,"Ġweak":1769,"Ġcreat":1770,"ined":1771,"Ġfig":1772,"Ġsoul":1773,"ides":1774,"Ġlose":1775,"Ġsold":1776,"fuck":1777,"Ġlead":1778,"ĠOkay":1779,"Ġbecome":1780,"Ġhuh":1781,"ts":1782,"ze":1783,"ĠZ":1784,"imp":1785,"igg":1786,"Ġaren":1787,"ones":1788,"oor":1789,"Ġyet":1790,"Ġpen":1791,"Ġless":1792,"olog":1793,"Ġlegs":1794,"Ġcatch":1795,"Ġtot":1796,"Ġboys":1797,"Ġmeet":1798,"Ġdump":1799,"kes":1800,"cy":1801,"Ġscared":1802,"ĠCl":1803,"Ġscream":1804,"Ġship":1805,"Ġgrand":1806,"Ġdying":1807,"Ġdress":1808,"Ġair":1809,"Ġquest":1810,"Ġparent":1811,"Ġsy":1812,"Ġcat":1813,"ized":1814,"Ġhon":1815,"Ġtong":1816,"Ġang":1817,"ĠHell":1818,"ause":1819,"Ġwaiting":1820,"Ġanimal":1821,"selves":1822,"Ġready":1823,"Ġcrimin":1824,"sw":1825,"ĠOne":1826,"iffe":1827,"cked":1828,"ately":1829,"Ġanyway":1830,"ĠDid":1831,"Ġvamp":1832,"Ġsmart":1833,"ime":1834,"ĠEvery":1835,"Ġdream":1836,"Ġpri":1837,"Ġprison":1838,"Ġill":1839,"Ġmill":1840,"iously":1841,"ĠHis":1842,"Ġpict":1843,"Ġprot":1844,"Ġbook":1845,"Ġrunning":1846,"Ġdel":1847,"more":1848,"Ġele":1849,"Ġmoment":1850,"Ġteeth":1851,"Ġign":1852,"Ġjunk":1853,"Ġyours":1854,"Ġorg":1855,"Ġstri":1856,"arl":1857,"Ġfollow":1858,"ished":1859,"Ġpres":1860,"Ġcaught":1861,"ĠOn":1862,"Ġbott":1863,"ubb":1864,"Ġadd":1865,"Ġlaugh":1866,"mit":1867,"ically":1868,"Ġvir":1869,"Ġinstead":1870,"Ġlying":1871,"onight":1872,"Ġfelt":1873,"Ġexpect":1874,"gr":1875,"Ġhaven":1876,"ĠGo":1877,"ĠMan":1878,"ĠUn":1879,"Ġwish":1880,"Ġquick":1881,"Ġtomor":1882,"ĠSc":1883,"Ġtomorrow":1884,"ball":1885,"Ġlives":1886,"ama":1887,"els":1888,"Ġwonder":1889,"Ġsuicide":1890,"Ġstreet":1891,"rent":1892,"Ġdude":1893,"Ġnuts":1894,"Ġbuy":1895,"Ġsign":1896,"Ġtreat":1897,"Ġworst":1898,"ering":1899,"ray":1900,"Ġparty":1901,"Ġdef":1902,"Ġjerk":1903,"Ġactually":1904,"Ġsitting":1905,"ited":1906,"ital":1907,"Ġhook":1908,"Ġdri":1909,"Ġtongue":1910,"min":1911,"Ġreg":1912,"ters":1913,"oud":1914,"ĠDr":1915,"âĢĿ":1916,"Ġcry":1917,"Ġknock":1918,"Ġjump":1919,"Ġfoot":1920,"vie":1921,"Ġspend":1922,"Ġdanger":1923,"Ġdiffe":1924,"Ġpants":1925,"vel":1926,"Ġord":1927,"Ġparents":1928,"oon":1929,"Ġwin":1930,"Ġz":1931,"rest":1932,"Ġwhore":1933,"Ġtruth":1934,"Ġimag":1935,"Ġapart":1936,"son":1937,"Ġpunk":1938,"Ġsix":1939,"ene":1940,"ton":1941,"ations":1942,"Ġthreat":1943,"Ġran":1944,"Ġsake":1945,"Ġsuff":1946,"Ġsir":1947,"Ġtonight":1948,"Ġmus":1949,"Ġtrouble":1950,"Ġbas":1951,"Ġsucks":1952,"Ġgrow":1953,"ĠCan":1954,"Ġlearn":1955,"thy":1956,"room":1957,"Ġexec":1958,"oose":1959,"io":1960,"Ġ5":1961,"ina":1962,"bs":1963,"ĠNew":1964,"ik":1965,"af":1966,"Ġsometimes":1967,"Ġentire":1968,"Ġliving":1969,"ru":1970,"rog":1971,"erest":1972,"rol":1973,"Ġdou":1974,"Ġner":1975,"The":1976,"side":1977,"Ġdet":1978,"Ġdoctor":1979,"Ġrock":1980,"Ġtrust":1981,"ution":1982,"ĠYes":1983,"Ġfood":1984,"used":1985,"bl":1986,"Ġprop":1987,"Ġplaying":1988,"Ġchange":1989,"Ġdeser":1990,"Ġra":1991,"oid":1992,"Ġanymore":1993,"Ġind":1994,"Ġboss":1995,"Ġansw":1996,"ned":1997,"Ġbleed":1998,"itor":1999,"erer":2000,"Ġstory":2001,"ertain":2002,"Ġwaste":2003,"Ġking":2004,"ics":2005,"ept":2006,"Ġmarried":2007,"Ġlater":2008,"Ġclown":2009,"Ġdep":2010,"Ġsat":2011,"Ġclot":2012,"Ġtest":2013,"Ġvict":2014,"Ġcre":2015,"Ġtrash":2016,"Ġmine":2017,"Ġkills":2018,"Ġswear":2019,"Ġsecret":2020,"vers":2021,"ĠSp":2022,"Ġstraight":2023,"Ġburned":2024,"umber":2025,"Ġfinally":2026,"Ġsteal":2027,"Ġstar":2028,"ship":2029,"Ġbra":2030,"Ġslept":2031,"lfriend":2032,"Ġsil":2033,"Ġgrab":2034,"ents":2035,"Ġvoice":2036,"Ġworking":2037,"Ġhorse":2038,"Ġorder":2039,"oof":2040,"Ġothers":2041,"Ġ--":2042,"damn":2043,"Ġpoison":2044,"Ġinsane":2045,"yp":2046,"Ġgod":2047,"Ġmonths":2048,"Ġir":2049,"Ġsad":2050,"ipped":2051,"dden":2052,"Ġfinger":2053,"ĠHar":2054,"igger":2055,"ĠKill":2056,"ĠAf":2057,"Ġcol":2058,"Ġinterest":2059,"aptain":2060,"Ġ$":2061,"Ġann":2062,"Ġnut":2063,"ĠChar":2064,"Ġtrain":2065,"Ġbrains":2066,"Ġtrue":2067,"Ġkicked":2068,"Ġmed":2069,"Ġfly":2070,"Ġsounds":2071,"cial":2072,"Ġweap":2073,"Ġasshole":2074,"Ġenem":2075,"Ġsudden":2076,",'":2077,"Ġrich":2078,"Ġoffic":2079,"omp":2080,"Ġreturn":2081,"Ġdist":2082,"ĠWith":2083,"Ġsub":2084,"Ġboo":2085,"ken":2086,"ppy":2087,"ĠLike":2088,"Ġmor":2089,"ĠTom":2090,"Ġseems":2091,"Ġheads":2092,"Ġstud":2093,"Ġkidding":2094,"ked":2095,"Ġdeep":2096,"mb":2097,"Ġmach":2098,"Ġdemon":2099,"Ġuh":2100,"Ġbroke":2101,"mp":2102,"Ġoffice":2103,"Ġinn":2104,"hy":2105,"ield":2106,"Ġland":2107,"Ġporn":2108,"Ġwit":2109,"Ġexp":2110,"Ġshall":2111,"ĠâĢľ":2112,"oes":2113,"Ġthief":2114,"Ġpu":2115,"Ġyell":2116,"ided":2117,"Ġprotect":2118,"Ġref":2119,"Ġten":2120,"Ġperfect":2121,"rup":2122,"ode":2123,"iol":2124,"Ġmiddle":2125,"Ġsense":2126,"ĠRe":2127,"Ġnobody":2128,"ives":2129,"roll":2130,"ote":2131,"ĠDad":2132,"Ġemb":2133,"Ġbrought":2134,"Ġjoke":2135,"Ġslave":2136,"Ġgirlfriend":2137,"br":2138,"ĠInd":2139,"Ġline":2140,"Ġmillion":2141,"Ġpap":2142,"any":2143,"oles":2144,"Ġshouldn":2145,"aces":2146,"Ġbath":2147,"Ġjail":2148,"Ġdogs":2149,"Ġtired":2150,"Ġdoll":2151,"Ġrats":2152,"eral":2153,"Ġquite":2154,"Ġherself":2155,"Ġslow":2156,"Ġ4":2157,"Ġshort":2158,"000":2159,"co":2160,"Ġbeast":2161,"Ġearth":2162,"Ġblind":2163,"Ġfloor":2164,"Ġvictim":2165,"uel":2166,"Ġthrew":2167,"Ġtakes":2168,"Ġpack":2169,"Ġterror":2170,"ousand":2171,"Ġweren":2172,"oop":2173,"ĠHer":2174,"Ġbuild":2175,"Ġsword":2176,"lic":2177,"Ġart":2178,"stit":2179,"Ġwords":2180,"ires":2181,"Ġconv":2182,"Ġignor":2183,"Ġhadn":2184,"Ġexact":2185,"cl":2186,"Ġcross":2187,"ma":2188,"ange":2189,"ffe":2190,"Ġsuper":2191,"Ġpur":2192,"osp":2193,"Ġmurderer":2194,"anny":2195,"Ġstep":2196,"ley":2197,"Ġthousand":2198,"Ġrip":2199,"ĠLe":2200,"cer":2201,"Ġknown":2202,"for":2203,"not":2204,"Ġwindow":2205,"ĠWill":2206,"Ġext":2207,"Ġlucky":2208,"Ġtop":2209,"\"?":2210,"Ġneeds":2211,"Ġdangerous":2212,"Ġbuck":2213,"erman":2214,"Ġhom":2215,"ully":2216,"empt":2217,"Ġsort":2218,"Ġ10":2219,"ndred":2220,"Ġcond":2221,"Ġspeak":2222,"Ġsweet":2223,"iled":2224,"ĠQu":2225,"Ġones":2226,"Ġhide":2227,"Ġhung":2228,"rap":2229,"ĠFrank":2230,"ĠPr":2231,"ugg":2232,"Ġstrong":2233,"Ġtear":2234,"Ġfag":2235,"Ġviol":2236,"Ġinnoc":2237,"leas":2238,"uring":2239,"Ġeasy":2240,"aving":2241,"rel":2242,"esb":2243,"Ġforgot":2244,"ousy":2245,"ĠAt":2246,"Ġcertain":2247,"Ġgang":2248,"Ġsomewhere":2249,"that":2250,"Ġexcept":2251,"Ġbeg":2252,"Ġprof":2253,"ien":2254,"oly":2255,"Ġpub":2256,"Ġdestroyed":2257,"ĠKe":2258,"Ġhop":2259,"vern":2260,"Ġhappens":2261,"Ġ20":2262,"Ġeverybody":2263,"Ġfill":2264,"Ġmeat":2265,"Ġtre":2266,"oring":2267,"Ġawful":2268,"fort":2269,"Ġdi":2270,"Ġshame":2271,"Ġteam":2272,"Ġcrook":2273,"ific":2274,"Ġhundred":2275,"Ġseemed":2276,"Ġdisapp":2277,"aj":2278,"Ġve":2279,"Ġarrest":2280,"Ġstuck":2281,"Ġexper":2282,"ĠStop":2283,"Ġlawy":2284,"Ġcoward":2285,"ese":2286,"ĠEng":2287,"Ġminute":2288,"ened":2289,"Ġwild":2290,"Ġimport":2291,"Ġfast":2292,"Ġpunch":2293,"ĠJim":2294,"Ġbroken":2295,"Ġacross":2296,"Ġtotally":2297,"Ġvampire":2298,"gy":2299,"king":2300,"Ġbell":2301,"Ġdefe":2302,"ored":2303,"ox":2304,"irt":2305,"Ġmurdered":2306,"Ġstom":2307,"Ġla":2308,"Ġroll":2309,"Ġtast":2310,"cr":2311,"Ġfine":2312,"Ġbox":2313,"Ġkept":2314,"Ġpast":2315,"Ġallow":2316,"Ġclothes":2317,"ĠSam":2318,"Ġtort":2319,"ision":2320,"ming":2321,"Ġdin":2322,"ature":2323,"ĠTell":2324,"Ġstabbed":2325,"Ġtrans":2326,"Ġguts":2327,"Ġsaved":2328,"ipe":2329,"Ġdrag":2330,"Ġris":2331,"gest":2332,"Ġtrick":2333,"Ġsim":2334,"Ġabsurd":2335,"ages":2336,"ĠBlack":2337,"Ġopp":2338,"Ġliar":2339,"Ġcontrol":2340,"ience":2341,"Ġfired":2342,"Ġsleeping":2343,"Ġpop":2344,"Ġsal":2345,"Ġmovie":2346,"Ġfear":2347,"ility":2348,"ĠMrs":2349,"read":2350,"Ġscr":2351,"âĢĶ":2352,"what":2353,"Ġlesb":2354,"Ġarm":2355,"ĠAmerican":2356,"Ġpark":2357,"Ġclub":2358,"cc":2359,"Ġexactly":2360,"Ġhid":2361,"Ġdire":2362,"ĠGe":2363,"Ġstomach":2364,"Ġcook":2365,"Ġdrugs":2366,"Ġpossible":2367,"Ġesca":2368,"Ġmass":2369,"Ġpissed":2370,"Ġgiving":2371,"Ġadv":2372,"Ġsmoke":2373,"Ġhosp":2374,"Ġdifferent":2375,"Ġimportant":2376,"eal":2377,"Ġlad":2378,"ĠTake":2379,"ĠDick":2380,"Ġhuge":2381,"rench":2382,"year":2383,"ism":2384,"ery":2385,"Ġsexy":2386,"ĠGive":2387,"Ġsmells":2388,"Ġrape":2389,"Ġlow":2390,"Ġnumber":2391,"oun":2392,"Ġgold":2393,"Ġweeks":2394,"Ġinnocent":2395,"Ġbiggest":2396,"nie":2397,"Ġcover":2398,"Ġlun":2399,"Ġfart":2400,"Ġlate":2401,"Ġguns":2402,"Ġhun":2403,"Ġworry":2404,"Ġvill":2405,"Ġmer":2406,"Ġthemselves":2407,"ues":2408,"Ġtill":2409,"Ġcriminal":2410,"Ġwear":2411,"Ġclass":2412,"ury":2413,"Ġsus":2414,"ocks":2415,"oph":2416,"Ġnone":2417,"Ġbang":2418,"Ġgent":2419,"ĠRuss":2420,"Ġlousy":2421,"Ġque":2422,"Ġquestion":2423,"Ġcalling":2424,"lo":2425,"oup":2426,"Ġsurpr":2427,"ior":2428,"Ġbite":2429,"sters":2430,"ili":2431,"Ġfingers":2432,"Ġcool":2433,"amed":2434,"Ġconc":2435,"Ġtraitor":2436,"Ġrespect":2437,"Ġcarry":2438,"Ġmental":2439,"ashed":2440,"Ġmeant":2441,"Ġvide":2442,"Ġdam":2443,"hood":2444,"Ġcal":2445,"Ġhospital":2446,"Ġbastards":2447,"Ġnorm":2448,"ald":2449,"ĠThese":2450,"iny":2451,"Ġtable":2452,"Ġfish":2453,"arrass":2454,"Ġfigure":2455,"Ġshar":2456,"Ġdirt":2457,"ighb":2458,"Ġanimals":2459,"Ġjack":2460,"Ġcap":2461,"Ġalong":2462,"und":2463,"Ġlikes":2464,"Ġ!":2465,"aim":2466,"Ġpicture":2467,"ĠGerman":2468,"Ġobs":2469,"bit":2470,"Ġwrite":2471,"let":2472,"attle":2473,"Ġfilthy":2474,"Ġmachine":2475,"Ġembarrass":2476,"friend":2477,"ĠAny":2478,"Ġfav":2479,"ana":2480,"ney":2481,"Ġborn":2482,"Ġlay":2483,"ĠSha":2484,"rit":2485,"Ġtap":2486,"Ġjud":2487,"Ġskull":2488,"Ġpress":2489,"Ġwearing":2490,"ounds":2491,"Ġfake":2492,"ĠEl":2493,"Ġsmok":2494,"Ġdecided":2495,"Ġchicken":2496,"ider":2497,"ĠPe":2498,"Ġarmy":2499,"Ġperver":2500,"Ġur":2501,"Ġdisc":2502,"âĻ":2503,"ĠEven":2504,"Ġtits":2505,"ĠGu":2506,"Ġpulled":2507,"ron":2508,"fully":2509,"ities":2510,"ession":2511,"Ġsingle":2512,"Ġbes":2513,"Ġmut":2514,"Ġnearly":2515,"Ġlock":2516,"ills":2517,"Ġlunatic":2518,"Ġbum":2519,"Ġclear":2520,"joy":2521,"Ġbury":2522,"Ġhero":2523,"Ġcorp":2524,"ius":2525,"Ġneighb":2526,"Ġnews":2527,"Ġwood":2528,"Ġbeating":2529,"Ġpretend":2530,"ĠâĻ":2531,"Ġcir":2532,"aul":2533,"Ġobv":2534,"house":2535,"Ġdrown":2536,"oth":2537,"ĠHoly":2538,"uddy":2539,"orge":2540,"Ġhanging":2541,"ging":2542,"cially":2543,"ĠCharl":2544,"Ġgovern":2545,"ĠBob":2546,"Ġcheck":2547,"Ġpromise":2548,"Ġangry":2549,"ative":2550,"ĠListen":2551,"Ġcommand":2552,"Ġfix":2553,"Ġbottom":2554,"Ġexplain":2555,"Ġstrang":2556,"Ġbullets":2557,"Ġsurv":2558,"Ġimagine":2559,"Ġfeed":2560,"Ġassass":2561,"zz":2562,"isted":2563,"Ġwed":2564,"Ġstanding":2565,"Ġannoy":2566,"gn":2567,"Ġstate":2568,"aged":2569,"irth":2570,"oint":2571,"que":2572,"Ġcontin":2573,"Ġband":2574,"ĠCar":2575,"Ġclos":2576,"Ġpaid":2577,"Ġresp":2578,"erm":2579,"Ġ#":2580,"Ġear":2581,"Ġmark":2582,"Ġpieces":2583,"Ġdraw":2584,"Ġanswer":2585,"Ġvirgin":2586,"Ġwhose":2587,"Ġmusic":2588,"Ġprep":2589,"iter":2590,"Ġemp":2591,"iest":2592,"ping":2593,"sing":2594,"Ġev":2595,"Ġfools":2596,"Ġunless":2597,"Ġlosers":2598,"vent":2599,"Ġcell":2600,"Ġtough":2601,"Ġprostit":2602,"wise":2603,"lish":2604,"Ġcorn":2605,"Ġnail":2606,"Ġtoil":2607,"Ġfault":2608,"Ġspent":2609,"Ġlawyer":2610,"go":2611,"yr":2612,"Ġcursed":2613,"olf":2614,"Ġserv":2615,"Ġmagic":2616,"Ġruin":2617,"enty":2618,"Ġbow":2619,"ĠGr":2620,"ites":2621,"Ġears":2622,"Ġplanet":2623,"Ġforever":2624,"bt":2625,"Ġloved":2626,"Ġenjoy":2627,"Ġbare":2628,"Ġpot":2629,"Ġpos":2630,"stem":2631,"Ġtruck":2632,"airs":2633,"ĠFrench":2634,"ilt":2635,"ified":2636,"ĠJoe":2637,"Ġthank":2638,"Ġer":2639,"ĠLord":2640,"Ġcrack":2641,"Ġasses":2642,"Ġupon":2643,"Ġseem":2644,"ĠâĻª":2645,"Ġhorn":2646,"Ġtail":2647,"ĠTr":2648,"ĠYork":2649,"Ġbank":2650,"Ġunc":2651,"xual":2652,"Ġsna":2653,"Ġcig":2654,"Ġbug":2655,"eter":2656,"ĠPut":2657,"Ġgives":2658,"amer":2659,"Ġoutside":2660,"Ġfra":2661,"ĠMc":2662,"Ġlonger":2663,"pecially":2664,"Ġpigs":2665,"Ġrab":2666,"Ġcompany":2667,"iting":2668,"ĠMex":2669,"ĠNe":2670,"Ġfut":2671,"Ġlar":2672,"Ġhorrible":2673,"yn":2674,"Ġeating":2675,"ĠWhite":2676,"Ġroad":2677,"Ġsuit":2678,"Ġpunched":2679,"rupt":2680,"ĠMexic":2681,"Ġpaper":2682,"Ġasking":2683,"Ġteach":2684,"ees":2685,"Ġserious":2686,"ĠFucking":2687,"Ġrotten":2688,"mber":2689,"set":2690,"urch":2691,"Ġusing":2692,"Ġvideo":2693,"Ġstole":2694,"Ġsuddenly":2695,"Ġtwice":2696,"Ġamong":2697,"ular":2698,"ov":2699,"irl":2700,"Ġcost":2701,"Ġmotherfuck":2702,"Ġrecord":2703,"Ġmaster":2704,"haps":2705,"Ġegg":2706,"Ġdesp":2707,"Ġraped":2708,"ows":2709,"Ġgiven":2710,"Ġcourt":2711,"inc":2712,"Ġmot":2713,"ĠSm":2714,"ĠMiss":2715,"Ġwatching":2716,"Ġpolit":2717,"Ġwhoever":2718,"iac":2719,"ume":2720,"Ġwake":2721,"Ġbirth":2722,"Ġgross":2723,"Ġspir":2724,"Ġmistake":2725,"Ġsystem":2726,"Ġhated":2727,"Ġwhis":2728,"Ġcreep":2729,"Ġbust":2730,"Ġbod":2731,"Ġboring":2732,"amb":2733,"aret":2734,"aur":2735,"cal":2736,"Ġcent":2737,"ĠTw":2738,"Ġrepl":2739,"atched":2740,"Ġvag":2741,"Ġsun":2742,"aced":2743,"rence":2744,"fer":2745,"Ġfinish":2746,"Ġgentle":2747,"Ġdise":2748,"avy":2749,"Ġ..":2750,"ĠGra":2751,"ris":2752,"Ġeight":2753,"Ġbrothers":2754,"Ġbelong":2755,"ĠMom":2756,"aven":2757,"Ġenemy":2758,"Ġneeded":2759,"Ġchair":2760,"ffee":2761,"ache":2762,"Ġsmile":2763,"Ġseconds":2764,"Ġtight":2765,"Ġbeer":2766,"nes":2767,"Ġbeha":2768,"Ġcreature":2769,"omm":2770,"Ġwedding":2771,"Ġlies":2772,"Ġdev":2773,"rove":2774,"Ġplane":2775,"Ġgas":2776,"Ġbear":2777,"Ġsol":2778,"ĠThose":2779,"iers":2780,"Ġ?":2781,"ager":2782,"Ġglass":2783,"ination":2784,"Ġnear":2785,"What":2786,"ĠRob":2787,"Ġprick":2788,"Ġfail":2789,"ots":2790,"ĠSe":2791,"Ġamaz":2792,"ĠKing":2793,"otic":2794,"ĠEx":2795,"Ġed":2796,"Ã©":2797,"Ġpleas":2798,"Ġproper":2799,"of":2800,"Ġlick":2801,"ĠWould":2802,"Ġcri":2803,"ĠAmerica":2804,"Ġescape":2805,"ĠSte":2806,"Ġcolle":2807,"!'":2808,"Ġride":2809,"Ġjok":2810,"Ġdriving":2811,"like":2812,"Ġstopped":2813,"Ġhonest":2814,"Ġnormal":2815,"Ġdance":2816,"Ġrad":2817,"Ġstrange":2818,"give":2819,"He":2820,"uce":2821,"Ġboyfriend":2822,"Ġsafe":2823,"ips":2824,"hell":2825,"Ġlips":2826,"bing":2827,"Ġcoffee":2828,"itive":2829,"Ġvis":2830,"Ġcharge":2831,"Ġlame":2832,"ules":2833,"mm":2834,"Ġdare":2835,"Ġdear":2836,"Ġslap":2837,"Ġpersonal":2838,"Ġcurse":2839,"ĠCharlie":2840,"boy":2841,"Ġcruel":2842,"Ġlesbian":2843,"Ġbegin":2844,"ĠGoddamn":2845,"ara":2846,"Ġpublic":2847,"Ġring":2848,"Ġelect":2849,"Ġleaving":2850,"Ġscrewing":2851,"Ġtree":2852,"idge":2853,"Ġarms":2854,"Ġce":2855,"iles":2856,"Ġfair":2857,"Ġdinner":2858,"Ġtoilet":2859,"Ġshr":2860,"Ġaff":2861,"Ġbreath":2862,"ĠJews":2863,"olute":2864,"Ġgovernment":2865,"Ġfir":2866,"Ġbigger":2867,"Ġdeserve":2868,"Ġquickly":2869,"Ġsucked":2870,"Ġcorpse":2871,"asm":2872,"oody":2873,"chen":2874,"Ġhandle":2875,"Ġmarry":2876,"Ġdanc":2877,"Ġfur":2878,"iam":2879,"Ġsong":2880,"Ġhist":2881,"ĠHit":2882,"ĠOK":2883,"ĠBen":2884,"Ġattempt":2885,"Cause":2886,"Sh":2887,"Ġfeeling":2888,"Ġpartner":2889,"vest":2890,"Ġblue":2891,"venge":2892,"ky":2893,"Ġprove":2894,"ains":2895,"Ġduring":2896,"idence":2897,"Ġrub":2898,"ĠNor":2899,"ĠPer":2900,"Ġbodies":2901,"ĠBy":2902,"eless":2903,"Ġwret":2904,"ĠHave":2905,"Ġstood":2906,"Ġshop":2907,"itten":2908,"Ġarrog":2909,"Ġproblems":2910,"Ġanybody":2911,"Ġbathroom":2912,"Ġtow":2913,"str":2914,"Ġheal":2915,"Ġkidna":2916,"Ġworked":2917,"ĠGeorge":2918,"den":2919,"Ġboot":2920,"Ġround":2921,"Ġheld":2922,"Ġwash":2923,"esh":2924,"ĠEnglish":2925,"Ġimm":2926,"Ġfavor":2927,"Ġrubb":2928,"ĠPro":2929,"Ġholding":2930,"Ġgiant":2931,"Ġdiv":2932,"Ġcamp":2933,"Ġcause":2934,"ĠGre":2935,"Ġhost":2936,"host":2937,"ham":2938,"Ġoper":2939,"ask":2940,"Ġwhether":2941,"Ġglad":2942,"Ġ30":2943,"Ġsoft":2944,"Ġrace":2945,"Ġruined":2946,"Ġhur":2947,"ĠMor":2948,"Ġfuture":2949,"ĠCol":2950,"itted":2951,"Ġgroup":2952,"Ġice":2953,"Ġthie":2954,"Ġtrigger":2955,"Ġempty":2956,"how":2957,"zen":2958,"ĠSl":2959,"Ġthanks":2960,"Ġintell":2961,"Ġut":2962,"Ġage":2963,"vered":2964,"Ġgotten":2965,"Ġspecial":2966,"Ġweapon":2967,"come":2968,"ĠCon":2969,"oman":2970,"ĠOf":2971,"ĠEd":2972,"ĠSat":2973,"Ġhates":2974,"Ġpit":2975,"Ġmessed":2976,"Ġworried":2977,"Ġgreen":2978,"Ġscum":2979,"Ġremind":2980,"Ġstinks":2981,"Ġladies":2982,"And":2983,"Ġahead":2984,"inate":2985,"Ġcigaret":2986,"icked":2987,"Ġcast":2988,"ĠJe":2989,"bo":2990,"ĠTV":2991,"Ġseven":2992,"wh":2993,".âĢĿ":2994,"Ġwithin":2995,"riage":2996,"Ġrelation":2997,"Ġespecially":2998,"Ġabsolute":2999,"Ġpriv":3000,"Ġreport":3001,"Ġexcuse":3002,"Ġcrush":3003,"ĠSer":3004,"andy":3005,"Ġgrave":3006,"Ġtie":3007,"Ġshout":3008,"ĠAb":3009,"ĠMe":3010,"ĠFl":3011,"Ġannoying":3012,"Ġav":3013,"Ġsens":3014,"ĠWas":3015,"ĠAd":3016,"ĠThan":3017,"opath":3018,"ĠRic":3019,"Ġexam":3020,"gged":3021,"war":3022,"Ġlim":3023,"Ġpract":3024,"tern":3025,"ational":3026,"ges":3027,"Ġant":3028,"Ġdoubt":3029,"yl":3030,"Ġlab":3031,"Ġthick":3032,"astic":3033,"Ġcirc":3034,"ummy":3035,"arded":3036,"Ġkit":3037,"Ġpriest":3038,"Ġhyp":3039,"unity":3040,"Ġamazing":3041,"Ġwound":3042,"ories":3043,"ĠCaptain":3044,"ĠShoot":3045,"Ġblew":3046,"arch":3047,"Ġupset":3048,"Ġpin":3049,"Ġsugg":3050,"Ġsucking":3051,"ai":3052,"ĠMad":3053,"Ġrelationship":3054,"allow":3055,"Ġburning":3056,"ĠAfter":3057,"Ġsuggest":3058,"urity":3059,"iling":3060,"Ġrealize":3061,"Ġtaste":3062,"lin":3063,"ĠChe":3064,"Ġpregn":3065,"hard":3066,"Ġhistory":3067,"It":3068,"vin":3069,"Ġmir":3070,"ift":3071,"ĠMart":3072,"Ġcheap":3073,"ancy":3074,"Ġbones":3075,"ĠPlease":3076,"medi":3077,"Ġdonkey":3078,"...\"":3079,"ĠHere":3080,"osexual":3081,"uct":3082,"erry":3083,"Ġnamed":3084,"ĠPaul":3085,"Ġbleeding":3086,".....":3087,"Ġscreaming":3088,"ĠCra":3089,"Ġlocked":3090,"Ġchop":3091,"Ġbegan":3092,"Ġpet":3093,"Ġaccident":3094,"Ġorders":3095,"ĠJap":3096,"Ġspit":3097,"ression":3098,"Ġwalking":3099,"Ġcrying":3100,"off":3101,"Ġdate":3102,"Ġbreat":3103,"Ġcous":3104,"Ġmadman":3105,"inese":3106,"?'":3107,"ĠAm":3108,"Ġimmedi":3109,"Ġignorant":3110,"de":3111,"Ġmod":3112,"Ġghost":3113,"Ġcrime":3114,"Ġ6":3115,"Ġbought":3116,"Ġlived":3117,"Ġ15":3118,"Ġfreaking":3119,"Ġbecame":3120,"gar":3121,"mas":3122,"inite":3123,"Ġlarge":3124,"ĠMic":3125,"ĠDav":3126,"Ġbucks":3127,"Ġcannot":3128,"imply":3129,"Ġpeace":3130,"Ġdirect":3131,"Ġoften":3132,"Ġforce":3133,"Ġcute":3134,"Ġsight":3135,"Ġdesper":3136,"cious":3137,"Ġblame":3138,"ĠMike":3139,"Ġsoldiers":3140,"Ġtar":3141,"Ġcamer":3142,"ices":3143,"ention":3144,"ĠPl":3145,"ural":3146,"uit":3147,"ĠAng":3148,"essed":3149,"Ġspot":3150,"Ġpee":3151,"Ġseeing":3152,"Ġsand":3153,"Ġinvol":3154,"Ġpictures":3155,"Ġthieves":3156,"Ġknees":3157,"ĠEarth":3158,"Ġapartment":3159,"Ġbother":3160,"terday":3161,"Ġquestions":3162,"Ġcriminals":3163,"ued":3164,"Ġshoes":3165,"ĠRight":3166,"kin":3167,"Ġocc":3168,"Ġinject":3169,"ĠMon":3170,"ĠCha":3171,"look":3172,"Ġputting":3173,"Ġmate":3174,"Ġkillers":3175,"Ġrespons":3176,"Ġtroll":3177,"enny":3178,"ibly":3179,"Ġaddict":3180,"ĠHarry":3181,"rac":3182,"Ġjo":3183,"Ġspace":3184,"dom":3185,"Ġbat":3186,"uted":3187,"ĠPh":3188,"Ġwilling":3189,"Ġapolog":3190,"Ġlist":3191,"Ġequ":3192,"Ġhonor":3193,"Ġbesides":3194,"Ġcaptain":3195,"rage":3196,"ĠUh":3197,"Ġspirit":3198,"Ġexist":3199,"ached":3200,"Ġwet":3201,"ĠBar":3202,"ela":3203,"gen":3204,"ott":3205,"Ġmoved":3206,"Ġeng":3207,"yle":3208,"ening":3209,"ĠChinese":3210,"Ġsees":3211,"ohol":3212,"they":3213,"If":3214,"Ġca":3215,"Ġcancer":3216,"Ġhotel":3217,"Ġburied":3218,"Ġdig":3219,"Ġisland":3220,"Ġprod":3221,"Ġdropped":3222,"Ġdressed":3223,"Ġbitches":3224,"ĠSomet":3225,"ĠAh":3226,"Ġbuddy":3227,"Ġaccept":3228,"Ġselfish":3229,"Ġpresident":3230,"Ġcalm":3231,"cohol":3232,"now":3233,"ners":3234,"Ġsimply":3235,"pping":3236,"Ġhunt":3237,"Ġguard":3238,"Ġpock":3239,"angers":3240,"Ġteacher":3241,"asy":3242,"istic":3243,"ĠEm":3244,"Ġrealized":3245,"Ġthrowing":3246,"ett":3247,"ague":3248,"Ġbuilding":3249,"uke":3250,"ĠSee":3251,"Ġmoving":3252,"Ġmonsters":3253,"Ġfighting":3254,"Ġmarriage":3255,"Ġpatient":3256,"Ġmale":3257,"Ġsav":3258,"Ġnor":3259,"ĠSir":3260,"Ġstarts":3261,"cha":3262,"inal":3263,"uation":3264,"Ġkitchen":3265,"Ġrac":3266,"Ġform":3267,"une":3268,"itary":3269,"Ġstrike":3270,"ino":3271,"Ġshowed":3272,"Ġscare":3273,"Ġforgive":3274,"ĠDeath":3275,"Ġidiots":3276,"Ġbattle":3277,"Ġblond":3278,"Ġ50":3279,"Ġbelly":3280,"cks":3281,"asc":3282,"Ġsne":3283,"Ġlazy":3284,"iza":3285,"Ġturns":3286,"Ġarrogant":3287,"Ġmain":3288,"icious":3289,"Ġsum":3290,"race":3291,"Ġthigh":3292,"ĠFirst":3293,"Ġfle":3294,"ĠPeter":3295,"Ġsuspect":3296,"Ġbone":3297,"Ġfigured":3298,"ER":3299,"Ġwha":3300,"Ġweapons":3301,"ium":3302,"oved":3303,"sc":3304,"ĠIr":3305,"urb":3306,"Ġsacr":3307,"Ġbirds":3308,"gue":3309,"ogn":3310,"Ġmention":3311,"Ġrubbish":3312,"Ġdust":3313,"ĠGood":3314,"Ġalcohol":3315,"Ġload":3316,"Ġtwisted":3317,"Ġtotal":3318,"ĠJimmy":3319,"Ġmessing":3320,"Ġhooker":3321,"Ġacting":3322,"Ġliked":3323,"Ġund":3324,"Ġbetray":3325,"Ġsimple":3326,"Ġobviously":3327,"ĠRay":3328,"ressed":3329,"Ġdisease":3330,"initely":3331,"Ġcertainly":3332,"Ġcripp":3333,"Ġfaces":3334,"Ġham":3335,"Ġtele":3336,"Ġyellow":3337,"ivil":3338,"ising":3339,"iced":3340,"Ġclim":3341,"Ġproud":3342,"Ġrelig":3343,"Ġtape":3344,"Ġsuffer":3345,"Ġet":3346,"Ġcares":3347,"Ġneighbor":3348,"Ġate":3349,"ĠJo":3350,"Ġotherwise":3351,"Ġlistening":3352,"ĠPeople":3353,"Ġwipe":3354,"omed":3355,"Ġsuc":3356,"Ġhasn":3357,"Ġhumili":3358,"Ġfilled":3359,"Ġpicked":3360,"Ġdry":3361,"orce":3362,"Ġusually":3363,"Ġinform":3364,"Ġcollect":3365,"We":3366,"Ġtick":3367,"Ġshoulder":3368,"olly":3369,"Ġadmit":3370,"Ġsin":3371,"Ġpal":3372,"Ġevent":3373,"Ġincomp":3374,"Ġfield":3375,"Ġinfect":3376,"Ġshitty":3377,"Ġcomput":3378,"Ġofficer":3379,"Ġqueen":3380,"Ġhoney":3381,"Ġreach":3382,"Ġamnes":3383,"Ġfed":3384,"Ġtorture":3385,"Ġthird":3386,"Ġyesterday":3387,"Ġlaughing":3388,"gu":3389,"Ġwatched":3390,"ĠChristmas":3391,"Ġgenius":3392,"Ġpray":3393,"Ġworks":3394,"Ġboat":3395,"Ġcorner":3396,"Ġamnesia":3397,"Ġcard":3398,"Ġmaniac":3399,"Ġspread":3400,"Ġhitting":3401,"Ġsea":3402,"Ġcousin":3403,"Ġimmediately":3404,"ĠCarl":3405,"Ġsky":3406,"cessary":3407,"Ġ12":3408,"Ġdouche":3409,"alent":3410,"Ġcalls":3411,"Ġphot":3412,"Ġwitches":3413,"nect":3414,"Ġcommit":3415,"Ġver":3416,"Ġhired":3417,"Ġexplode":3418,"Ġgut":3419,"Ġpoop":3420,"ĠDan":3421,"Ġinterested":3422,"Ġcivil":3423,"ement":3424,"Ġrecogn":3425,"ĠQue":3426,"inary":3427,"iety":3428,"Ġpunish":3429,"Ġmount":3430,"ĠNaz":3431,"Ġchanged":3432,"Ġbottle":3433,"Ġseriously":3434,"Ġsnake":3435,"Ġpsycho":3436,"ĠNob":3437,"Ġclaim":3438,"ring":3439,"Ġeverywhere":3440,"Ġallowed":3441,"Ġhy":3442,"gging":3443,"Ġcomplain":3444,"Ġrisk":3445,"no":3446,"ura":3447,"antic":3448,"Ġvan":3449,"Ġdrinking":3450,"aches":3451,"Ġuncle":3452,"ording":3453,"ĠOnly":3454,"ĠBoy":3455,"Damn":3456,"con":3457,"Ġib":3458,"ĠBig":3459,"Ġfinds":3460,"sive":3461,"with":3462,"Ġge":3463,"owers":3464,"Ġforward":3465,"Ġchurch":3466,"Ġhungry":3467,"ĠKeep":3468,"Ġcollege":3469,"Ġstone":3470,"Ġfem":3471,"Ġmiles":3472,"Ġbase":3473,"Ġinvest":3474,"ĠPat":3475,"Ġpregnant":3476,"otion":3477,"Ġholy":3478,"Ġgener":3479,"Ġibiza":3480,"Oh":3481,"well":3482,"ades":3483,"Ġriver":3484,"ify":3485,"ĠBet":3486,"Ġwitness":3487,"Ġjeal":3488,"Ġparan":3489,"Ġcorrupt":3490,"Ġabsolutely":3491,"awn":3492,"Ġcust":3493,"iment":3494,"Ġrules":3495,"Ġsecurity":3496,"Ġintellig":3497,"Ġtarget":3498,"Ġworm":3499,"Ġorgasm":3500,"pper":3501,"Ġsucker":3502,"Ġpool":3503,"ĠOur":3504,"ĠPar":3505,"Ġspl":3506,"Ġhorny":3507,"do":3508,"arter":3509,"Ġpost":3510,"Ġsentence":3511,"Ġjudge":3512,"Ġtem":3513,"lex":3514,"Ġval":3515,"vous":3516,"acy":3517,"just":3518,"line":3519,"enn":3520,"ĠJapan":3521,"she":3522,"Ġlaug":3523,"la":3524,"oned":3525,"Ġcab":3526,"resh":3527,"eared":3528,"rop":3529,"Ġtiny":3530,"using":3531,"Ġrangers":3532,"Ġlosing":3533,"law":3534,"who":3535,"Ġdwar":3536,"Ġwrote":3537,"Ġslowly":3538,"hal":3539,"Ġdefinitely":3540,"Ġshove":3541,"ently":3542,"Ġmission":3543,"Ġparas":3544,"Ġraised":3545,"Ġdefend":3546,"Ġnigg":3547,"Ġplayed":3548,"Ġsoldier":3549,"port":3550,"Ġdouble":3551,"Ġloose":3552,"Ġforse":3553,"ĠSw":3554,"ugs":3555,"Ġmistic":3556,"ĠIndian":3557,"Ġtall":3558,"Ġbeaten":3559,"Ġskinny":3560,"said":3561,"Ġwalked":3562,"ubborn":3563,"ech":3564,"Ġwhores":3565,"ments":3566,"Ġworthless":3567,"work":3568,"Ġincompet":3569,"Ġ*":3570,"Ġheavy":3571,"ĠSar":3572,"ission":3573,"Ġstreets":3574,"rib":3575,"udd":3576,"Ġwarm":3577,"aff":3578,"hael":3579,"ises":3580,"Ġoutta":3581,"ĠMax":3582,"Ġhomosexual":3583,"\".":3584,"Ġthin":3585,"ĠHen":3586,"Ġprefer":3587,"Ġdisappear":3588,"Ġlikely":3589,"Ġcovered":3590,"Ġflesh":3591,"ica":3592,"ĠMary":3593,"ĠCut":3594,"ĠRem":3595,"izz":3596,"Ġorgan":3597,"don":3598,"happy":3599,"Ġcrew":3600,"AN":3601,"aker":3602,"ourse":3603,"ĠTwo":3604,"Ġ7":3605,"Ġcas":3606,"itty":3607,"Ġsweat":3608,"Ġabove":3609,"Ġcrow":3610,"wood":3611,"Ġopened":3612,"Ġincl":3613,"Ġhiding":3614,"Ġsharp":3615,"ĠDude":3616,"ĠLou":3617,"Ġperhaps":3618,"Ġuniver":3619,"Ġteen":3620,"Ġgentlemen":3621,"Ġdrove":3622,"Ġtech":3623,"ĠRichard":3624,"Ġwee":3625,"Ġchasing":3626,"Ġkicking":3627,"Ġlearned":3628,"Ġfant":3629,"Ġnat":3630,"Ġrif":3631,"ĠRed":3632,"Ġhurts":3633,"Ġlaid":3634,"Ġheaven":3635,"Ġroof":3636,"ĠWait":3637,"Ġmilk":3638,"ries":3639,"Ġchoice":3640,"ilty":3641,"ushed":3642,"Ġwretched":3643,"ĠBull":3644,"ĠRon":3645,"Ġremain":3646,"eez":3647,"Ġpupp":3648,"ĠJul":3649,"Ġclient":3650,"Ġincred":3651,"Ġassassin":3652,"Ġcup":3653,"Ġhall":3654,"ags":3655,"Ġavoid":3656,"ajor":3657,"Ġcraz":3658,"Ġhumans":3659,"Ġkey":3660,"Ġsurvive":3661,"Ġloud":3662,"Ġraise":3663,"Ġdollars":3664,"That":3665,"Ġpan":3666,"your":3667,"Ġfan":3668,"Ġgames":3669,"Ġtalked":3670,"Ġslaughter":3671,"ĠAfric":3672,"Ġagent":3673,"Ġvampires":3674,"Ġsurprised":3675,"Don":3676,"right":3677,"Ġ9":3678,"Ġsoc":3679,"Ġcraw":3680,"Ġmissed":3681,"Ġprofession":3682,"mon":3683,"Ġsever":3684,"ĠJames":3685,"Ġ19":3686,"mother":3687,"Ġshirt":3688,"Ġpair":3689,"...?":3690,"Ġstubborn":3691,"Ġrev":3692,"Ġblock":3693,"Ġheck":3694,"Ġnon":3695,"alty":3696,"ipping":3697,"yan":3698,"otch":3699,"Ġfucker":3700,"Ġways":3701,"ploy":3702,"Ġshare":3703,"Ġenemies":3704,"Ġden":3705,"Ġcheek":3706,"holes":3707,"ket":3708,"Ġstation":3709,"ĠWhich":3710,"Ġcoun":3711,"Ġfilm":3712,"Ġknocked":3713,"Ġseat":3714,"ĠCo":3715,"Ġelim":3716,"Ġban":3717,"ĠCr":3718,"Ġcars":3719,"edy":3720,"hant":3721,"Ġdaddy":3722,"ĠSomeone":3723,"Ġpile":3724,"oming":3725,"Ġintern":3726,"Ġowe":3727,"Ġnipp":3728,"Ġ100":3729,"Ġattacked":3730,"iel":3731,"Ġpervert":3732,"cri":3733,"ses":3734,"Ġstaring":3735,"Ġunhappy":3736,"rid":3737,"Ġ8":3738,"Ġpill":3739,"Ġnude":3740,"Ġstore":3741,"Ġanywhere":3742,"Ġslut":3743,"case":3744,"Ġbill":3745,"ĠJohnny":3746,"Ġpir":3747,"Ġchoose":3748,"Ġsituation":3749,"Ġnervous":3750,"time":3751,"ĠCal":3752,"Ġboard":3753,"hel":3754,"Ġdesert":3755,"Ġmidget":3756,"Ġwiz":3757,"heriff":3758,"order":3759,"Ġmilitary":3760,"Ġwoods":3761,"ining":3762,"Ġwine":3763,"Ġnar":3764,"usion":3765,"Ġstupidity":3766,"ĠChristian":3767,"Ġfaggot":3768,"Ġevidence":3769,"nded":3770,"Ġguilty":3771,"Ġbirthday":3772,"ĠDavid":3773,"lt":3774,"Ġswallow":3775,"Ġopport":3776,"can":3777,"Ġfresh":3778,"Ġlift":3779,"onel":3780,"Ġexecution":3781,"par":3782,"pose":3783,"Ġsize":3784,"Ġgoat":3785,"Ġcrappy":3786,"Ġmadness":3787,"Ġshots":3788,"Ġshower":3789,"Ġfootball":3790,"Ġknee":3791,"Ġcutting":3792,"Ġadm":3793,"Ġpsychopath":3794,"ĠComm":3795,"essor":3796,"ĠNick":3797,"Ġpromised":3798,"Ġvillage":3799,"Ġcomputer":3800,"Ġrain":3801,"ĠMother":3802,"Ġmissing":3803,"Ġinterc":3804,"Ġconcern":3805,"Ġpleasure":3806,"IN":3807,"tle":3808,"ĠSu":3809,"Ġbrown":3810,"ĠMichael":3811,"Ġbene":3812,"Ġduck":3813,"Ġnumb":3814,"Ġere":3815,"Ġstories":3816,"Ġaut":3817,"Ġnature":3818,"Ġvom":3819,"Ġterrorist":3820,"ĠSorry":3821,"Ġdeaf":3822,"Ġunderw":3823,"Ġspec":3824,"Ġdesperate":3825,"Ġop":3826,"Ġourselves":3827,"Ġeasily":3828,"Ġinvolved":3829,"iant":3830,"Ġoffer":3831,"because":3832,"Ġcareful":3833,"Ġideas":3834,"ĠBrit":3835,"Ġconsider":3836,"Ġsed":3837,"rod":3838,"ĠNobody":3839,"Ġparanoid":3840,"though":3841,"Ġordered":3842,"ĠRussian":3843,"ĠBB":3844,"Ġscratch":3845,"Th":3846,"Ġju":3847,"Ġtells":3848,"ĠOnce":3849,"Ġflying":3850,"Ġposition":3851,"Ġjealous":3852,"agger":3853,"Ġextra":3854,"Ġpant":3855,"Ġrepe":3856,"headed":3857,"Ġdealer":3858,"Ġsmoking":3859,"light":3860,"Ġty":3861,"Ġnur":3862,"Ġolder":3863,"Ġaccording":3864,"Ġpocket":3865,"ĠWal":3866,"Ġwriting":3867,"tes":3868,"ĠBilly":3869,"Ġspy":3870,"Ġkeeps":3871,"Ġutter":3872,"ĠSatan":3873,"ĠLuc":3874,"Ġcamera":3875,"Ġseveral":3876,"ka":3877,"ased":3878,"Ġsupport":3879,"Ġsooner":3880,"ĠGot":3881,"Ġappear":3882,"Ġdreams":3883,"Ġconnect":3884,"Ġpush":3885,"Ġselling":3886,"Ġdifference":3887,"Ġzomb":3888,"Ġneighborhood":3889,"Ġitself":3890,"ils":3891,"rian":3892,"Ġstarting":3893,"ĠDoes":3894,"Ġmonkeys":3895,"Ġrude":3896,"Ġdope":3897,"ounded":3898,"Ġsperm":3899,"rant":3900,"looking":3901,"Ġvac":3902,"Ġnerd":3903,"Ġya":3904,"Ġwhom":3905,"ĠEn":3906,"Ġshake":3907,"Ġkissing":3908,"Ġmem":3909,"Ġlocal":3910,"Ġfinished":3911,"Ġmal":3912,"Ġripped":3913,"Ġsmash":3914,"Ġmessage":3915,"Ġfemale":3916,"Ġintercourse":3917,"illed":3918,"Ġreb":3919,"Ġthrown":3920,"angu":3921,"Ġloves":3922,"Ġinformation":3923,"Ġlunch":3924,"Ġclosed":3925,"Ġtouched":3926,"Ġtour":3927,"ĠHu":3928,"Ġturning":3929,"Ġimposs":3930,"Ġexecuted":3931,"Ġjokes":3932,"Ġwel":3933,"Ġsending":3934,"Ġcreatures":3935,"Ġdriver":3936,"ĠSim":3937,"Ġstruck":3938,"Ġbeginning":3939,"ĠGl":3940,"Ġmotherfucker":3941,"Ġtrip":3942,"Ġmentally":3943,"lebr":3944,"Ġfort":3945,"llen":3946,"orrow":3947,"ĠItal":3948,"Ġbusy":3949,"bles":3950,"lim":3951,"Ġcustom":3952,"ĠHenry":3953,"Ġaim":3954,"Ġbored":3955,"Ġdull":3956,"Ġcult":3957,"Ġcats":3958,"iday":3959,"Ġprivate":3960,"ĠQueen":3961,"Ġcapt":3962,"Ġended":3963,"Ġwolf":3964,"ann":3965,"leep":3966,"ids":3967,"ille":3968,"Ġhelped":3969,"Ġstealing":3970,"Ġterrorists":3971,"Ġlung":3972,"Ġgods":3973,"Ġetern":3974,"Ġrifle":3975,"Ġmort":3976,"elly":3977,"Ġagree":3978,"Ġassholes":3979,"Ġspo":3980,"Ġbelieved":3981,"ena":3982,"Ġsheep":3983,"Ġletting":3984,"acle":3985,"inct":3986,"ammit":3987,"Ġflat":3988,"Ġcharac":3989,"night":3990,"Ġheat":3991,"Ġpink":3992,"kend":3993,"stairs":3994,"ĠMark":3995,"ption":3996,"Ġpresent":3997,"Ġignorance":3998,"Ġdancing":3999,"back":4000,"ived":4001,"ĠSex":4002,"Ġfreaks":4003,"Ġradio":4004,"Ġtechn":4005,"Ġcart":4006,"Ġeff":4007,"ĠAnt":4008,"Ġserial":4009,"Ġpil":4010,"uty":4011,"ĠWor":4012,"Ġscient":4013,"Ġdecide":4014,"Ġembarrassing":4015,"icle":4016,"Ġuns":4017,"ective":4018,"Ġsuffering":4019,"Ġcelebr":4020,"gl":4021,"ral":4022,"ĠX":4023,"Ġmama":4024,"Ġpoo":4025,"raph":4026,"Ġalien":4027,"Ġexter":4028,"Ġcareer":4029,"Ġdisgrace":4030,"Ġvictims":4031,"ĠIrish":4032,"Ġwritten":4033,"Ġthreatened":4034,"Ġhypoc":4035,"face":4036,"Ġtied":4037,"Ġforced":4038,"ĠDevil":4039,"Ġfellow":4040,"Ġfit":4041,"ero":4042,"Ġpump":4043,"ators":4044,"ĠFin":4045,"Ġbreaking":4046,"Ġcontact":4047,"Ġfarm":4048,"Ġslaves":4049,"Ġviolent":4050,"Ġweekend":4051,"gers":4052,"Ġhappening":4053,"Ġattention":4054,"gram":4055,"Ġholes":4056,"osh":4057,"geant":4058,"Ġsuppose":4059,"ground":4060,"ĠMa":4061,"anda":4062,"Ġguards":4063,"ĠEdd":4064,"arently":4065,"Ġiron":4066,"Ġlangu":4067,"ĠBill":4068,"Ġpowerful":4069,"Ġfiring":4070,"Ġstage":4071,"aughty":4072,"fortun":4073,"ĠJapanese":4074,"Ġdwarf":4075,"Ġincompetent":4076,"then":4077,"ads":4078,"Ġax":4079,"Ġna":4080,"Ġrope":4081,"Ġarrow":4082,"Ġswim":4083,"Ġemotion":4084,"ĠSomebody":4085,"Ġmeeting":4086,"Ġpure":4087,"ĠMen":4088,"Ġfaith":4089,"ĠUncle":4090,"Ġtreated":4091,"Ġmemory":4092,"isf":4093,"irty":4094,"ĠAlex":4095,"Ġcann":4096,"Ġblast":4097,"Ġremove":4098,"Ġends":4099,"Ġpaint":4100,"Ġsilent":4101,"Ġcolor":4102,"over":4103,"Ġthumb":4104,"ĠDanny":4105,"Ġprov":4106,"Ġexperience":4107,"cent":4108,"Ġwre":4109,"Ġsut":4110,"Ġtrap":4111,"Ġphys":4112,"ĠBloody":4113,"ĠAmericans":4114,"ĠIndians":4115,"Ġjoin":4116,"gun":4117,"Ġsuccess":4118,"mare":4119,"uten":4120,"ĠSay":4121,"ĠMal":4122,"arden":4123,"Ġpaying":4124,"ruction":4125,"ĠTommy":4126,"Ġled":4127,"ĠBra":4128,"Ġscary":4129,"Ġamb":4130,"anks":4131,"Ġattract":4132,"ĠFrom":4133,"Ġlights":4134,"father":4135,"rate":4136,"suck":4137,"Ġclearly":4138,"Ġpersonally":4139,"Ġcommon":4140,"cra":4141,"Ġfal":4142,"ĠMus":4143,"Ġregret":4144,"Ġinclud":4145,"ault":4146,"Ġtwenty":4147,"ĠScrew":4148,"ffect":4149,"tered":4150,"ĠSon":4151,"ĠPres":4152,"Ġobject":4153,"ĠBobby":4154,"amela":4155,"Ġanger":4156,"ĠSant":4157,"Ġplanning":4158,"ki":4159,"Ġsen":4160,"ĠTony":4161,"Ġsla":4162,"Ġnightmare":4163,"ĠWest":4164,"Ġbasket":4165,"Ġmix":4166,"ibility":4167,"Ġbooks":4168,"Ġlaughed":4169,"itude":4170,"Ġnigger":4171,"Ġscene":4172,"Ġmeaning":4173,"acher":4174,"Ġliter":4175,"Ġnotice":4176,"Ġtrad":4177,"Ġinsult":4178,"Ġmoron":4179,"ĠPhil":4180,"lect":4181,"ĠWar":4182,"ulation":4183,"ĠEur":4184,"Ġforeign":4185,"Ġhoping":4186,"Ġwip":4187,"Ġrevenge":4188,"Ġspank":4189,"this":4190,"Ġdevils":4191,"ias":4192,"Ġblade":4193,"Ġpulling":4194,"Ġthousands":4195,"Ġprostitute":4196,"ĠHouse":4197,"Ġknowing":4198,"ĠCle":4199,"Ġnoise":4200,"ĠFred":4201,"igging":4202,"Ġsutra":4203,"Ġcash":4204,"eds":4205,"Ġkama":4206,"Ġviolence":4207,"Ġeventually":4208,"Ġbon":4209,"uses":4210,"ĠMag":4211,"Ġblown":4212,"Ġmoon":4213,"Ġresponsible":4214,"omen":4215,"Ġwasting":4216,"Ġaccount":4217,"Ġsociety":4218,"Ġextermin":4219,"Ġdiff":4220,"Ġfist":4221,"Ġnine":4222,"Ġshitting":4223,"ĠFather":4224,"Ġsticking":4225,"ĠJewish":4226,"ĠQuiet":4227,"under":4228,"Ġsam":4229,"ita":4230,"icated":4231,"iew":4232,"Ġfamous":4233,"Ġcrowd":4234,"ality":4235,"Ġrib":4236,"Ġeggs":4237,"ĠBurn":4238,"ums":4239,"Ġsaving":4240,"eyed":4241,"fortable":4242,"Ġmast":4243,"Ġrag":4244,"sey":4245,"Ġwarri":4246,"Ġfreeze":4247,"Ġboobs":4248,"vis":4249,"Ġlied":4250,"Ġpassed":4251,"Ġpenis":4252,"ishing":4253,"Ġnaughty":4254,"ching":4255,"ander":4256,"Ġclowns":4257,"vision":4258,"ĠPig":4259,"Ġarr":4260,"Ġgrin":4261,"Ġmerc":4262,"Ġurine":4263,"iat":4264,"Ġhire":4265,"ifice":4266,"ĠSil":4267,"Ġeaten":4268,"Ġbuilt":4269,"Ġsquad":4270,"Ġexecute":4271,"rom":4272,"incess":4273,"Ġbald":4274,"Ġrelease":4275,"ker":4276,"Ġtaught":4277,"reet":4278,"Ġlone":4279,"ĠPol":4280,"Ġappro":4281,"Ġfollowed":4282,"heart":4283,"Ġdrain":4284,"ĠCity":4285,"anged":4286,"Ġwizard":4287,"cing":4288,"ration":4289,"Ġquit":4290,"Ġneg":4291,"Ġscen":4292,"Ġhits":4293,"Ġcheer":4294,"Ġshows":4295,"Ġimpossible":4296,"Ġanc":4297,"ĠLittle":4298,"Ġplant":4299,"Ġview":4300,"Ġconst":4301,"Ġgreatest":4302,"Ġ40":4303,"irls":4304,"Ġopportunity":4305,"Ġfaster":4306,"Ġrom":4307,"Ġplastic":4308,"Ġbrat":4309,"Ġenc":4310,"Ġcourage":4311,"Ġblowing":4312,"Ġjunkie":4313,"rated":4314,"ube":4315,"inger":4316,"Ġnames":4317,"ĠTed":4318,"unning":4319,"Ġbrut":4320,"Ġcrotch":4321,"Ġgeneral":4322,"Ġest":4323,"rend":4324,"Ġbarb":4325,"Ġdating":4326,"Ġearly":4327,"ument":4328,"Ġneedle":4329,"Ġeasier":4330,"Ġilleg":4331,"Ġdrunken":4332,"wor":4333,"when":4334,"Ġslight":4335,"Ġbroad":4336,"ĠEddie":4337,"ially":4338,"Ġgro":4339,"Ġlover":4340,"Ġfeelings":4341,"Ġgrabbed":4342,"Ġhandsome":4343,"Ġident":4344,"Ġvisit":4345,"Ġthighs":4346,"Ġcred":4347,"Ġstuffed":4348,"Ġcontinue":4349,"cut":4350,"uous":4351,"reme":4352,"Ġmaid":4353,"icy":4354,"Ġsport":4355,"ĠBefore":4356,"Ġmisery":4357,"job":4358,"Ġhol":4359,"Ġhors":4360,"Ġrequ":4361,"Ġminds":4362,"Ġcockro":4363,"ĠSteve":4364,"Ġunderwear":4365,"Ġsexually":4366,"Ġwalls":4367,"Ġstarve":4368,"Ġservice":4369,"Ġwelcome":4370,"eed":4371,"Ġcried":4372,"Ġbuttocks":4373,"Ġdragged":4374,"Ġplaces":4375,"Ġplenty":4376,"Ġrestaur":4377,"Ġappre":4378,"Ġtatt":4379,"itz":4380,"Ġreve":4381,"antly":4382,"ĠMars":4383,"ĠBab":4384,"Ġnowhere":4385,"Ġsouls":4386,"ruct":4387,"Ġdeserves":4388,"bag":4389,"ĠSch":4390,"Ġshoots":4391,"Ġchase":4392,"Ġrule":4393,"No":4394,"fast":4395,"ĠBel":4396,"mbers":4397,"nel":4398,"xx":4399,"ooper":4400,"icles":4401,"Ġwheel":4402,"âĢ¦":4403,"Ġdesk":4404,"ĠâĢĶ":4405,"Ġdemand":4406,"Ġscreamed":4407,"Ġgrandmother":4408,"Ġdifficul":4409,"Ġwicked":4410,"Ġcand":4411,"ieve":4412,"ails":4413,"Ġwaited":4414,"Ġsurr":4415,"Ġrobot":4416,"Ġleader":4417,"Ġbarely":4418,"ĠTra":4419,"ĠAw":4420,"ĠRick":4421,"ashion":4422,"ĠEveryone":4423,"Ġexpression":4424,"ĠSometimes":4425,"gan":4426,"Ġder":4427,"Ġfoul":4428,"Ġpale":4429,"Ġbeard":4430,"Ġliver":4431,"Ġtries":4432,"ĠLa":4433,"Ġgrown":4434,"Ġexplos":4435,"Ġstranger":4436,"utenant":4437,"Ġmask":4438,"lly":4439,"Ġfol":4440,"Ġpamela":4441,"Ġanderson":4442,"Ġdozen":4443,"ucle":4444,"Ġpurpose":4445,"Ġfalse":4446,"Ġagre":4447,"iper":4448,"Ġthoughts":4449,"Ġkeys":4450,"Ġsatisf":4451,"Ġbanging":4452,"Ġhammer":4453,"Ġprofessional":4454,"arm":4455,"Ġletter":4456,"Ġprice":4457,"Ġtrack":4458,"Ġhanged":4459,"ĠâĢĵ":4460,"ĠPresident":4461,"Ġfro":4462,"ĠSan":4463,"Ġfeels":4464,"Ġcapable":4465,"ench":4466,"Ġlevel":4467,"heads":4468,"Ġconvince":4469,"Ġcripple":4470,"ini":4471,"rey":4472,"Ġcream":4473,"Ġlord":4474,"Ġmere":4475,"Ġunif":4476,"uced":4477,"Ġadvice":4478,"Ġlanguage":4479,"ĠHel":4480,"ĠGay":4481,"icking":4482,"ograph":4483,"Ġmagaz":4484,"Ġvomit":4485,"arry":4486,"Ġbutcher":4487,"ĠCould":4488,"Ġserve":4489,"bye":4490,"Ġexpected":4491,"Ġafford":4492,"Ġsack":4493,"Ġmatch":4494,"asion":4495,"ashing":4496,"ĠWatch":4497,"ology":4498,"Ġeliminate":4499,",âĢĿ":4500,"aws":4501,"Ġinteresting":4502,"Ġinvestig":4503,"Ġuniverse":4504,"Ġleaves":4505,"Ġwondering":4506,"Ġbehav":4507,"ĠEurope":4508,"Ġbeach":4509,"Ġsocial":4510,"Ġshad":4511,"Ġemploy":4512,"Ġstreng":4513,"Ġforgotten":4514,"ĠJeff":4515,"Ġshouted":4516,"Ġexample":4517,"imate":4518,"ourn":4519,"Ġbully":4520,"Ġdemons":4521,"load":4522,"Ġcloser":4523,"AR":4524,"Ġmember":4525,"Ġfright":4526,"ĠFool":4527,"Ġvile":4528,"Ġcomb":4529,"geon":4530,"Ġsnow":4531,"Ġped":4532,"umm":4533,"ondon":4534,"Ġjumped":4535,"Ġnaive":4536,"Ġappreci":4537,"asant":4538,"Ġtype":4539,"down":4540,"Ġrough":4541,"ĠJake":4542,"Ġconvin":4543,"Ġsacrifice":4544,"Ġtelevision":4545,"iving":4546,"Ġfif":4547,"ester":4548,"Ġiss":4549,"rab":4550,"Ġbags":4551,"Ġdragon":4552,"Ġcigarettes":4553,"uclear":4554,"sit":4555,"Ġsemen":4556,"Ġasleep":4557,"Ġfraud":4558,"ĠParis":4559,"),":4560,"Ġtip":4561,"Ġpred":4562,"Ġum":4563,"ĠWall":4564,"unny":4565,"Ġbridge":4566,"Ġfailed":4567,"Ġ18":4568,"Ġgoddam":4569,"Ġsummer":4570,"Ġnatural":4571,"Ġcharacter":4572,"But":4573,"IA":4574,"phe":4575,"ette":4576,"Ġeffect":4577,"Ġsmelly":4578,"ances":4579,"Ġbombs":4580,"Ġordinary":4581,"ĠKilling":4582,"ĠEngland":4583,"Ġrabbit":4584,"cat":4585,"pir":4586,"Ġmood":4587,"ĠPal":4588,"Ġspeaking":4589,"Ġgangster":4590,"Ġtortured":4591,"Ġcigarette":4592,"va":4593,"Ġmob":4594,"ĠOld":4595,"Ġstayed":4596,"ĠEverybody":4597,"Ġsurprise":4598,"ĠMexican":4599,"Ġgate":4600,"icks":4601,"Ġusual":4602,"olen":4603,"Ġbright":4604,"bered":4605,"iber":4606,"reak":4607,"Ġlower":4608,"asons":4609,"Ġhello":4610,"ĠLondon":4611,"Ġretarded":4612,"Ġsink":4613,"view":4614,"Ġconvinced":4615,"add":4616,"ĠTurn":4617,"ste":4618,"ĠBea":4619,"ained":4620,"ĠRyan":4621,"Ġfollowing":4622,"ĠSarah":4623,"Ġlack":4624,"ĠSaid":4625,"Ġsearch":4626,"Ġblunt":4627,"ffic":4628,"Ġruns":4629,"Ġclever":4630,"Ġapologize":4631,"pered":4632,"Ġhood":4633,"Ġputs":4634,"Ġconcerned":4635,"Ġhideous":4636,"ĠThanks":4637,"Ġtattoo":4638,"'.":4639,"Ġtyp":4640,"Ġtalent":4641,"Ġdummy":4642,"Ġlit":4643,"ĠCall":4644,"aper":4645,"Ġunf":4646,"Ġhairy":4647,"ĠLooks":4648,"Ġbasically":4649,"Ġmedic":4650,"Ġnuclear":4651,"omin":4652,"Ġbelt":4653,"Ġmostly":4654,"ĠMuslim":4655,"Ġmasturb":4656,"Ġmajor":4657,"ĠCor":4658,"Ġhowever":4659,"Ġcruc":4660,"Ġparticul":4661,"pend":4662,"Ġproperty":4663,"Ġopin":4664,"uis":4665,"Ġperf":4666,"Ġdecl":4667,"ĠCrazy":4668,"zing":4669,"Ġmud":4670,"icate":4671,"Ġwasted":4672,"Ġneither":4673,"Ġ16":4674,"Ġpushed":4675,"They":4676,"Ġoven":4677,"Ġearn":4678,"Ġshock":4679,"aly":4680,"Ġfreed":4681,"ĠDaddy":4682,"ĠNext":4683,"Ġdifficult":4684,"Ġtoss":4685,"ĠSec":4686,"Ġscar":4687,"ĠThrow":4688,"Ġremem":4689,"ency":4690,"ĠDou":4691,"ĠJud":4692,"Ġgoddamned":4693,"ended":4694,"Ġforehead":4695,"Ġbusted":4696,"ĠNorth":4697,"bow":4698,"kn":4699,"Ġmoves":4700,"Ġmurders":4701,"Ġharm":4702,"Ġstinking":4703,"Ġrobber":4704,"Ġsilver":4705,"ĠGermans":4706,"Ġobvious":4707,"ĠGrand":4708,"Ġstrength":4709,"Ġfought":4710,"Ġmyster":4711,"Ġtrunk":4712,"ĠLea":4713,"icted":4714,"Ġarrested":4715,"Ġengine":4716,"Ġstiff":4717,"ĠFat":4718,"Ġconvers":4719,"Ġprogram":4720,"ĠStan":4721,"Ġdealing":4722,"Ġvirginity":4723,"Ġhurry":4724,"oster":4725,"ule":4726,"Ġpath":4727,"Ġstolen":4728,"Ġdumped":4729,"Ġsuffoc":4730,"Ġmurderers":4731,"orter":4732,"Ġspoke":4733,"Ġspray":4734,"Ġspeech":4735,"Ġinfl":4736,"Ġrotting":4737,"ounce":4738,"ĠRussians":4739,"Ġprepared":4740,"Ġgar":4741,"cap":4742,"Ġspare":4743,"Ġslay":4744,"Ġwra":4745,"Ġbal":4746,"Ġcos":4747,"olves":4748,"Ġbedroom":4749,"ĠBullshit":4750,"cil":4751,"Ġsour":4752,"Ġda":4753,"Ġcake":4754,"Ġrent":4755,"Ġreached":4756,"Ġnoticed":4757,"Ġdeb":4758,"Ġarea":4759,"ĠMel":4760,"Ġorig":4761,"Ġbadly":4762,"Ġreplied":4763,"Ġdirectly":4764,"gs":4765,"hin":4766,"arian":4767,"Ġweight":4768,"Ġstat":4769,"ĠAss":4770,"ops":4771,"ĠNeg":4772,"oundrel":4773,"Ġcouch":4774,"Ġchew":4775,"Ġresult":4776,"ĠCla":4777,"Ġperfectly":4778,"Ġutterly":4779,"Ġliterally":4780,"vy":4781,"Ġinse":4782,"ilar":4783,"Ġparts":4784,"ledge":4785,"Ġwarning":4786,"Ġcondom":4787,"Ġdefeat":4788,"rick":4789,"Ġcage":4790,"urs":4791,"Ġcarrying":4792,"Ġsneak":4793,"AT":4794,"esome":4795,"ĠTur":4796,"ĠDis":4797,"ĠGen":4798,"artment":4799,"Ġlean":4800,"ĠDean":4801,"Ġstudent":4802,"Ġzombie":4803,"Ġbreakfast":4804,"Ġcommitted":4805,"Ġboob":4806,"Shut":4807,"fl":4808,"Ġtrial":4809,"odd":4810,"ĠEither":4811,"Ġevening":4812,"Ġdamage":4813,"idal":4814,"ĠTe":4815,"Ġjung":4816,"Ġsew":4817,"ĠAndy":4818,"oyal":4819,"Ġplayer":4820,"uly":4821,"Ġtoward":4822,"Ġgy":4823,"ĠEll":4824,"Ġwond":4825,"Ġadult":4826,"Ġcure":4827,"Ġstake":4828,"hington":4829,"ĠEast":4830,"Ġsmashed":4831,"Ġchief":4832,"Ġcompet":4833,"Ġbrave":4834,"Ġhidden":4835,"Ġoil":4836,"Ġodd":4837,"Ġpa":4838,"Ġpills":4839,"Ġinj":4840,"arant":4841,"ĠDet":4842,"Ġprim":4843,"Ġunfortun":4844,"hold":4845,"Ġwonderful":4846,"Ġmercy":4847,"ford":4848,"field":4849,"Ġeh":4850,"amm":4851,"Ġcheese":4852,"aze":4853,"ĠNothing":4854,"Ġfailure":4855,"rat":4856,"hered":4857,"Ġlink":4858,"ĠMat":4859,"ĠBo":4860,"shot":4861,"Ġtrained":4862,"Ġoperation":4863,"ES":4864,"Ġtax":4865,"ĠSince":4866,"Ġsail":4867,"ĠRog":4868,"Ġkeeping":4869,"Ġexcited":4870,"Ġnerve":4871,"Ġmembers":4872,"Ġoffered":4873,"ĠPark":4874,"Ġsmelled":4875,"Ġcommun":4876,"Ġdarkness":4877,"Ġgreedy":4878,"Ġsinging":4879,"Ġtank":4880,"Ġyard":4881,"ety":4882,"ĠMore":4883,"izing":4884,"Ġhelpless":4885,"Ġmetal":4886,"Ġregular":4887,"ĠHal":4888,"Ġfry":4889,"Ġhelping":4890,"Ġcreated":4891,"Ġvagina":4892,"Ġelectric":4893,"Ġrevol":4894,"Ġpimp":4895,"Ġrese":4896,"ores":4897,"Ġwhenever":4898,"Ġplain":4899,"ĠThink":4900,"Ġbugger":4901,"Ġrestaurant":4902,"ctors":4903,"Ġspear":4904,"Ġtouching":4905,"ological":4906,"Ġwhorehouse":4907,",...":4908,"itiz":4909,"itors":4910,"Ġpier":4911,"Ġonto":4912,"ucky":4913,"ursed":4914,"Ġnecessary":4915,"Ġvol":4916,"Ġaware":4917,"overed":4918,"Ġdiam":4919,"noon":4920,"Ġscoundrel":4921,"Ġafternoon":4922,"Ġterr":4923,"Ġrefuse":4924,"ĠBritish":4925,"Ġjungle":4926,"Ġplans":4927,"ateful":4928,"Ġchoke":4929,"Ġmov":4930,"Ġmarket":4931,"Ġlonely":4932,"rer":4933,"Ġstock":4934,"Ġnote":4935,"roying":4936,"ooth":4937,"Ġtraining":4938,"ĠMcC":4939,"ĠRemember":4940,"Ġerection":4941,"faced":4942,"Ġma":4943,"Ġdork":4944,"Ġsomehow":4945,"ĠOther":4946,"Ġinsur":4947,"Ġdesire":4948,"Ġconfused":4949,"Ġstrip":4950,"ĠWilliam":4951,"Ġcontinued":4952,"ĠWashington":4953,"Ġreligious":4954,"Ġpanties":4955,"Ġpilot":4956,"Ġtub":4957,"Ġcards":4958,"illa":4959,"Ġalthough":4960,"bec":4961,"Ġmayor":4962,"ĠUnless":4963,"arling":4964,"ushing":4965,"ĠMac":4966,"ĠMost":4967,"ization":4968,"Ġ24":4969,"Ġdrinks":4970,"Ġbeauty":4971,"Ġpenalty":4972,"Ġpuke":4973,"Ġrecognize":4974,"mo":4975,"pet":4976,"Ġdish":4977,"Ġlip":4978,"ams":4979,"ĠOl":4980,"Ġcheating":4981,"Ġeats":4982,"Ġfallen":4983,"Ġparking":4984,"iar":4985,"oops":4986,"Ġreact":4987,"Ġfirm":4988,"ON":4989,"van":4990,"Ġnin":4991,"lead":4992,"ĠVict":4993,"Ġtorn":4994,"Ġdefense":4995,"Ġdiamond":4996,"Ġmovies":4997,"wife":4998,"hall":4999,"Ġdim":5000,"ĠSure":5001,"ĠJane":5002,"Ġassume":5003,"bert":5004,"Ġshave":5005,"Ġbuying":5006,"Ġsons":5007,"Ġsheriff":5008,"Ġdip":5009,"Ġfoc":5010,"Ġmel":5011,"ĠTry":5012,"Ġtrade":5013,"Ġguest":5014,"Ġcheat":5015,"Ġpolitical":5016,"Ġglasses":5017,"Ġinjection":5018,"Ġeffort":5019,"ique":5020,"Ġ/":5021,"Ġaud":5022,"Ġwave":5023,"Ġgift":5024,"ĠMick":5025,"Ġrapist":5026,"Ġcowardly":5027,"Ġwreck":5028,"Ġbump":5029,"Ġmart":5030,"Ġliqu":5031,"Ġrece":5032,"ĠMake":5033,"Ġangel":5034,"Ġsubject":5035,"Ġinfected":5036,"ĠLouis":5037,"Ġwa":5038,"ompl":5039,"Ġstorm":5040,"ĠToo":5041,"ĠHolly":5042,"Ġscumb":5043,"Ġener":5044,"Ġfags":5045,"sm":5046,"Ġtri":5047,"Ġslaught":5048,"Ġprepare":5049,"cup":5050,"Ġgall":5051,"ĠSal":5052,"ĠDra":5053,"iger":5054,"ressive":5055,"Ġdisappoint":5056,"Ġblonde":5057,"ij":5058,"ammed":5059,"ĠTer":5060,"ĠCath":5061,"ĠRo":5062,"Ġquietly":5063,"attered":5064,"Ġsilence":5065,"gic":5066,"mate":5067,"mail":5068,"Ġwand":5069,"Ġwide":5070,"Ġcave":5071,"Ġhig":5072,"Ġsepar":5073,"ĠHon":5074,"Ġprince":5075,"ollocks":5076,"ĠFranc":5077,"Ġfilth":5078,"Ġwhispered":5079,"Ġbreathe":5080,"Ġreveal":5081,"Ġought":5082,"Ġfac":5083,"isc":5084,"omy":5085,"ĠSus":5086,"ĠMurd":5087,"ĠBad":5088,"Ġarmed":5089,"idered":5090,"ortion":5091,"Ġpointed":5092,"Ġpointless":5093,"achel":5094,"sl":5095,"Ġfancy":5096,"Ġjer":5097,"ĠScott":5098,"Ġfavorite":5099,"board":5100,"gent":5101,"inting":5102,"uman":5103,"Ġdeliver":5104,".,":5105,"Ġdagger":5106,"ĠDem":5107,"Ġspell":5108,"Ġextreme":5109,"This":5110,"Ġscenes":5111,"Why":5112,"ĠMin":5113,"Ġquarter":5114,"Ġhatred":5115,"Ġdesign":5116,"Ġfuneral":5117,"Ġdicks":5118,"Ġreading":5119,"Ġthreatening":5120,"Ġirrit":5121,"Ġofficial":5122,"Ġhealth":5123,"Ġhorses":5124,"utation":5125,"Ġdescri":5126,"Ġkissed":5127,"Ġreturned":5128,"Ġbucket":5129,"Ġtears":5130,"Ġappreciate":5131,"kill":5132,"Ġlif":5133,"ĠMer":5134,"esty":5135,"ĠJer":5136,"ĠWhatever":5137,"Ġtrapped":5138,"Ġsnapped":5139,"Ġpuppet":5140,"Ġturd":5141,"Ġmic":5142,"Ġdarn":5143,"Ġfasc":5144,"Ġrum":5145,"ĠSuck":5146,"Ġreasons":5147,"istol":5148,"Ġswing":5149,"Ġsurely":5150,"Ġfalls":5151,"Ġwhack":5152,"Ġslaughtered":5153,"owing":5154,"Ġassault":5155,"Ġunb":5156,"onscious":5157,"ĠStreet":5158,"Ġchain":5159,"Ġ200":5160,"ĠâĢĺ":5161,"velop":5162,"Ġrocks":5163,"ĠAngel":5164,"ville":5165,"Ġwings":5166,"aries":5167,"Ġstret":5168,"Ġjustice":5169,"ĠJerry":5170,"ĠRoman":5171,"Ġdisp":5172,"Ġeduc":5173,"Ġwow":5174,"Ġfate":5175,"Ġtool":5176,"ĠLady":5177,"ĠRos":5178,"Ġaffect":5179,"Ġmirror":5180,"Ġillegal":5181,"Well":5182,"ĠSy":5183,"ĠBes":5184,"ĠNever":5185,"ĠFire":5186,"ĠEric":5187,"ĠChris":5188,"apping":5189,"Ġobsessed":5190,"Ġslapped":5191,"HE":5192,"Ġep":5193,"ĠWomen":5194,"ĠYo":5195,"ĠEr":5196,"Ġbitter":5197,"Ġstepped":5198,"Ġjacket":5199,"Ġprostitutes":5200,"Ġmountain":5201,"Ġtur":5202,"Ġpers":5203,"ĠDel":5204,"ĠFB":5205,"Ġdecent":5206,"Ġcreepy":5207,"Ġracist":5208,"Ġbaseball":5209,"Ġnurse":5210,"God":5211,"lock":5212,"Ġdoctors":5213,"ĠCIA":5214,"ĠGree":5215,"Ġarse":5216,"Ġtend":5217,"Ġincluding":5218,"bid":5219,"dog":5220,"ĠMaster":5221,"Ġshell":5222,"olt":5223,"Ġchin":5224,"peror":5225,"Ġdestroying":5226,"ival":5227,"Ġconversation":5228,"kward":5229,"Ġseed":5230,"Ġdece":5231,"ĠChan":5232,"Ġchamp":5233,"Ġshowing":5234,"Ġbabies":5235,"Ġapparently":5236,"Ġbarrel":5237,"ĠSpan":5238,"?.":5239,"walk":5240,"ye":5241,"Ġlump":5242,"Ġreck":5243,"Ġje":5244,"ula":5245,"Ġvirus":5246,"Ġhunting":5247,"Ġpressure":5248,"ĠMexico":5249,"Ġpolitic":5250,"ĠNegro":5251,"ID":5252,"OU":5253,"ios":5254,"pa":5255,"Ġfrog":5256,"Ġow":5257,"ĠTim":5258,"ĠWil":5259,"ĠLat":5260,"ĠKn":5261,"Ġflowers":5262,"Ġchicks":5263,"Ġbowl":5264,"Ġaxe":5265,"py":5266,"Ġhump":5267,"ĠThom":5268,"Ġdestruction":5269,"Ġmiracle":5270,"Ġopinion":5271,"erv":5272,"ĠBro":5273,"ĠGreat":5274,"Ġmanager":5275,"ĠLos":5276,"olate":5277,"Ġexpen":5278,"ĠThree":5279,"Ġlots":5280,"ĠThank":5281,"Ġbeneath":5282,"Be":5283,"Ġhug":5284,"asure":5285,"ĠLast":5286,"Ġtrail":5287,"Ġresc":5288,"Ġpunished":5289,"Ġpapers":5290,"Ġdivorce":5291,"Ġnumbers":5292,"Ġfreedom":5293,"Ġgrew":5294,"Ġthugs":5295,"ussy":5296,"Ġhag":5297,"illiant":5298,"Ġwashed":5299,"Ġwhip":5300,"ĠSpe":5301,"Ġnoble":5302,"Ġflash":5303,"Ġhearing":5304,"cience":5305,"Ġmillions":5306,"Ġcondition":5307,"Ġwiped":5308,"mission":5309,"Ġbutter":5310,"Ġloy":5311,"eeze":5312,"Ġzero":5313,"Ġqueer":5314,"ĠMartin":5315,"nam":5316,"Ġstairs":5317,"ston":5318,"ĠBur":5319,"ĠTheir":5320,"Ġvul":5321,"Ġshoulders":5322,"Ġblacks":5323,"Ġawkward":5324,"Ġcaused":5325,"Ġintelligent":5326,"ĠVictor":5327,"Ġwire":5328,"Ġmail":5329,"itions":5330,"Ġhipp":5331,"ĠWow":5332,"Ġassist":5333,"Ġgrass":5334,"Ġspeed":5335,"Ġprisoner":5336,"Ġartist":5337,"Ġcommander":5338,"gie":5339,"ada":5340,"ĠGar":5341,"ĠPoor":5342,"Ġvain":5343,"Ġvicious":5344,"Ġsmack":5345,"orted":5346,"Ġugl":5347,"Ġburst":5348,"Ġweirdo":5349,"Ġbooze":5350,"OR":5351,"Ġbegg":5352,"Ġstars":5353,"ĠSouth":5354,"ĠHigh":5355,"ĠLie":5356,"ĠRome":5357,"Ġcredit":5358,"yond":5359,"ĠIm":5360,"icidal":5361,"Ġfinding":5362,"Ġaction":5363,"Ġcontract":5364,"Ġ25":5365,"Ġcowboy":5366,"Ġgrowing":5367,"Ġedge":5368,"Ġwondered":5369,"val":5370,"Ġdoc":5371,"ĠPete":5372,"Ġrights":5373,"Ġdeadly":5374,"Ġwherever":5375,"Ġdism":5376,"Ġhomeless":5377,"Ġfinal":5378,"Ġfolly":5379,"Ġprisoners":5380,"',":5381,"Ġbos":5382,"Ġcitiz":5383,"Ġworms":5384,"Ġ11":5385,"Ġpoisoned":5386,"Ġpractice":5387,"Ġinsurance":5388,"St":5389,"och":5390,"some":5391,"Ġwid":5392,"ĠTor":5393,"cell":5394,"ulsive":5395,"aint":5396,"Ġprincess":5397,"ĠStay":5398,"Ġwrist":5399,"ĠRobert":5400,"ĠHitler":5401,"Ġgig":5402,"Ġtrou":5403,"Ġshotgun":5404,"iction":5405,"Ġforest":5406,"Ġbelongs":5407,"Ġnarc":5408,"NA":5409,"Ġvers":5410,"Ġcunt":5411,"Ġlap":5412,"owed":5413,"ĠBu":5414,"Ġremoved":5415,"Ġharder":5416,"Ġdecision":5417,"ĠPerhaps":5418,"Ġsurrounded":5419,"why":5420,"Ġtun":5421,"Ġaunt":5422,"Ġyouth":5423,"Ġbass":5424,"Ġtooth":5425,"Ġbegging":5426,"Ġshith":5427,"alled":5428,"Ġmanaged":5429,"ĠShould":5430,"Ġcleaning":5431,"Ġdeton":5432,"Ġkidnapped":5433,"Ġsplit":5434,"Ġenergy":5435,"Ġtent":5436,"Ġdrew":5437,"omes":5438,"Ġbread":5439,"Ġblows":5440,"Ġhundreds":5441,"ribly":5442,"!!":5443,"wit":5444,"Ġgarden":5445,"ences":5446,"Ġscra":5447,"Ġstupidly":5448,"ĠStupid":5449,"Ġlovely":5450,"Ġpicking":5451,"Ġmagn":5452,"ĠAnother":5453,"ĠUnited":5454,"Ġhopeless":5455,"Ġrolling":5456,"Ġdespite":5457,"She":5458,"Ġmat":5459,"ĠTy":5460,"ffin":5461,"Ġdisaster":5462,"Ġ14":5463,"Ġcompan":5464,"Ġconsidered":5465,"Ġpassion":5466,"Ġinvite":5467,"Ġlesson":5468,"Ġadded":5469,"Ġbeasts":5470,"ĠLeave":5471,"wards":5472,"Ġmute":5473,"Ġduty":5474,"Ġchat":5475,"Ġpork":5476,"Ġstro":5477,"Ġaband":5478,"ĠNat":5479,"ĠKick":5480,"Ġslop":5481,"Ġtravel":5482,"Ġpossibly":5483,"Ġbeside":5484,"Ġexistence":5485,"Ġagreed":5486,"Ġuniform":5487,"How":5488,"Ġrack":5489,"ĠAct":5490,"ĠBrian":5491,"Ġspin":5492,"ension":5493,"Ġyounger":5494,"bits":5495,"there":5496,"Ġmult":5497,"hamed":5498,"ĠBarb":5499,"Ġbrilliant":5500,"Ġburns":5501,"ints":5502,"oci":5503,"Ġresist":5504,"Ġjobs":5505,"Ġreputation":5506,"Ġtrees":5507,"Ġvillain":5508,"Ġsandw":5509,"Ġsavage":5510,"ournal":5511,"fit":5512,"Ġport":5513,"Ġuna":5514,"roc":5515,"umsy":5516,"ĠFer":5517,"olic":5518,"ĠDead":5519,"ĠKevin":5520,"ĠColonel":5521,"Ġanti":5522,"Ġromantic":5523,"Ġ,":5524,"Ġwoke":5525,"Ġcandy":5526,"Ġjew":5527,"Ġashes":5528,"ĠOpen":5529,"Ġbringing":5530,"ipper":5531,"Ġincredible":5532,"vented":5533,"Ġtalks":5534,"ubby":5535,"Ġchased":5536,"Ġpissing":5537,"Ġhumanity":5538,"Ġanswered":5539,"cover":5540,"ĠWalter":5541,"Ġexpensive":5542,"bb":5543,"Ġwore":5544,"Ġtheory":5545,"Ġdoin":5546,"Ġguarant":5547,"ĠEs":5548,"ples":5549,"Ġstrugg":5550,"Ġbecoming":5551,"Ġgrandfather":5552,"Ġstudents":5553,"Ġstrangle":5554,"ĠBesides":5555,"Ġdread":5556,"Ġpistol":5557,"Ġnation":5558,"aming":5559,"Ġrear":5560,"antage":5561,"ĠKim":5562,"Ġreality":5563,"Ġbutts":5564,"Ġpuss":5565,"Ġsteel":5566,"Ġcorps":5567,"Ġsqueeze":5568,"Ġcondem":5569,"pes":5570,"uk":5571,"rem":5572,"ĠId":5573,"ĠDave":5574,"aine":5575,"Ġscal":5576,"ĠVeg":5577,"fucking":5578,"blood":5579,"ĠSanta":5580,"Ġremembered":5581,"Ġbike":5582,"Ġrow":5583,"ĠSk":5584,"Ġgoats":5585,"Ġunne":5586,"Ġcrushed":5587,"Ġchallen":5588,"ĠVer":5589,"Ġsounded":5590,"Ġsusp":5591,"Ġoccasion":5592,"ois":5593,"Ġbi":5594,"Ġgri":5595,"Ġstared":5596,"ceed":5597,"Ġsmiling":5598,"ĠVir":5599,"Ġbetrayed":5600,"ĠNazi":5601,"Ġmas":5602,"Ġmap":5603,"Ġhill":5604,"Ġjoy":5605,"ĠJason":5606,"ĠFe":5607,"Ġarri":5608,"ĠVan":5609,"Ġstaying":5610,"Ġelep":5611,"ĠNazis":5612,"Ġparasite":5613,"Ġbrutal":5614,"book":5615,"Ġmouse":5616,"ankly":5617,"Ġpainting":5618,"Ġofficers":5619,"Ġtricks":5620,"Ġpretending":5621,"Ġintelligence":5622,"Ġtum":5623,"Ġwis":5624,"Ġbuff":5625,"isa":5626,"Ġox":5627,"Ġhen":5628,"Ġbeyond":5629,"Ġearl":5630,"irts":5631,"ĠWay":5632,"Ġupstairs":5633,"ential":5634,"inky":5635,"ĠFrance":5636,"Ġsettle":5637,"Ġstrangled":5638,"ux":5639,"rect":5640,"oner":5641,"Ġtruly":5642,"Ġscience":5643,"Ġchamber":5644,"Ġsnitch":5645,"Ġrepres":5646,"Ġalcoholic":5647,"Ġpunishment":5648,"Ġwarrior":5649,"ĠGeneral":5650,"chan":5651,"lers":5652,"Ġcode":5653,"Ġcattle":5654,"Ġwerew":5655,"Ġflo":5656,"Ġlaws":5657,"Ġbasement":5658,"ĠPrince":5659,"Ġembarrassed":5660,"iding":5661,"Ġaside":5662,"Ġmanip":5663,"Ġdrank":5664,"Ġshape":5665,"Ġconcent":5666,"mind":5667,"Ġwise":5668,"ito":5669,"Ġgoof":5670,"ato":5671,"uns":5672,"ĠLee":5673,"Ġpride":5674,"Ġuseful":5675,"Ġprofessor":5676,"Ġcockroaches":5677,"CK":5678,"nic":5679,"Ġpounds":5680,"enced":5681,"ĠWin":5682,"Ġreleas":5683,"ago":5684,"Ġsue":5685,"Ġloc":5686,"Ġsolve":5687,"Ġcircus":5688,"Ġbreathing":5689,"ĠDaniel":5690,"stein":5691,"tin":5692,"Ġashamed":5693,"ĠKenny":5694,"teen":5695,"Ġsniff":5696,"Ġawesome":5697,"Ġfreakin":5698,"Ġnails":5699,"ĠItalian":5700,"ef":5701,"Ġfian":5702,"Ġfucks":5703,"Ġmothers":5704,"Ġignore":5705,"aimed":5706,"Ġmagazine":5707,"Fuck":5708,"hest":5709,"rement":5710,"cker":5711,"ĠShan":5712,"cel":5713,"Ġsock":5714,"Ġknowledge":5715,"Ġfruit":5716,"aste":5717,"ĠLarry":5718,"Ġleather":5719,"ĠStep":5720,"Ġsuckers":5721,"Ġplanned":5722,"Ġsisters":5723,"Ġinvited":5724,"Ġlesbians":5725,"Ġmodel":5726,"My":5727,"Ġi":5728,"Ġpizz":5729,"Ġhob":5730,"iece":5731,"ella":5732,"ĠJones":5733,"oses":5734,"Ġplague":5735,"Ġchose":5736,"Ġrogue":5737,"Ġreligion":5738,"mar":5739,"Ġcunning":5740,"usted":5741,"ĠHold":5742,"Ġcoat":5743,"Ġshooter":5744,"Ġflight":5745,"Ġbreaks":5746,"Ġconscience":5747,"Ġdammit":5748,"Ġclimb":5749,"Ġspoiled":5750,"ĠWorld":5751,"Ġfet":5752,"Ġpour":5753,"Ġstare":5754,"Ġspring":5755,"Ġprocess":5756,"Ġgray":5757,"Ġhorror":5758,"Ġreplace":5759,"Ġnigga":5760,"Ġcough":5761,"Ġformer":5762,"ĠAmy":5763,"usty":5764,"ĠHank":5765,"ested":5766,"Ġpoet":5767,"Ġslit":5768,"Ġslim":5769,"ĠChurch":5770,"Ġbits":5771,"Ġdisappeared":5772,"LL":5773,"Â´":5774,"Ġsides":5775,"Ġfang":5776,"omatic":5777,"alph":5778,"alls":5779,"Ġalley":5780,"Ġunple":5781,"Ġcarried":5782,"ĠStates":5783,"Ġexcrement":5784,"ĠDidn":5785,"ĠEverything":5786,"ev":5787,"Ġborder":5788,"amon":5789,"ĠTex":5790,"ĠCast":5791,"umed":5792,"andom":5793,"Ġoffense":5794,"aren":5795,"Ġmurdering":5796,"Ġpushing":5797,"class":5798,"een":5799,"ÂŃ":5800,"Ġtyr":5801,"Ġmum":5802,"Ġloss":5803,"ĠDen":5804,"Ġneur":5805,"ĠKat":5806,"Ġgrowled":5807,"Ġgeek":5808,"Ġnipples":5809,"Ġoriginal":5810,"aded":5811,"Ġash":5812,"ĠMil":5813,"ability":5814,"ĠWhile":5815,"gery":5816,"Ġopening":5817,"Ġcloset":5818,"Ġshrink":5819,"Ġparasites":5820,"cul":5821,"ĠHam":5822,"ĠJess":5823,"Ġcloud":5824,"Ġmassac":5825,"Ġadvantage":5826,"Ġfolks":5827,"icop":5828,"ĠDay":5829,"ouses":5830,"ĠRa":5831,"Ġproject":5832,"issy":5833,"Ġactiv":5834,"Ġcompared":5835,"ĠBrother":5836,"Ġstripper":5837,"Ġmedical":5838,"Ġhealthy":5839,"Ġphoto":5840,"Ġcounter":5841,"hem":5842,"Ġwounds":5843,"rell":5844,"Ġmeth":5845,"Ġdue":5846,"itar":5847,"lyn":5848,"ĠWant":5849,"ola":5850,"Ġclumsy":5851,"Ġrelax":5852,"ĠWithout":5853,"Ġmuttered":5854,"Ġuncom":5855,"cÃ©":5856,"uz":5857,"uction":5858,"Ġbul":5859,"otes":5860,"Ġjaw":5861,"unter":5862,"Ġdevelop":5863,"ajesty":5864,"Ġrolled":5865,"Ġservant":5866,"ĠSomething":5867,"ING":5868,"AS":5869,"EN":5870,"gon":5871,"Ġwives":5872,"Ġtore":5873,"Ġliber":5874,"ĠBer":5875,"Ġintend":5876,"ĠRalph":5877,"Ġorgans":5878,"Ġdiscuss":5879,"Ġcircle":5880,"ĠAfrica":5881,"Ġunnecessary":5882,"ender":5883,"Ġbin":5884,"Ġborrow":5885,"ĠKen":5886,"ierce":5887,"Ġthreaten":5888,"Ġcorpses":5889,"Ġrepresent":5890,"Ġunpleasant":5891,"Hey":5892,"Ãī":5893,"Ġpor":5894,"Ġnick":5895,"Ġroot":5896,"Ġfrig":5897,"ĠPri":5898,"play":5899,"Ġgrad":5900,"Ġhardly":5901,"Ġinterview":5902,"Ġrobbed":5903,"ĠSimon":5904,"Ġwank":5905,"illing":5906,"keep":5907,"Ġshook":5908,"Ġras":5909,"aph":5910,"Ġbrute":5911,"iple":5912,"Ġbelow":5913,"Ġhelicop":5914,"Ġexplod":5915,"anity":5916,"Ġpul":5917,"Ġdoors":5918,"Ġdoomed":5919,"Ġgoin":5920,"Ġdepend":5921,"ĠDNA":5922,"ĠCount":5923,"Ġriding":5924,"Ġowner":5925,"Ġsniper":5926,"Ġelev":5927,"Ġmusc":5928,"Ġmachines":5929,"Ġpirate":5930,"Ġwrapped":5931,"'?":5932,"Ġnet":5933,"ases":5934,"ari":5935,"ĠSund":5936,"ĠGodd":5937,"Ġunit":5938,"ĠDoctor":5939,"Ġmaggot":5940,"Ġgreasy":5941,"Ġnutcase":5942,"Ġlawyers":5943,"ĠCarol":5944,"Ġcenter":5945,"Ġfairy":5946,"ĠProbably":5947,"ĠGreen":5948,"Ġpitiful":5949,"Ġtemper":5950,"xic":5951,"Ġtit":5952,"ales":5953,"unted":5954,"ĠJen":5955,"Ġcrit":5956,"Ġpainted":5957,"Ġdeterm":5958,"Ġsensitive":5959,"Ġnipple":5960,"ĠVegas":5961,"put":5962,"Ġoce":5963,"Ġhesit":5964,"Ġsham":5965,"ĠChic":5966,"Ġprevent":5967,"Ġcreate":5968,"Ġsmoked":5969,"Ġnewsp":5970,"Ġsacrific":5971,"Said":5972,"ja":5973,"Ġsouth":5974,"Ġbatter":5975,"Ġcong":5976,"aser":5977,"Ġank":5978,"ĠBon":5979,"Ġswitch":5980,"mented":5981,"Ġairport":5982,"Ġexperien":5983,"Ġboots":5984,"Ġmeaningless":5985,"Ġfrozen":5986,"Ġmanipul":5987,"Ġtube":5988,"Ġthug":5989,"stead":5990,"ĠApp":5991,"Ġasks":5992,"Ġchildish":5993,"Ġblowjob":5994,"Ġcrooked":5995,"ĠAnyway":5996,"Ġbarbar":5997,"IS":5998,"foot":5999,"gins":6000,"Ġheap":6001,"utch":6002,"verage":6003,"ĠDog":6004,"Ġtroops":6005,"resp":6006,"Ġshaking":6007,"Ġattitude":6008,"ĠUm":6009,"Ġinstinct":6010,"Ġunderstood":6011,"Ġexcl":6012,"Ġstraw":6013,"Ġdeserved":6014,"Ġfortune":6015,"Ġbosom":6016,"sity":6017,"inated":6018,"Ġske":6019,"Ġcuff":6020,"Ġtoy":6021,"ĠSen":6022,"ĠDie":6023,"ĠGold":6024,"ĠRock":6025,"ĠKyle":6026,"Ġimpl":6027,"Ġdetective":6028,"ĠCharles":6029,"Ġrubber":6030,"Ġhostage":6031,"Ġinsect":6032,"Ġshithole":6033,"Ġlob":6034,"Ġsticks":6035,"balls":6036,"Ġlunatics":6037,"Ġheroin":6038,"Ġdrowned":6039,"Ġweed":6040,"Ġweather":6041,"oos":6042,"Ġjournal":6043,"ĠAust":6044,"Ġgosh":6045,"ĠJan":6046,"Ġamount":6047,"Ġkinds":6048,"Ġacts":6049,"umbled":6050,"Ġlistened":6051,"phew":6052,"So":6053,"uch":6054,"Ġbark":6055,"had":6056,"erved":6057,"ormed":6058,"Ġnest":6059,"atory":6060,"Ġstaff":6061,"Ġwanting":6062,"Ġbackground":6063,"Ġsquir":6064,"Shit":6065,"ĠSpanish":6066,"ĠLieutenant":6067,"fish":6068,"oons":6069,"onas":6070,"hab":6071,"Ġdigging":6072,"Ġroyal":6073,"Ġreward":6074,"ĠHaw":6075,"Ġnephew":6076,"tery":6077,"Ġblank":6078,"Ġcommunity":6079,"Ġobl":6080,"Ġmotor":6081,"Ġfurther":6082,"Ġincredibly":6083,"ĠRoger":6084,"ĠThomas":6085,"mark":6086,"ram":6087,"erate":6088,"Ġpipe":6089,"oted":6090,"cend":6091,"ems":6092,"Ġmock":6093,"Ġflies":6094,"Ġrealise":6095,"Ġpermission":6096,"Ġtraitors":6097,"Ġbrings":6098,"Ġburnt":6099,"ĠBrown":6100,"Ġbrand":6101,"Ġgolden":6102,"Ġwounded":6103,"Ġyards":6104,"Ġgal":6105,"Ġkitty":6106,"Ġrise":6107,"Ġrandom":6108,"ĠSup":6109,"ups":6110,"Ġunp":6111,"ivid":6112,"Ġdirection":6113,"Ġpizza":6114,"cast":6115,"Ġ00":6116,"Ġbound":6117,"Ġwears":6118,"Ġrage":6119,"sequ":6120,"ifying":6121,"Ġgolf":6122,"ĠHarr":6123,"Ġfrankly":6124,"ĠJac":6125,"ĠEmp":6126,"thur":6127,"Ġcoffin":6128,"ĠStill":6129,"anced":6130,"Ġgrandma":6131,"Ġpresence":6132,"Ġstudy":6133,"Ġjuice":6134,"Ġribs":6135,"ĠHollywood":6136,"Ġwolves":6137,"Ġlic":6138,"cture":6139,"Ġsaf":6140,"Ġshag":6141,"ĠIntern":6142,"ĠForget":6143,"Ġgrey":6144,"Ġtreacher":6145,"Your":6146,"ga":6147,"Ġmater":6148,"Ġmemor":6149,"ĠMont":6150,"ĠBa":6151,"ĠBack":6152,"elling":6153,"Ġchok":6154,"Ġswine":6155,"Ġbelieves":6156,"Ġlegal":6157,"Ġwalks":6158,"Ġyelling":6159,"Ġderanged":6160,"ED":6161,"oured":6162,"Ġpound":6163,"Ġpage":6164,"Ġhaul":6165,"Ġstyle":6166,"Ġconce":6167,"place":6168,"Ġexchan":6169,"Ġleaders":6170,"Ġsignal":6171,"Ġfeeding":6172,"Ġspecies":6173,"Ġjerks":6174,"yard":6175,"Ġjury":6176,"ila":6177,"Ġbutton":6178,"azz":6179,"Ġpsychiat":6180,"Ġindeed":6181,"Ġunconscious":6182,"Ġculture":6183,"Ġlungs":6184,"hip":6185,"ns":6186,"zed":6187,"Ġbars":6188,"outs":6189,"ĠMama":6190,"ĠMiles":6191,"ĠFour":6192,"ĠRep":6193,"Ġ17":6194,"Ġconfess":6195,"Ġpuppy":6196,"Ġslightly":6197,"\"...":6198,"Ġsorce":6199,"haired":6200,"Ġditch":6201,"Ġtoler":6202,"ĠWhe":6203,"nah":6204,"Ġcuts":6205,"Ġflag":6206,"Ġchem":6207,"Ġnights":6208,"Ġperfor":6209,"ĠLeon":6210,"Ġtastes":6211,"ĠAdam":6212,"ĠAfrican":6213,"50":6214,"iable":6215,"Ġbugg":6216,"itation":6217,"ata":6218,"ĠOut":6219,"Ġplate":6220,"Ġintrod":6221,"ibber":6222,"Ġpiggy":6223,"Ġtesticles":6224,"Ġscientist":6225,"Ġearlier":6226,"Ġuncomfortable":6227,"rot":6228,"Ġdent":6229,"Ġgor":6230,"Ġemer":6231,"aybe":6232,"stand":6233,"ĠArab":6234,"ĠDest":6235,"Ġsmiled":6236,"Ġsmugg":6237,"Ġcoach":6238,"Ġhumor":6239,"Ġaccursed":6240,"Ġspending":6241,"ĠSmith":6242,"Ġvacation":6243,"Ġgarage":6244,"ĠSunday":6245,"hus":6246,"Ġbait":6247,"hand":6248,"Ġecon":6249,"...!":6250,"ĠDuke":6251,"arts":6252,"ously":6253,"Ġgrade":6254,"Ġcheated":6255,"Ġskirt":6256,"Ġenter":6257,"Ġpsychotic":6258,"ĠHuh":6259,"ĠFBI":6260,"born":6261,"oices":6262,"Ġtherap":6263,"rep":6264,"Ġfox":6265,"Ġgamb":6266,"sex":6267,"Ġgobl":6268,"alley":6269,"Ġfried":6270,"Ġscore":6271,"Ġflu":6272,"ĠViet":6273,"ĠMarc":6274,"Ġfreezing":6275,"Ġstrangers":6276,"Ġwhisper":6277,"Ġpersonality":6278,"Ġloaded":6279,"ĠBetter":6280,"ropri":6281,"Ġpillow":6282,"Ġshadow":6283,"Ġelephant":6284,"kins":6285,"met":6286,"uh":6287,"Ġfold":6288,"Ġjoint":6289,"Ġtrous":6290,"ĠRod":6291,"Ġgrim":6292,"Ġmont":6293,"Ġsurgery":6294,"Ġaccompl":6295,"ĠFriday":6296,"Ġweakness":6297,"Ġsteps":6298,"ĠMexicans":6299,"Ġpriests":6300,"ĠEmperor":6301,"Ġcannon":6302,"Ġsoup":6303,"itched":6304,"Ġlion":6305,"ĠMill":6306,"Ġbride":6307,"Ġrange":6308,"ĠExcept":6309,"ĠSergeant":6310,"Ġeternal":6311,"Ġmixed":6312,"Ġextremely":6313,"Ġocean":6314,"Ġach":6315,"Ġape":6316,"Ġwag":6317,"Ġmol":6318,"Ġheels":6319,"Ġsting":6320,"ilies":6321,"ulf":6322,"ĠOw":6323,"Ġwaitress":6324,"Ġaddress":6325,"Ġdepartment":6326,"ĠProf":6327,"while":6328,"Ġrepeat":6329,"lor":6330,"mes":6331,"itches":6332,"ĠMur":6333,"Ġslug":6334,"Ġmatters":6335,"ĠDoug":6336,"IT":6337,"vere":6338,"Ġshoe":6339,"agers":6340,"Ġthrone":6341,"Ġcrash":6342,"Ġprec":6343,"Ġcowards":6344,"Ġmistress":6345,"Ġjackass":6346,"Ġflew":6347,"IDS":6348,"ran":6349,"Ġhip":6350,"Ġthy":6351,"Ġbend":6352,"sell":6353,"Ġwhites":6354,"Ġchoc":6355,"Ġserved":6356,"Ġsergeant":6357,"Ġappeared":6358,"ĠAlan":6359,"Ġconfir":6360,"Ġdollar":6361,"ophile":6362,"Ġobsc":6363,"Ġaffair":6364,"Ġpetty":6365,"Ġsavages":6366,"Ġbillion":6367,"Ġeternity":6368,"Ġbehavior":6369,"ĠfiancÃ©":6370,"**":6371,"iod":6372,"reen":6373,"eng":6374,"Ġrug":6375,"vert":6376,"ĠHor":6377,"ĠMatt":6378,"Ġorp":6379,"Ġunw":6380,"Ġunlike":6381,"shut":6382,"Ġexposed":6383,"Ġlicking":6384,"Ġemotional":6385,"Ġtradition":6386,"Ġpity":6387,"Ġrit":6388,"Ġwhipped":6389,"Ġreject":6390,"ĠMo":6391,"ĠBern":6392,"ĠDark":6393,"Ġbrief":6394,"Ġagg":6395,"Ġblackmail":6396,"Ġharass":6397,"Ġpisses":6398,"Ġcows":6399,"ĠBrad":6400,"ĠIsn":6401,"Ġsquare":6402,"Ġcircum":6403,"Ġcabin":6404,"Ġexterminate":6405,"Ġancient":6406,"Ġguarantee":6407,"Ġreleased":6408,").":6409,"ls":6410,"zo":6411,"zer":6412,"uries":6413,"Ġletters":6414,"Ġassoci":6415,"Ġaccent":6416,"Ġaccess":6417,"Ġholiday":6418,"ĠDes":6419,"ĠGab":6420,"ables":6421,"osen":6422,"ĠRich":6423,"athy":6424,"urday":6425,"Ġskills":6426,"Ġmouths":6427,"ibal":6428,"Ġpainful":6429,"minist":6430,"Ġwinter":6431,"ĠGreg":6432,"ĠAbout":6433,"Ġpractically":6434,"Ġmerely":6435,"Ġassistant":6436,"blooded":6437,"Ġmontana":6438,"\",":6439,"Ġhanah":6440,"ĠAIDS":6441,"ĠPet":6442,"Ġtwist":6443,"Ġ13":6444,"Ġaccused":6445,"Ġwooden":6446,"Ġcustomers":6447,"minded":6448,"ĠChicago":6449,"bers":6450,"girls":6451,"haw":6452,"Ġliars":6453,"Ġrod":6454,"Ġcoke":6455,"Ġimage":6456,"Ġwarned":6457,"Ġyelled":6458,"Ġtowards":6459,"Ġcheeks":6460,"Ġunfortunately":6461,"Ġsandwich":6462,"bur":6463,"box":6464,"rad":6465,"was":6466,"Ġhips":6467,"Ġknight":6468,"ĠMajesty":6469,"Ġseek":6470,"udge":6471,"Ġroast":6472,"Ġwarrant":6473,"Ġmidnight":6474,"Ġhighly":6475,"iens":6476,"ida":6477,"Ġrout":6478,"Ġsuffe":6479,"Ġsugar":6480,"ĠLau":6481,"ĠLisa":6482,"ĠJose":6483,"Ġcurrent":6484,"ĠArthur":6485,"Ġdrives":6486,"ĠJoey":6487,"Ġgroin":6488,"ĠOtherwise":6489,"Ġrescue":6490,"ĠTexas":6491,"mond":6492,"sion":6493,"hea":6494,"Ġbent":6495,"ĠBitch":6496,"Ġabused":6497,"ĠGray":6498,"âĢĵ":6499,"Ġcarefully":6500,"Ġremark":6501,"Ġfamilies":6502,"Ġhearts":6503,"Ġpulls":6504,"Ġphil":6505,"ĠWhoa":6506,"ĠWhoever":6507,"Ġfalling":6508,"Ġsweetheart":6509,"Ġmassive":6510,"Ass":6511,"Ġcyn":6512,"isher":6513,"anch":6514,"stick":6515,"ĠDar":6516,"ĠRachel":6517,"ĠShow":6518,"Ġholl":6519,"Ġpartners":6520,"Ġglo":6521,"Ġchickens":6522,"Ġhypocrit":6523,"ashioned":6524,"Ġmedicine":6525,"Ġdishon":6526,"hey":6527,"Ġwing":6528,"atives":6529,"Ġstalk":6530,"ĠFre":6531,"respect":6532,"Ġours":6533,"Ġchances":6534,"Ġfactory":6535,"Ġexperiment":6536,"Ġticket":6537,"?âĢĿ":6538,"There":6539,"gment":6540,"Ġfund":6541,"Ġyourselves":6542,"ante":6543,"ĠHa":6544,"Ġsod":6545,"omeday":6546,"Ġfocus":6547,"ĠActually":6548,"rud":6549,"Ġlake":6550,"ani":6551,"ĠWitch":6552,"ĠAin":6553,"ĠMm":6554,"Ġblink":6555,"ntil":6556,"Ġstring":6557,"Ġinstit":6558,"Ġburgl":6559,"ĠArmy":6560,"Ġmuscle":6561,"Ġsecrets":6562,"ounced":6563,"Ġshark":6564,"Ġcere":6565,"Ġeager":6566,"ĠMs":6567,"Ġalt":6568,"Ġlog":6569,"Ġpointing":6570,"plex":6571,"Ġwarn":6572,"ĠBlow":6573,"Ġvirt":6574,"Ġoppon":6575,"Ġhunter":6576,"Ġnormally":6577,"Ġmutil":6578,"Ġteaching":6579,"Ġcostume":6580,"ĠSaturday":6581,"Ġritual":6582,"spect":6583,"inn":6584,"Ġmur":6585,"Ġdarling":6586,"Ġgibber":6587,"Ġlaughter":6588,"Ġwhist":6589,"ĠHom":6590,"Ġwomb":6591,"Ġpussycat":6592,"Ġmoments":6593,"Ġpunks":6594,"Ġwindows":6595,"Ġfurious":6596,"Ġsweaty":6597,"Ġnarrow":6598,"Ġtribe":6599,"10":6600,"Ġgren":6601,"Ġrare":6602,"uckle":6603,"ĠBat":6604,"ĠDa":6605,"ĠLind":6606,"Ġcomfort":6607,"Ġsmarter":6608,"rupted":6609,"Ġpurs":6610,"Ġkidnap":6611,"Ġcastle":6612,"Ġsuffocate":6613,"Ġlinkin":6614,"Ġwerewolf":6615,"Ġfangs":6616,"from":6617,"than":6618,"iner":6619,"Ġtoast":6620,"Ġinvent":6621,"ĠTod":6622,"Ġjam":6623,"Ġmanure":6624,"Ġtramp":6625,"gend":6626,"udes":6627,"Ġremains":6628,"Ġcrossed":6629,"Ġmortal":6630,"Ġexplosion":6631,"ĠTHE":6632,"ifer":6633,"elled":6634,"ookie":6635,"Ġterribly":6636,"ĠDrop":6637,"ĠKilled":6638,"Ġsnap":6639,"Ġrepeated":6640,"Ġattractive":6641,"known":6642,"fashioned":6643,"idel":6644,"ĠMeg":6645,"ppers":6646,"Ġplus":6647,"Ġspine":6648,"Ġscrap":6649,"Ġfarmer":6650,"iliar":6651,"Ġwaist":6652,"Ġtumor":6653,"Ġchocolate":6654,"Who":6655,"Ġrul":6656,"uster":6657,"ĠLove":6658,"Ġprinc":6659,"iance":6660,"Ġperiod":6661,"uffy":6662,"rows":6663,"ĠAnnie":6664,"Ġsimilar":6665,"Ġcentury":6666,"Ġresponsibility":6667,"Are":6668,"uise":6669,"ĠHard":6670,"Ġdeer":6671,"ĠMove":6672,"Ġoffend":6673,"ĠRom":6674,"ĠKid":6675,"ĠKore":6676,"Ġdisorder":6677,"ĠBeat":6678,"Ġfantasy":6679,"ĠDetective":6680,"Ġhigher":6681,"Ġmaterial":6682,"Bl":6683,"Ġfence":6684,"Ġcav":6685,"Ġpow":6686,"Ġagents":6687,"ĠKr":6688,"acul":6689,"ublic":6690,"ĠStu":6691,"Ġentered":6692,"Ġoppos":6693,"Ġpanic":6694,"ĠLatin":6695,"Ġelevator":6696,"rous":6697,"Ġing":6698,"hable":6699,"Ġlately":6700,"arily":6701,"idate":6702,"Ġmeal":6703,"ament":6704,"tering":6705,"Ġclin":6706,"ureau":6707,"umbling":6708,"ollen":6709,"ĠAsian":6710,"ĠJackie":6711,"ĠCarter":6712,"ĠSean":6713,"Ġproduct":6714,"Ġdeny":6715,"Ġgym":6716,"Ġsuffered":6717,"bitch":6718,"Ġdict":6719,"vey":6720,"rael":6721,"unction":6722,"Ġsoap":6723,"ĠCrap":6724,"Ġaliens":6725,"ĠFind":6726,"Ġbrot":6727,"Ġbadge":6728,"Ġtrave":6729,"Ġmoral":6730,"Ġstronger":6731,"Ġpopular":6732,"Ġsales":6733,"Ġfixed":6734,"hunter":6735,"life":6736,"yes":6737,"Ġwished":6738,"org":6739,"Ġinvented":6740,"enger":6741,"ays":6742,"Ġlicked":6743,"Ġforbid":6744,"Ġwhining":6745,"ĠSqu":6746,"Ġabortion":6747,"Ġsaus":6748,"ĠPussy":6749,"Ġintest":6750,"Ġfeather":6751,"Ġslipped":6752,"Ġrole":6753,"Ġkinda":6754,"Ġtext":6755,"ĠUse":6756,"Ġpige":6757,"Ġinstruct":6758,"Ġsentenced":6759,"Ġsweep":6760,"Ġexpert":6761,"Ġpunching":6762,"Ġerotic":6763,"Ġvermin":6764,"Ġphysical":6765,"Ġsuccessful":6766,"Ġearned":6767,"inating":6768,"itals":6769,"Ġcy":6770,"Ġlat":6771,"ĠSher":6772,"Ġsocks":6773,"ĠMir":6774,"rob":6775,"ĠDun":6776,"Ġguitar":6777,"apers":6778,"Ġchosen":6779,"ĠKate":6780,"ĠKelly":6781,"ipment":6782,"Ġproof":6783,"ĠUntil":6784,"Ġschiz":6785,"Ġcrimes":6786,"Ġsymp":6787,"Ġtreatment":6788,"Ġconvicted":6789,"Ġhoped":6790,"Ġdiscovered":6791,"Ġsurvived":6792,"Ġbehave":6793,"Ġabandoned":6794,"Ġtrousers":6795,"Ġxx":6796,"render":6797,"ority":6798,"oms":6799,"Ġrail":6800,"Ġdegen":6801,"ĠPret":6802,"Ġarg":6803,"ĠEve":6804,"ishop":6805,"Ġpole":6806,"Ġchecked":6807,"ĠVal":6808,"ĠUS":6809,"Ġchildhood":6810,"Ġcomplicated":6811,"Ġstays":6812,"Ġthroats":6813,"Ġlightning":6814,"Ġcollap":6815,"Ġwallet":6816,"Ġprotection":6817,"Ġhunted":6818,"Ġequipment":6819,"Ġnorth":6820,"ĠSusan":6821,"Ġbrothel":6822,"dra":6823,"Ġwaving":6824,"Ġfo":6825,"armed":6826,"Ġrose":6827,"Ġrode":6828,"Ġforces":6829,"ĠCos":6830,"ĠLong":6831,"ĠPort":6832,"ĠPope":6833,"Ġplot":6834,"Ġbackside":6835,"Ġheaded":6836,"iano":6837,"Ġflames":6838,"Ġpolite":6839,"Ġapple":6840,"Ġcooking":6841,"ĠJean":6842,"Ġxxx":6843,"Get":6844,"fire":6845,"Ġaverage":6846,"Ġthirty":6847,"Ġforth":6848,"ĠWes":6849,"ĠHad":6850,"Ġdeg":6851,"Ġsoci":6852,"Ġunre":6853,"Ġdeaths":6854,"umpy":6855,"Ġimagination":6856,"Ġcapital":6857,"Ġpressed":6858,"Ġcheerlead":6859,"Ġshameless":6860,"Ġdawn":6861,"anic":6862,"Ġhabit":6863,"Ġster":6864,"ĠSit":6865,"ĠDammit":6866,"ively":6867,"ĠNice":6868,"Ġthrust":6869,"Ġswollen":6870,"Ġsurface":6871,"Ġinstr":6872,"Ġconspir":6873,"Ġexpecting":6874,"Ġsigned":6875,"Ġdistance":6876,"Ġescaped":6877,"ynam":6878,"Ġgentleman":6879,"ropriate":6880,"Ġig":6881,"ouch":6882,"ĠShar":6883,"Ġseal":6884,"Ġknives":6885,"ĠBay":6886,"abl":6887,"ĠNone":6888,"Ġexha":6889,"Ġmole":6890,"Ġinsanity":6891,"Ġsits":6892,"Ġcolored":6893,"ĠReally":6894,"Ġdamaged":6895,"Ġneighbour":6896,"Ġprostitution":6897,"Ġattempted":6898,"ĠProfessor":6899,"Do":6900,"orate":6901,"ĠSa":6902,"ĠAri":6903,"ĠDonna":6904,"elle":6905,"Ġbacks":6906,"Ġcomfortable":6907,"lessly":6908,"iley":6909,"Ġactor":6910,"Ġsurgeon":6911,"Ġglory":6912,"oken":6913,"Ġrecently":6914,"afia":6915,"Ġexplained":6916,"Ġwhiskey":6917,"Ġceiling":6918,"Ġancest":6919,"Ġgibberish":6920,"ioc":6921,"win":6922,"Ġvenge":6923,"Ġlimp":6924,"iforn":6925,"Ġanal":6926,"ĠMust":6927,"ros":6928,"ickin":6929,"ĠRose":6930,"ĠRoy":6931,"ĠChuck":6932,"ĠChina":6933,"Ġharsh":6934,"Ġbuzz":6935,"Ġbold":6936,"ĠJackson":6937,"Ġships":6938,"Ġslutty":6939,"ĠVirgin":6940,"Ġhelicopter":6941,"ĠTime":6942,"ĠHot":6943,"Ġnothin":6944,"Ġupper":6945,"Ġspider":6946,"Ġpatients":6947,"Ġcompetition":6948,"Ġversion":6949,"Ġdetermined":6950,"Ġess":6951,"Ġdun":6952,"ĠIra":6953,"Ġlines":6954,"Ġpud":6955,"icient":6956,"rand":6957,"ĠSn":6958,"ĠCa":6959,"ĠCat":6960,"caine":6961,"ĠOoh":6962,"Ġclock":6963,"Ġfriendship":6964,"Ġmurderous":6965,"ception":6966,"goti":6967,"Ġwinning":6968,"Ġvest":6969,"Ġassassins":6970,"Ġsnakes":6971,"Ġpolitics":6972,"ĠMonkey":6973,"Ġcollection":6974,"Ġfederal":6975,"Ġsource":6976,"Ġfriggin":6977,"ba":6978,"nant":6979,"Ġ0":6980,"Ġcared":6981,"Ġlust":6982,"unior":6983,"igan":6984,"ĠLy":6985,"Ġslip":6986,"Ġcris":6987,"Ġmistakes":6988,"Ġkingdom":6989,"Ġdepressed":6990,"Ġbums":6991,"Ġcases":6992,"Ġfanatic":6993,"ĠCaliforn":6994,"Ġconnection":6995,"Ġparticular":6996,"Ġorphan":6997,"kon":6998,"nor":6999,"Ġ`":7000,"Ġhouses":7001,"Ġult":7002,"ĠSand":7003,"ĠSheriff":7004,"ĠLuke":7005,"Ġspr":7006,"ĠRid":7007,"Ġvision":7008,"Ġcomplex":7009,"Ġplays":7010,"ĠBring":7011,"Ġentertain":7012,"Ġfoolishness":7013,"Ġdetect":7014,"Ġveget":7015,"Ġfarts":7016,"ĠGuy":7017,"Ġfrak":7018,"Ġexchange":7019,"Ġtom":7020,"Ġgather":7021,"stop":7022,"ĠPiss":7023,"Ġdownstairs":7024,"Ġtalkin":7025,"Ġswamp":7026,"Ġterm":7027,"Ġacted":7028,"Ġbitching":7029,"Ġprecious":7030,"ĠJohnson":7031,"Ġhunger":7032,"sucker":7033,"Ġlicense":7034,"ĠInternet":7035,"lam":7036,"Ġthee":7037,"Ġfires":7038,"Ġoption":7039,"Ġshitless":7040,"ĠNavy":7041,"Ġfooled":7042,"Ġkicks":7043,"ĠDamned":7044,"ĠInstead":7045,"ĠFuckin":7046,"Ġindivid":7047,"Ġsports":7048,"Ġinflu":7049,"Ġturkey":7050,"Hell":7051,"ua":7052,"ĠTerry":7053,"Ġsac":7054,"Ġplug":7055,"Ġvote":7056,"Ġsmooth":7057,"ĠKir":7058,"Ġflush":7059,"Ġstands":7060,"ĠAnna":7061,"Ġperverted":7062,"Ġvalue":7063,"Ġarrived":7064,"IC":7065,"nat":7066,"Ġtempt":7067,"Ġye":7068,"Ġrhy":7069,"Ġjonas":7070,"Ġlegend":7071,"ĠStar":7072,"Ġactress":7073,"iva":7074,"Ġdealers":7075,"pring":7076,"Ġhurting":7077,"Ġ60":7078,"Ġpoliticians":7079,"Ġbeggar":7080,"Ġrascal":7081,"ĠCalifornia":7082,"dr":7083,"Ġyo":7084,"Ġnational":7085,"hers":7086,"ĠBastard":7087,"ĠColl":7088,"Ġconsequ":7089,"Ġslice":7090,"ĠUgh":7091,"Ġcontain":7092,"ĠFrankie":7093,"Ġimmature":7094,"ĠEdward":7095,"ĠCatholic":7096,"die":7097,"ĠÂ":7098,"Ġbarn":7099,"Ġraw":7100,"ĠHan":7101,"Ġability":7102,"ĠCy":7103,"ĠGal":7104,"Ġorange":7105,"ĠJord":7106,"Ġpeed":7107,"ĠRandy":7108,"Ġbadass":7109,"Ġfooling":7110,"Ġbeings":7111,"Ġfights":7112,"Ġbecomes":7113,"Ġincre":7114,"Ġjerked":7115,"Ġdistract":7116,"ummies":7117,"Ġscumbag":7118,"ĠToday":7119,"!âĢĿ":7120,"ih":7121,"orious":7122,"ading":7123,"Ġabuse":7124,"izes":7125,"Ġfamiliar":7126,"Ġswords":7127,"Ġuter":7128,"Ġeducation":7129,"vir":7130,"aning":7131,"ĠAN":7132,"Ġseason":7133,"Ġnegoti":7134,"ĠGary":7135,"Ġalb":7136,"ĠFil":7137,"Ġcrown":7138,"Ġcarpet":7139,"ensive":7140,"Ġanswers":7141,"Ġveins":7142,"Ġdespise":7143,"Ġteenage":7144,"ĠEnough":7145,"Ġfrightened":7146,"Ġmystery":7147,"LE":7148,"gain":7149,"ko":7150,"ser":7151,"Ġakon":7152,"Ġwwe":7153,"Ġsan":7154,"Ġbb":7155,"Ġbik":7156,"Ġfile":7157,"Ġcooper":7158,"anke":7159,"adise":7160,"ilis":7161,"agn":7162,"ĠFar":7163,"Ġseries":7164,"Ġretard":7165,"phy":7166,"Ġleads":7167,"Ġdistur":7168,"Ġrefused":7169,"Ġsalt":7170,"Ġintellect":7171,"Ġchopped":7172,"Ġclients":7173,"Ġcrawling":7174,"ĠRicky":7175,"form":7176,"Ġbollocks":7177,"Ġhent":7178,"adem":7179,"Ġstones":7180,"ĠWalk":7181,"Ġ\"...":7182,"Ġupside":7183,"ĠBal":7184,"ĠGirl":7185,"Ġshed":7186,"ooks":7187,"ĠOb":7188,"ĠOff":7189,"Ġlear":7190,"ference":7191,"ape":7192,"Ġcocaine":7193,"orney":7194,"Ġpoints":7195,"Ġrepulsive":7196,"Ġcharming":7197,"Ġdelight":7198,"Ġdepra":7199,"Ġmedia":7200,"Ġclassic":7201,"ophren":7202,"Ġdivor":7203,"ĠMorgan":7204,"Ġcausing":7205,"Ġnerds":7206,"ĠBrand":7207,"Ġprimitive":7208,"Ġbasshunter":7209,"ĠDestroy":7210,"viet":7211,"Ġta":7212,"Ġshat":7213,"Ġcord":7214,"ĠCent":7215,"ĠGirls":7216,"Ġmanage":7217,"agan":7218,"Ġloving":7219,"Ġclue":7220,"berg":7221,"Ġhog":7222,"Ġparties":7223,"ĠUp":7224,"Ġparade":7225,"Ġangels":7226,"Ġmeantime":7227,"Ġpricks":7228,"Ġtower":7229,"Ġtreacherous":7230,"Ġhentai":7231,"zard":7232,"Ġgain":7233,"Ġgoose":7234,"ĠWood":7235,"anted":7236,"ĠHand":7237,"Ġcans":7238,"elie":7239,"ĠOsc":7240,"Ġguilt":7241,"ript":7242,"Ġarmp":7243,"Ġslob":7244,"Ġkidney":7245,"Ġimper":7246,"Ġgreater":7247,"Ġcontempt":7248,"Ġstinky":7249,"Ġleading":7250,"Ġteenager":7251,"Ġperform":7252,"Ġindividual":7253,"All":7254,"ront":7255,"Ġsar":7256,"Ġdang":7257,"ĠYear":7258,"ĠHope":7259,"ĠLad":7260,"eps":7261,"Ġgoodbye":7262,"Ġamate":7263,"ressing":7264,"ĠArch":7265,"ologist":7266,"Ġjumping":7267,"Ġmorgue":7268,"Ġporno":7269,"ĠAnyone":7270,"which":7271,"Ġhumiliated":7272,"Ġpalace":7273,"Ġwitnesses":7274,"Ġfantas":7275,"Ġinstitution":7276,"bre":7277,"called":7278,"Ġopt":7279,"Ġgest":7280,"Ġthou":7281,"Ġraid":7282,"Ġrush":7283,"Ġreek":7284,"urry":7285,"ophy":7286,"ĠMed":7287,"aging":7288,"Ġworship":7289,"istan":7290,"Ġclut":7291,"Ġprose":7292,"Ġfatass":7293,"ĠChief":7294,"Ġsteak":7295,"Ġsqueez":7296,"Ġconsid":7297,"ĠJesse":7298,"ĠHello":7299,"Ġvirgins":7300,"Ġlawn":7301,"ĠMickey":7302,"Ġnewspaper":7303,"por":7304,"pers":7305,"Ġwack":7306,"ĠWolf":7307,"uments":7308,"Ġplayers":7309,"Ġcopy":7310,"ĠHoward":7311,"Ġloses":7312,"Ġcorrect":7313,"Ġesc":7314,"ĠClark":7315,"Ġstarving":7316,"Ġsimpl":7317,"ronic":7318,"ĠPatrick":7319,"Ġcrawl":7320,"Ġwidow":7321,"Ġuterus":7322,"tail":7323,"uan":7324,"Ġwrap":7325,"isy":7326,"arters":7327,"icing":7328,"Ġdod":7329,"Ġdose":7330,"ĠTen":7331,"ĠAp":7332,"ĠHmm":7333,"ĠDep":7334,"ĠCap":7335,"ĠCarr":7336,"ths":7337,"irsty":7338,"Ġswore":7339,"ĠSoviet":7340,"ĠBeck":7341,"Ġ500":7342,"Ġcolonel":7343,"ĠRussia":7344,"Ġnailed":7345,"Ġmotherfucking":7346,"Ġmotherfuckers":7347,"Ġwretch":7348,"Ġtowel":7349,"Ġmodern":7350,"Ġcameras":7351,"laus":7352,"Ġnegro":7353,"Ġparticularly":7354,"Ġdreadful":7355,"Ġsafety":7356,"Ġschizophren":7357,"rite":7358,"town":7359,"Ġven":7360,"Ġtale":7361,"Ġbart":7362,"Ġmos":7363,"etic":7364,"Ġdeck":7365,"Ġfrickin":7366,"ĠDor":7367,"Ġleap":7368,"Ġmakeup":7369,"ugger":7370,"Ġwriter":7371,"Ġfully":7372,"ĠIsrael":7373,"Ġdriven":7374,"ĠFlor":7375,"Ġswallowed":7376,"Ġreaction":7377,"Ġaudience":7378,"ĠFrancis":7379,"Ġtroubles":7380,"Let":7381,"jack":7382,"lot":7383,"muck":7384,"Ã¡":7385,"Ġtone":7386,"Ġturt":7387,"Ġast":7388,"Ġdummies":7389,"Ġtoys":7390,"Ġnit":7391,"Ġstamp":7392,"Ġshy":7393,"ĠTal":7394,"ĠSwe":7395,"ĠSounds":7396,"osal":7397,"ĠFore":7398,"Ġfee":7399,"Ġconcl":7400,"Ġtraffic":7401,"Ġroommate":7402,"uthless":7403,"Ġsmaller":7404,"Ġmotel":7405,"Ġhumiliate":7406,"Ġpirates":7407,"lected":7408,"Ġapproach":7409,"Ġchallenge":7410,"girl":7411,"Ġmush":7412,"Ġfel":7413,"edge":7414,"Ġbless":7415,"Ġspies":7416,"ĠVic":7417,"Ġhalfway":7418,"Ġdumpster":7419,"Ġdetails":7420,"gency":7421,"Ġhyster":7422,"Ġniggers":7423,"Ġopponent":7424,"20":7425,"bled":7426,"pot":7427,"will":7428,"Ġmall":7429,"Ġtoxic":7430,"ayed":7431,"ĠHall":7432,"umes":7433,"ĠJam":7434,"Ġlethal":7435,"Ġperish":7436,"Ġsecretary":7437,"ompous":7438,"Ġprotecting":7439,"Ġneighbors":7440,"ennis":7441,"ĠGreek":7442,"Ġmemories":7443,"Then":7444,"bon":7445,"col":7446,"good":7447,"Ġbureau":7448,"Ġdough":7449,"Ġpowers":7450,"Ġweas":7451,"Ġlibr":7452,"ĠHas":7453,"ĠCase":7454,"Ġshel":7455,"ĠJosh":7456,"olent":7457,"Ġscript":7458,"ĠWere":7459,"Ġflame":7460,"Ġmindless":7461,"Ġsquat":7462,"Ġdirector":7463,"ĠGuys":7464,"Ġmarks":7465,"Ġbugs":7466,"ĠRobin":7467,"Ġaccidentally":7468,"Ġcrippled":7469,"ĠCarlos":7470,"Ġlifted":7471,"ĠTurk":7472,"Ġsociopath":7473,"iour":7474,"Ġtask":7475,"Ġwest":7476,"Ġsite":7477,"Ġmath":7478,"handed":7479,"Ġinher":7480,"Ġsem":7481,"umn":7482,"Ġsaint":7483,"ĠFine":7484,"ĠKal":7485,"Ġungr":7486,"izer":7487,"Ġwrink":7488,"Ġattacks":7489,"ĠClay":7490,"Ġtreasure":7491,"Ġfavour":7492,"Ġjudgment":7493,"Ġperverts":7494,"Ġruining":7495,"Ġproperly":7496,"Ġbooty":7497,"Ġdesigned":7498,"Ġreckless":7499,"Ġscalp":7500,"respons":7501,"fight":7502,"Ġmile":7503,"ilities":7504,"ĠDere":7505,"ĠLily":7506,"ĠJon":7507,"ĠPop":7508,"ĠEarl":7509,"beat":7510,"Ġslipp":7511,"Ġbeloved":7512,"Ġwrists":7513,"lings":7514,"Ġdrugged":7515,"Ġspirits":7516,"iami":7517,"Ġsongs":7518,"ĠMarty":7519,"Ġdetonate":7520,"RA":7521,"bar":7522,"cuse":7523,"his":7524,"ti":7525,"Ġfond":7526,"Ġhack":7527,"Ġmelt":7528,"alo":7529,"iral":7530,"Ġfork":7531,"ĠMid":7532,"Ġalarm":7533,"ĠFace":7534,"ĠKiss":7535,"aughters":7536,"Ġinstant":7537,"Ġdrawn":7538,"Ġbanged":7539,"Ġcomplaining":7540,"Ġblasted":7541,"craft":7542,"ĠBaby":7543,"Ġgoofy":7544,"Ġmethod":7545,"ÂĿ":7546,"onies":7547,"ĠSol":7548,"stances":7549,"Ġgoal":7550,"Ġdemented":7551,"ĠStr":7552,"ĠVince":7553,"Ġfreaked":7554,"appy":7555,"Ġmountains":7556,"Ġvalu":7557,"Ġshovel":7558,"Ġsailor":7559,"Ġcondemned":7560,"ĠWayne":7561,"Ġslimy":7562,"Ġungrateful":7563,"!...":7564,"Now":7565,"gus":7566,"Ġtin":7567,"imps":7568,"ĠHol":7569,"ĠDu":7570,"ĠDoc":7571,"ĠLaw":7572,"Ġplat":7573,"Ġspect":7574,"ugnant":7575,"Ġjerking":7576,"minate":7577,"Ġpacked":7578,"ĠLeo":7579,"Ġinvestigation":7580,"Ġaltar":7581,"dest":7582,"function":7583,"oust":7584,"Ġdom":7585,"erior":7586,"otton":7587,"Ġej":7588,"Ġwashing":7589,"ĠHang":7590,"eller":7591,"Ġsuits":7592,"arest":7593,"Ġchip":7594,"Ġfatal":7595,"oston":7596,"Ġsurrender":7597,"Ġstabbing":7598,"Ġillness":7599,"Ġshorts":7600,"Ġmassage":7601,"Ġcovering":7602,"ĠGrace":7603,"ĠEmily":7604,"chair":7605,"Ġrobbery":7606,"Ġmartyr":7607,"ĠKnock":7608,"ae":7609,"hor":7610,"hib":7611,"Ġsou":7612,"ĠInt":7613,"ashes":7614,"Ġroo":7615,"Ġsevere":7616,"ĠDE":7617,"Ġspite":7618,"ĠRat":7619,"Ġarch":7620,"Ġclaws":7621,"augh":7622,"Ġopens":7623,"ĠChristians":7624,"Ġreporter":7625,"Ġrepugnant":7626,"Ġfilming":7627,"Ġdropping":7628,"Ġrobots":7629,"Ġzone":7630,"Ġbased":7631,"Ġreminded":7632,"ĠPlus":7633,"Ġcelebrate":7634,"Ġrevolution":7635,"ĠHonor":7636,"Ġtyrant":7637,"Ġmurm":7638,"ynamite":7639,"ĠIraq":7640,"bull":7641,"rs":7642,"Ġbudd":7643,"Ġdy":7644,"Ġdign":7645,"Ġlud":7646,"ado":7647,"adder":7648,"ucked":7649,"ĠDennis":7650,"essa":7651,"ivered":7652,"ĠJay":7653,"ĠJere":7654,"ĠOver":7655,"ĠPo":7656,"Ġintent":7657,"ĠRam":7658,"Ġassign":7659,"unky":7660,"Ġgays":7661,"Ġrooms":7662,"ucer":7663,"Ġtorment":7664,"Ġdreamed":7665,"Ġjunkies":7666,"ĠKiller":7667,"Ġhonestly":7668,"Ġhostages":7669,"urai":7670,"ĠRonnie":7671,"Ġinternet":7672,"Ġmuscles":7673,"OM":7674,"nut":7675,"sch":7676,"tr":7677,"za":7678,"inity":7679,"Ġwat":7680,"Ġbail":7681,"Ġheight":7682,"Ġraz":7683,"ĠTri":7684,"Ġhers":7685,"ĠMajor":7686,"ĠDarn":7687,"ĠCow":7688,"osc":7689,"Ġchump":7690,"Ġunknown":7691,"Ġmonk":7692,"Ġinsist":7693,"ĠUnder":7694,"Ġthrows":7695,"Ġcontroll":7696,"Ġrecru":7697,"Ġtrusted":7698,"Ġdiarr":7699,"Ġembarrassment":7700,"Ġenjoyed":7701,"Ġoccur":7702,"Ġerect":7703,"Ġencou":7704,"Ġissue":7705,"Ġdeclared":7706,"In":7707,"Yes":7708,"com":7709,"Ġtiger":7710,"Ġgag":7711,"Ġpra":7712,"Ġstench":7713,"ĠDale":7714,"Ġuses":7715,"ĠPu":7716,"Ġintention":7717,"Ġentr":7718,"ĠArt":7719,"Ġexecut":7720,"Ġbandits":7721,"Ġoccup":7722,"ĠJacob":7723,"Ġhypocritical":7724,"Ġburglar":7725,"lat":7726,"Ġsissy":7727,"Ġfans":7728,"lev":7729,"ĠTan":7730,"ifter":7731,"ĠSid":7732,"Ġsevered":7733,"ĠYoung":7734,"Ġsober":7735,"abled":7736,"Ġoffering":7737,"oyle":7738,"Ġbelief":7739,"ĠBeing":7740,"Ġdisgust":7741,"Ġdumbass":7742,"Ġhookers":7743,"Ġlands":7744,"gypt":7745,"Ġreports":7746,"Ġshouting":7747,"Ġbothering":7748,"Ġgeneration":7749,"Ġspanking":7750,"Ġloyal":7751,"otesque":7752,".)":7753,"When":7754,"away":7755,"pha":7756,"uum":7757,"Ġpompous":7758,"Ġnap":7759,"atoes":7760,"Ġshield":7761,"ĠTar":7762,"Ġfrust":7763,"acks":7764,"Ġmanners":7765,"ĠOk":7766,"ĠFive":7767,"rique":7768,"Ġintim":7769,"Ġscreen":7770,"Ġdrum":7771,"Ġassure":7772,"ĠVery":7773,"lesias":7774,"Ġcleaned":7775,"Ġinfant":7776,"ĠClub":7777,"Ġrespond":7778,"Ġreminds":7779,"ĠSilence":7780,"Ġtrailer":7781,"ĠJordan":7782,"bi":7783,"pent":7784,"tw":7785,"itable":7786,"Ġfashion":7787,"Ġtoes":7788,"Ġinch":7789,"Ġmechan":7790,"Ġruthless":7791,"ifts":7792,"ĠGross":7793,"Ġblo":7794,"agne":7795,"Ġnovel":7796,"ĠPa":7797,"ĠReg":7798,"Ġbrush":7799,"Ġchef":7800,"Ġprev":7801,"Ġhooked":7802,"Ġdrawing":7803,"ĠClaire":7804,"Ġleaned":7805,"Ġdisappointed":7806,"ĠEmpire":7807,"ĠLeonard":7808,"Ġgrenade":7809,"Ġbuddies":7810,"ET":7811,"did":7812,"mates":7813,"Ġbond":7814,"Ġfu":7815,"Ġnuis":7816,"usive":7817,"Ġshown":7818,"ĠYanke":7819,"alling":7820,"hern":7821,"ĠHill":7822,"Ġsore":7823,"ĠBart":7824,"ĠJenny":7825,"Ġenrique":7826,"Ġglob":7827,"Ġrecomm":7828,"Ġpossibility":7829,"Ġirre":7830,"Ġirrespons":7831,"Ġexpose":7832,"Ġdevast":7833,"Ġkidnapping":7834,"Ġinfection":7835,"Ġbasketball":7836,"Ġbehaviour":7837,"Ġresearch":7838,"ĠMurder":7839,"Ġiglesias":7840,"Ġsacred":7841,"mic":7842,"Ġdaughters":7843,"orp":7844,"omic":7845,"Ġstream":7846,"child":7847,"ĠCam":7848,"ĠJed":7849,"ĠEgypt":7850,"Ġbrick":7851,"Ġens":7852,"iana":7853,"ĠState":7854,"Ġminister":7855,"Ġpolicy":7856,"Ġhorr":7857,"Ġsentiment":7858,"Ġ300":7859,"ĠSwed":7860,"ĠJersey":7861,"Ġlearning":7862,"ĠDerek":7863,"Ġvaluable":7864,"Ch":7865,"jo":7866,"uge":7867,"Ġsomeday":7868,"Ġded":7869,"Ġoath":7870,"Ġego":7871,"Ġshoved":7872,"ĠBond":7873,"ĠCub":7874,"Ġargue":7875,"oyd":7876,"ĠKlaus":7877,"Ġdisrespect":7878,"Ġshack":7879,"Ġchap":7880,"Ġgrace":7881,"Ġpenet":7882,"ĠBarry":7883,"Ġsewer":7884,"AL":7885,"kick":7886,"mous":7887,"Ġbusting":7888,"Ġdug":7889,"Ġcurt":7890,"Ġinept":7891,"Ġeld":7892,"ican":7893,"Ġforty":7894,"ĠLA":7895,"ĠLiar":7896,"ĠNik":7897,"osing":7898,"ribut":7899,"ardon":7900,"Ġhanded":7901,"acon":7902,"Ġgrotesque":7903,"Ġbreed":7904,"ĠBlood":7905,"Ġsett":7906,"Ġpsychic":7907,"Ġdressing":7908,"Ġdeliber":7909,"Ġimagined":7910,"Ġdemonstr":7911,"Ġbelonged":7912,"strous":7913,"Ġlimb":7914,"urally":7915,"ĠLucy":7916,"Ġsample":7917,"ĠHelp":7918,"ography":7919,"Ġissues":7920,"Ġpaed":7921,"Ġsquirrel":7922,"Ġopposite":7923,"ĠPretty":7924,"Ġnuisance":7925,"Ġ~":7926,"Ġcum":7927,"Ġhorm":7928,"Ġkar":7929,"ims":7930,"ĠYOU":7931,"ĠCas":7932,"ĠPap":7933,"Ġvar":7934,"neath":7935,"Ġchanging":7936,"Ġbeats":7937,"Ġsidewalk":7938,"Ġregul":7939,"Ġpurse":7940,"Ġdrowning":7941,"zzle":7942,"Ġwarriors":7943,"Ġdeclare":7944,"Ġhippie":7945,"ĠIdiot":7946,"Ġexperienced":7947,"Ġbuggers":7948,"Ġphilos":7949,"Ġconsequences":7950,"pro":7951,"ĠSix":7952,"ĠAlf":7953,"ĠMond":7954,"ĠPull":7955,"Ġvap":7956,"ĠWend":7957,"Ġpoke":7958,"Ġbrainw":7959,"neys":7960,"Ġballoon":7961,"Ġadvent":7962,"Ġparadise":7963,"Ġdefeated":7964,"Ġsolid":7965,"Ġstroke":7966,"Ġdivorced":7967,"Ġludic":7968,"OL":7969,"aver":7970,"sp":7971,"erve":7972,"eted":7973,"ldon":7974,"Ġfuckers":7975,"Ġblaz":7976,"Ġgoods":7977,"rained":7978,"Ġcarc":7979,"shirt":7980,"Ġshaved":7981,"Ġpercent":7982,"Ġattached":7983,"Ġbitchy":7984,"Ġbiting":7985,"Ġappet":7986,"action":7987,"ĠBlue":7988,"Ġlaund":7989,"atherine":7990,"Ġzoo":7991,"ĠTomorrow":7992,"Ġgovernor":7993,"Ġreplaced":7994,"risy":7995,"Ġlimited":7996,"ylon":7997,"ĠMuslims":7998,"To":7999,"UT":8000,"aire":8001,"even":8002,"vo":8003,"Ġware":8004,"Ġwax":8005,"ona":8006,"Ġincap":8007,"ĠTroll":8008,"Ġfornic":8009,"ieved":8010,"ĠAsh":8011,"ĠAgent":8012,"ĠDri":8013,"agues":8014,"ĠAndrew":8015,"Ġcoma":8016,"Ġstupidest":8017,"Ġflood":8018,"Ġhelmet":8019,"Ġcommission":8020,"Ġscand":8021,"Ġawait":8022,"Ġfilms":8023,"Ġpenny":8024,"Ġvictory":8025,"Ġdeeply":8026,"Ġclubs":8027,"Ġstatement":8028,"Ġfifty":8029,"osterous":8030,"ĠHalf":8031,"Ġvulgar":8032,"Ġsacrificed":8033,"bie":8034,"eous":8035,"iation":8036,"sha":8037,"take":8038,"Ġdried":8039,"Ġdung":8040,"ington":8041,"Ġpad":8042,"ĠTre":8043,"sty":8044,"ĠHi":8045,"odes":8046,"Ġshits":8047,"pled":8048,"Ġgrief":8049,"Ġmonstrous":8050,"ĠStri":8051,"Ġworkers":8052,"Ġattorney":8053,"Ġadminist":8054,"Ġlieutenant":8055,"Ġgrease":8056,"force":8057,"Ġboxes":8058,"Ġpleasant":8059,"Ġshopping":8060,"Ġpockets":8061,"Ġdiamonds":8062,"Ġseparate":8063,"Ġpussies":8064,"Ġbartender":8065,"car":8066,"giving":8067,"Ġbeef":8068,"Ġelf":8069,"icip":8070,"ĠBoston":8071,"Ġabdom":8072,"ainted":8073,"osis":8074,"ĠPan":8075,"rier":8076,"Ġspitting":8077,"Ġlets":8078,"bey":8079,"Ġelbow":8080,"Ġmovement":8081,"Ġworthy":8082,"Ġdetail":8083,"Ġtrolls":8084,"Ġadmitted":8085,"Ġappearance":8086,"Ġdipl":8087,"Ġcitizens":8088,"Ġmassacre":8089,"IL":8090,"ban":8091,"ixt":8092,"Ġtons":8093,"Ġbunny":8094,"Ġfierce":8095,"Ġcro":8096,"Ġol":8097,"Ġheav":8098,"lem":8099,"ĠMiami":8100,"ĠGer":8101,"ourt":8102,"ulk":8103,"ĠNancy":8104,"ĠOffic":8105,"osaur":8106,"Ġspoon":8107,"Ġvoices":8108,"Ġslain":8109,"Ġdescend":8110,"Ġsleeps":8111,"Ġsupply":8112,"Ġmarch":8113,"annah":8114,"Ġexplan":8115,"chers":8116,"Ġsymb":8117,"Ġcatches":8118,"Ġwinner":8119,"ypsy":8120,"Ġspeaks":8121,"Ġbandit":8122,"Ġenjoying":8123,"Ġsucceed":8124,"Ġgender":8125,"ĠDoesn":8126,"ĠMarshall":8127,"Ġcandle":8128,"Ġwandering":8129,"Ġmaggots":8130,"ĠRepublic":8131,"ĠJoseph":8132,"Ġirresponsible":8133,"Just":8134,"bab":8135,"lord":8136,"would":8137,"Ġdial":8138,"ĠHay":8139,"opsy":8140,"inder":8141,"ĠLife":8142,"itties":8143,"Ġconqu":8144,"Ġprint":8145,"Ġflip":8146,"Ġmule":8147,"Ġskip":8148,"Ġnecks":8149,"Ġbroom":8150,"Ġsigns":8151,"Ġrefer":8152,"Ġgently":8153,"Ġlocker":8154,"Ġcells":8155,"Ġcivilians":8156,"Ġclaims":8157,"Ġcaptured":8158,"Ġtypical":8159,"Ġmysterious":8160,"ratul":8161,"Ġinfluence":8162,"bling":8163,"kers":8164,"lan":8165,"maybe":8166,"Ġwig":8167,"isible":8168,"Ġshred":8169,"ĠSally":8170,"Ġgoss":8171,"Ġhissed":8172,"ĠMu":8173,"ĠCare":8174,"oodle":8175,"ĠLand":8176,"elve":8177,"ĠOt":8178,"Ġdamnation":8179,"ĠKar":8180,"Ġmighty":8181,"Ġbehaving":8182,"Ġdevice":8183,"Ġarrogance":8184,"Ġreaching":8185,"Ġtemple":8186,"Ġfantastic":8187,"ĠWallace":8188,"Ġunable":8189,"ĠApparently":8190,"ĠMarcus":8191,"For":8192,"burn":8193,"rig":8194,"rants":8195,"woman":8196,"Ġtiss":8197,"erc":8198,"Ġpiano":8199,"imum":8200,"Ġshiny":8201,"ĠTalk":8202,"state":8203,"Ġjar":8204,"ĠHoney":8205,"Ġfrigging":8206,"Ġsauce":8207,"ĠPen":8208,"Ġspat":8209,"ĠRun":8210,"inea":8211,"asses":8212,"Ġflower":8213,"Ġcheater":8214,"neg":8215,"Ġbush":8216,"Ġentirely":8217,"Ġrocket":8218,"black":8219,"ificant":8220,"Ġrabbits":8221,"Ġghosts":8222,"Ġtickets":8223,"Ġsenator":8224,"Ġconstantly":8225,"ĠElliot":8226,"Ġterrified":8227,"Ġpsychiatrist":8228,"ĠOscar":8229,"Ġmurmured":8230,"Ġrazor":8231,"Ġdiarrhea":8232,"nuts":8233,"Ġfiend":8234,"Ġcam":8235,"asing":8236,"stable":8237,"Ġdebt":8238,"ĠBell":8239,"ĠBurt":8240,"ĠLu":8241,"Ġworn":8242,"Ġspilled":8243,"ĠRoss":8244,"Ġheading":8245,"Ġfeared":8246,"Ġslammed":8247,"Ġgrateful":8248,"Ġending":8249,"Ġhelps":8250,"morr":8251,"Ġsorts":8252,"Ġtransfer":8253,"Ġcooked":8254,"Ġfrag":8255,"Ġcapture":8256,"Ġestate":8257,"ĠSecret":8258,"Ġneurotic":8259,"Ġpowder":8260,"Ġescort":8261,"Go":8262,"eches":8263,"Ġbitten":8264,"Ġdiss":8265,"Ġlamp":8266,"Ġbegged":8267,"Ġrounds":8268,"ĠAren":8269,"Ġframe":8270,"ĠCass":8271,"akers":8272,"ĠPart":8273,"ĠAndre":8274,"acing":8275,"Ġgrumpy":8276,"ĠSoon":8277,"Ġprey":8278,"Ġsalad":8279,"uesday":8280,"Ġpotential":8281,"Ġrabble":8282,"Ġgrinning":8283,"Ġcrucified":8284,"Ġperfume":8285,"Ġcitizen":8286,"ĠLaura":8287,"ihil":8288,"Ġweasel":8289,"ĠJeremy":8290,"AM":8291,"fits":8292,"hot":8293,"human":8294,"Ġpanc":8295,"ora":8296,"leg":8297,"Ġeast":8298,"ala":8299,"ĠTob":8300,"ucks":8301,"Ġanus":8302,"ĠCur":8303,"about":8304,"ĠPick":8305,"Ġpean":8306,"Ġexcell":8307,"gered":8308,"Ġenorm":8309,"berry":8310,"Ġfriendly":8311,"Ġfunction":8312,"Ġgenital":8313,"ountain":8314,"Ġcharlat":8315,"ĠGermany":8316,"leton":8317,"ĠPercy":8318,"Ġrebels":8319,"Ġachieve":8320,"ĠFlorida":8321,"kind":8322,"sa":8323,"tim":8324,"uary":8325,"Ġavenge":8326,"Ġwrest":8327,"oni":8328,"itter":8329,"Ġgear":8330,"ĠBoo":8331,"Ġsuicidal":8332,"ĠLock":8333,"Ġspark":8334,"ĠRus":8335,"ĠRiver":8336,"Ġacid":8337,"Ġskank":8338,"Ġcounting":8339,"Ġcompass":8340,"ĠDev":8341,"Ġmissile":8342,"Ġidiotic":8343,"Ġgreed":8344,"Ġpurple":8345,"ĠAtt":8346,"Ġjoker":8347,"Ġdancer":8348,"ĠSuch":8349,"Ġappears":8350,"Ġidentity":8351,"Ġscoundrels":8352,"ĠStephen":8353,"Ġankles":8354,"Ġsausage":8355,"Ġdepraved":8356,"dead":8357,"fors":8358,"nis":8359,"oard":8360,"Ġ&":8361,"ĠIvan":8362,"Ġcher":8363,"Ġgorge":8364,"Ġhemorr":8365,"Ġstir":8366,"ĠTuesday":8367,"ĠAc":8368,"Ġherd":8369,"ĠCyr":8370,"Ġpeas":8371,"ĠShot":8372,"ĠChild":8373,"ĠUs":8374,"Ġbites":8375,"Ġschmuck":8376,"Ġboats":8377,"Ġkisses":8378,"Ġofficially":8379,"Ġstudio":8380,"Ġlanded":8381,"Ġhomicidal":8382,"Ġtearing":8383,"ritory":8384,"Ġcommanded":8385,"Ġerase":8386,"Ġsuitcase":8387,"Ġimmig":8388,"Ġrecognized":8389,"ĠJulian":8390,"Ġjeans":8391,"Ġnarciss":8392,"ĠTyler":8393,"Ġgrip":8394,"Ġtherapy":8395,"Ġancestors":8396,"Ġlaundry":8397,"\"!":8398,"Ġfug":8399,"Ġfanny":8400,"esar":8401,"aying":8402,"Ġlizard":8403,"Ġrig":8404,"ĠTha":8405,"ĠTay":8406,"Ġneut":8407,"Ġsale":8408,"Ġtherefore":8409,"eling":8410,"Ġdrill":8411,"uded":8412,"ĠKaren":8413,"ildo":8414,"ĠStone":8415,"Ġunderneath":8416,"anson":8417,"ggy":8418,"Ġfighter":8419,"Ġraping":8420,"Ġdevilish":8421,"axy":8422,"Ġraising":8423,"Ġsuperior":8424,"Ġgangsters":8425,"Ġlaunch":8426,"Ġobserved":8427,"Ġrecords":8428,"ĠAnton":8429,"Ġhypocrisy":8430,"Ġliquid":8431,"Ġugliest":8432,"Ġmultiple":8433,"Ġinstrument":8434,"Ġconsidering":8435,"As":8436,"OT":8437,"isions":8438,"Ġpip":8439,"Ġnun":8440,"Ġshift":8441,"sexual":8442,"ĠAra":8443,"Ġkne":8444,"ĠDirty":8445,"agle":8446,"ĠNic":8447,"Ġpoker":8448,"Ġterms":8449,"Ġpatrol":8450,"Ġdecor":8451,"Ġ22":8452,"Ġinstantly":8453,"ĠAlice":8454,"fucker":8455,"mbling":8456,"Ġsmokes":8457,"Ġequally":8458,"Ġsuspicious":8459,"Ġludicrous":8460,"forsaken":8461,"aign":8462,"every":8463,"gusting":8464,"skin":8465,"Ġmug":8466,"has":8467,"Ġgon":8468,"ano":8469,"Ġpond":8470,"ador":8471,"Ġstun":8472,"Ġstain":8473,"Ġstern":8474,"Ġriot":8475,"ĠMass":8476,"ĠDutch":8477,"ĠCong":8478,"ĠGord":8479,"ĠHead":8480,"ĠPot":8481,"Ġloat":8482,"Ġneedles":8483,"Ġchains":8484,"ĠVen":8485,"Ġschools":8486,"Ġtouches":8487,"ĠAlways":8488,"Ġprotest":8489,"grown":8490,"Ġindust":8491,"Ġcrem":8492,"Ġhopes":8493,"Ġtreason":8494,"Ġscrot":8495,"ĠSteven":8496,"Ġphotos":8497,"Ġautomatic":8498,"Ġzombies":8499,"Ġcockroach":8500,"Ġcircumstances":8501,"Ġscandal":8502,"Ġgossip":8503,"uing":8504,"Ġyank":8505,"lling":8506,"Ġcities":8507,"Ġheter":8508,"Ġpony":8509,"Ġhoo":8510,"Ġric":8511,"ĠAunt":8512,"ĠHum":8513,"ĠBeth":8514,"ĠComp":8515,"Ġleague":8516,"ĠFair":8517,"Ġfears":8518,"Ġdiscover":8519,"ĠStark":8520,"ĠMarie":8521,"pril":8522,"Ġtreating":8523,"Ġurge":8524,"ĠTrash":8525,"ĠExcuse":8526,"Ġimmort":8527,"Ġcampaign":8528,"Ġwhale":8529,"Ġtourists":8530,"Ġpierced":8531,"Ġconcentrate":8532,"Ġporch":8533,"ĠVietnam":8534,"Ġaggressive":8535,"Not":8536,"gly":8537,"mpt":8538,"oir":8539,"rator":8540,"Ġdiet":8541,"Ġtoe":8542,"asha":8543,"Ġstoned":8544,"Ġjohn":8545,"Ġoutfit":8546,"Ġcancel":8547,"Ġwheels":8548,"ĠCart":8549,"ĠGa":8550,"ĠLew":8551,"weight":8552,"Ġminor":8553,"Ġrobbing":8554,"Ġnerves":8555,"Ġtesticle":8556,"Ġmarrying":8557,"Ġpraying":8558,"Ġcrazier":8559,"ĠAND":8560,"CH":8561,"IV":8562,"cuff":8563,"li":8564,"maker":8565,"Ġbunk":8566,"Ġbount":8567,"Ġgum":8568,"etch":8569,"verse":8570,"ĠWel":8571,"chief":8572,"ĠHook":8573,"ĠBoth":8574,"Ġnoses":8575,"ĠLo":8576,"Ġoffended":8577,"ĠRand":8578,"Ġscent":8579,"Ġfeat":8580,"udy":8581,"Ġslam":8582,"Ġterritory":8583,"Ġtracks":8584,"Ġunderstanding":8585,"Ġfourth":8586,"Ġpoisonous":8587,"Ġdeeper":8588,"Ġhomo":8589,"Ġdiab":8590,"Ġcenturies":8591,"Ġjoking":8592,"ĠSeriously":8593,"Ġdesperately":8594,"Ġbanana":8595,"Ġcannibal":8596,"Ġninja":8597,"Ġloyalty":8598,"Ġexploded":8599,"Ġchoking":8600,"Ġwhistle":8601,"ĠMonday":8602,"Americ":8603,"Ġtact":8604,"have":8605,"ingo":8606,"iser":8607,"iring":8608,"Ġforcing":8609,"ĠSun":8610,"ĠSel":8611,"ĠHallow":8612,"Ġbladder":8613,"aka":8614,"ittee":8615,"ĠFel":8616,"Ġlovers":8617,"Ġdrow":8618,"Ġdaylight":8619,"Ġhappiness":8620,"Ġbullsh":8621,"Ġcurious":8622,"Ġpays":8623,"ĠMaria":8624,"Ġthreats":8625,"Ġdistaste":8626,"Ġfleet":8627,"Ġsuspected":8628,"Ġspreading":8629,"Ġtechnology":8630,"Ġarrive":8631,"ĠTravis":8632,"Ġintestines":8633,"vable":8634,"irlfriend":8635,"ĠApril":8636,"Ġknob":8637,"ĠHy":8638,"ĠHood":8639,"Ġgettin":8640,"ĠBollocks":8641,"ĠCher":8642,"ĠCross":8643,"ulance":8644,"ĠLois":8645,"Ġleak":8646,"olution":8647,"Ġbrats":8648,"assed":8649,"Ġcrushing":8650,"Ġstops":8651,"Ġstopping":8652,"ĠValent":8653,"Ġimpress":8654,"gedy":8655,"Ġinterrog":8656,"Ġcollar":8657,"ĠGuard":8658,"Ġmagician":8659,"Ġmotion":8660,"Ġsolution":8661,"Ġjoined":8662,"Ġequal":8663,"Ġhumiliation":8664,"Ġvacuum":8665,"Ġphysically":8666,"ĠStanley":8667,"Ġchampagne":8668,"ĠKenned":8669,"ĠGoddammit":8670,"Ġdignity":8671,"Ġexplanation":8672,"cock":8673,"ghan":8674,"Ġward":8675,"Ġbri":8676,"Ġbills":8677,"Ġdys":8678,"Ġinner":8679,"Ġthus":8680,"Ġrice":8681,"ucker":8682,"uri":8683,"unte":8684,"ĠBush":8685,"road":8686,"Ġvib":8687,"Ġflow":8688,"ĠVimes":8689,"Ġboom":8690,"inson":8691,"ĠIsland":8692,"Ġcorrid":8693,"Ġhomes":8694,"Ġperverse":8695,"Ġservants":8696,"Ġmercen":8697,"Ġplanted":8698,"Ġinjured":8699,"ĠJessica":8700,"run":8701,"uf":8702,"Ġwars":8703,"Ġmop":8704,"Ġfury":8705,"Ġhose":8706,"arse":8707,"utz":8708,"ĠSick":8709,"Ġseize":8710,"ĠNight":8711,"ĠNorm":8712,"olo":8713,"Ġplaced":8714,"Ġ-\"":8715,"ĠIts":8716,"ĠKra":8717,"Ġkidneys":8718,"Ġunderground":8719,"Ġhogs":8720,"Ġballoons":8721,"Ġcontest":8722,"Ġfrequ":8723,"Ġdrops":8724,"ĠAnn":8725,"Ġinvisible":8726,"Ġdoub":8727,"Ġclothing":8728,"Ġpacking":8729,"Ġartific":8730,"Ġlimbs":8731,"ĠJulia":8732,"Ġcombat":8733,"Ġguests":8734,"Ġhollow":8735,"Ġsentimental":8736,"Ġwarehouse":8737,"Ġabdomen":8738,"Ġexcellent":8739,"ez":8740,"five":8741,"Ġtheater":8742,"Ġpest":8743,"orms":8744,"vet":8745,"ĠTara":8746,"ĠBor":8747,"ĠBas":8748,"ĠDown":8749,"oln":8750,"Ġsched":8751,"ĠEver":8752,"Ġdisplay":8753,"Ġhappily":8754,"Ġbabe":8755,"ĠIslam":8756,"Ġparaly":8757,"ooping":8758,"Ġtasted":8759,"Ġrubbing":8760,"Ġorganization":8761,"Ġcrawled":8762,"Ġsenior":8763,"Ġsamurai":8764,"Ġstatue":8765,"Ġliquor":8766,"ĠMinister":8767,"Ġbarbarians":8768,"Ġperforman":8769,"Ġcrisis":8770,"Ġlibrary":8771,"Ġshelter":8772,"Ġtissue":8773,"ĠKennedy":8774,"IG":8775,"bra":8776,"nox":8777,"vation":8778,"ÃŃ":8779,"Ġwins":8780,"Ġbay":8781,"ĠIN":8782,"Ġleng":8783,"Ġinches":8784,"eton":8785,"Ġrash":8786,"Ġanx":8787,"ĠSilly":8788,"Ġtrib":8789,"Ġchips":8790,"chet":8791,"Ġhandful":8792,"Ġsmelling":8793,"Ġsnob":8794,"Ġattacking":8795,"Ġgenitals":8796,"Ġsweater":8797,"Ġcowardice":8798,"Ġclosing":8799,"Ġcolleagues":8800,"ĠNorman":8801,"Ġsuspects":8802,"Ġdefending":8803,"Ġseduce":8804,"Ġcustomer":8805,"Ġscumbags":8806,"ĠDemon":8807,"Ġjewel":8808,"Ġbattery":8809,"ĠBonnie":8810,"Ġamateur":8811,"Ġbureaucr":8812,"Ġenormous":8813,"noxious":8814,"fty":8815,"name":8816,"uv":8817,"ware":8818,"Ġdynamite":8819,"Ġthunder":8820,"ĠSara":8821,"stone":8822,"Ġoutrage":8823,"opher":8824,"ulous":8825,"ĠLl":8826,"ĠLight":8827,"ĠJeez":8828,"Ġcracked":8829,"Ġexte":8830,"ĠEst":8831,"ubble":8832,"Ġremote":8833,"Ġawake":8834,"uthor":8835,"iggs":8836,"Ġbottles":8837,"Ġtreats":8838,"Ġknocking":8839,"Ġclosest":8840,"Ġrabid":8841,"Ġsuggested":8842,"ĠBarney":8843,"guard":8844,"Ġlaughable":8845,"ĠFinn":8846,"Ġfarmers":8847,"Ġwheelchair":8848,"ĠOliver":8849,"Ġvengeance":8850,"bal":8851,"rie":8852,"Ġmuse":8853,"onment":8854,"Ġfists":8855,"Ġnanny":8856,"uckles":8857,"ĠSame":8858,"ĠSoph":8859,"Ġknuckle":8860,"ĠHaven":8861,"ĠCole":8862,"Ġtram":8863,"agement":8864,"epend":8865,"Ġintrud":8866,"Ġheadache":8867,"Ġcrashed":8868,"Ġdisabled":8869,"Ġcarn":8870,"Ġbullies":8871,"Ġstrate":8872,"Ġcleared":8873,"hetto":8874,"Ġmistaken":8875,"Ġpassing":8876,"Ġdelusion":8877,"Ġpreposterous":8878,"Ġpregnancy":8879,"Ġniggas":8880,"Ġpuppies":8881,"Ġ80":8882,"Ġambulance":8883,"Ġhoodl":8884,"Ġtypes":8885,"Ġvolunte":8886,"Ġstretch":8887,"Ġchampion":8888,"Ġoccasionally":8889,"100":8890,"Man":8891,"Where":8892,"aith":8893,"pher":8894,"Ġeth":8895,"Ġbun":8896,"Ġbud":8897,"Ġbolt":8898,"Ġdudes":8899,"Ġln":8900,"Ġnic":8901,"Ġnoose":8902,"enc":8903,"omination":8904,"Ġkl":8905,"Ġrav":8906,"icable":8907,"ĠHo":8908,"ĠBible":8909,"ĠCrow":8910,"ĠGib":8911,"Ġfeast":8912,"ĠKong":8913,"Ġhangs":8914,"Ġdragging":8915,"ĠAli":8916,"ĠAlthough":8917,"Ġregard":8918,"Ġarticle":8919,"Ġtransport":8920,"Ġtricked":8921,"Ġscrub":8922,"Ġcasino":8923,"Ġboner":8924,"ĠWilson":8925,"Ġsuspic":8926,"Ġsorcerer":8927,"Ġgorilla":8928,"Ġcheerleader":8929,"Ġmosqu":8930,"Ġbounty":8931,"ĠHalloween":8932,"-\"":8933,"bot":8934,"rict":8935,"tra":8936,"Ġdated":8937,"Ġfishing":8938,"Ġcotton":8939,"Ġnag":8940,"Ġnodd":8941,"oting":8942,"Ġweal":8943,"Ġstomp":8944,"Ġwithdra":8945,"Ġrely":8946,"Ġseats":8947,"ĠHoll":8948,"entric":8949,"ĠDamon":8950,"abeth":8951,"Ġexerc":8952,"Ġclan":8953,"issa":8954,"ĠKnow":8955,"Ġunus":8956,"Ġqual":8957,"ĠStand":8958,"ailable":8959,"umbo":8960,"ĠHowever":8961,"Ġfighters":8962,"pson":8963,"Ġhorrend":8964,"ĠMarine":8965,"Ġtorch":8966,"Ġcharm":8967,"Ġaddition":8968,"Ġmedal":8969,"Ġsenseless":8970,"Ġrubbed":8971,"white":8972,"Ġmentioned":8973,"Ġfaithful":8974,"hearted":8975,"Ġtossed":8976,"Ġharmless":8977,"ĠGrandma":8978,"ĠNathan":8979,"Ġoxy":8980,"Ġconspiracy":8981,"ĠTaylor":8982,"Ġscrotum":8983,"Ġnodded":8984,"Yeah":8985,"bird":8986,"free":8987,"pting":8988,"ridge":8989,"ya":8990,"Ġx":8991,"Ġtang":8992,"ĠYet":8993,"cho":8994,"ells":8995,"ĠCooper":8996,"Ġheret":8997,"ĠLucky":8998,"ĠOF":8999,"ĠFord":9000,"rily":9001,"Ġenvir":9002,"ĠStra":9003,"Ġwrites":9004,"Ġresent":9005,"Ġhush":9006,"Ġfacts":9007,"Ġsinger":9008,"Ġdreaming":9009,"Ġelection":9010,"Ġstrippers":9011,"Ġrefuge":9012,"ugging":9013,"ification":9014,"Ġhunters":9015,"ĠElena":9016,"vention":9017,"Ġmotive":9018,"Ġsenses":9019,"Ġapology":9020,"Ġremaining":9021,"ĠSecond":9022,"ĠEspecially":9023,"husi":9024,"Ġdeliberately":9025,"Ġperformance":9026,"know":9027,"mony":9028,"Ã±":9029,"Ġtires":9030,"Ġtheft":9031,"iti":9032,"Ġfuel":9033,"otect":9034,"usions":9035,"Ġkitten":9036,"adian":9037,"Ġrump":9038,"ĠHim":9039,"ĠBear":9040,"ĠLas":9041,"ĠFree":9042,"ĠRen":9043,"Ġfever":9044,"Ġchoo":9045,"Ġhandcuff":9046,"Ġoverw":9047,"Ġattend":9048,"ĠBeast":9049,"Ġmessy":9050,"Ġmarbles":9051,"Ġapes":9052,"Ġsetting":9053,"Ġpsychological":9054,"Ġinferior":9055,"ĠAnne":9056,"Ġcharges":9057,"Ġpossess":9058,"Ġprize":9059,"Ġtests":9060,"ĠHarold":9061,"ĠQuinn":9062,"Ġskulls":9063,"Ġdespair":9064,"Ġaccepted":9065,"Ġhumiliating":9066,"Ġcasual":9067,"Ġuniversity":9068,"Ġinternal":9069,"Ġscientists":9070,"worthy":9071,"Ġfolk":9072,"Ġshadows":9073,"ĠGrandpa":9074,"Ġunfortunate":9075,"ĠMiller":9076,"Ġdisturbed":9077,"Ġincapable":9078,"Ġhorrendous":9079,"lar":9080,"Ġbore":9081,"Ġburd":9082,"Ġboun":9083,"Ġgap":9084,"Ġpitch":9085,"Ġpatch":9086,"Ġripping":9087,"Ġdefect":9088,"ĠBreak":9089,"Ġaboard":9090,"ĠCoun":9091,"inking":9092,"ige":9093,"ourney":9094,"istry":9095,"eled":9096,"ĠEvil":9097,"Ġassumed":9098,"Ġcliff":9099,"aco":9100,"Ġcargo":9101,"Ġperpet":9102,"Ġactions":9103,"Ġchanges":9104,"Ġtrace":9105,"Ġadop":9106,"Ġphony":9107,"Ġholds":9108,"Ġfoolishly":9109,"Ġeyeb":9110,"Ġorgy":9111,"Ġpackage":9112,"Ġmutt":9113,"Ġassassinate":9114,"Ġdrawer":9115,"Ġpositive":9116,"Ġdiseases":9117,"ĠConnor":9118,"Ġarranged":9119,"Ġmagazines":9120,"Ġdismiss":9121,"Ġpoetry":9122,"Ġdegenerate":9123,"Ġturtle":9124,"ĠSweet":9125,"Ġgorgeous":9126,"din":9127,"ni":9128,"rim":9129,"word":9130,"Ġwien":9131,"Ġcub":9132,"Ġgeez":9133,"Ġlure":9134,"ĠAv":9135,"rov":9136,"Ġmanner":9137,"uma":9138,"ĠLex":9139,"ĠPsych":9140,"ĠFra":9141,"Ġcomic":9142,"Ġcommer":9143,"Ġclo":9144,"employ":9145,"Ġproved":9146,"aves":9147,"ĠThought":9148,"iah":9149,"Ġgoddess":9150,"psies":9151,"Ġdecides":9152,"Ġstepping":9153,"Ġreasonable":9154,"ĠZe":9155,"Ġtongues":9156,"ĠAfghan":9157,"Ġdiapers":9158,"Ġtransl":9159,"Ġlaying":9160,"Ġstrangling":9161,"Ġlabor":9162,"Ġclimbing":9163,"Ġpalm":9164,"ĠCommander":9165,"Ġcombination":9166,"Ġfacing":9167,"Ġhesitate":9168,"Ġsympathy":9169,"Ġcarcass":9170,"ĠOfficer":9171,".âĢĻ":9172,"bags":9173,"girlfriend":9174,"lie":9175,"wick":9176,"Ġfaint":9177,"Ġpha":9178,"Ġhunk":9179,"Ġrate":9180,"ĠWed":9181,"ĠWoman":9182,"stal":9183,"ĠAud":9184,"ĠBre":9185,"Ġfricking":9186,"Ġnearest":9187,"ĠGun":9188,"ĠLiz":9189,"Ġgull":9190,"Ġvic":9191,"Ġarmor":9192,"Ġsuppl":9193,"Ġobnoxious":9194,"Ġtoug":9195,"Ġenthusi":9196,"Ġexcuses":9197,"Ġconfession":9198,"iggy":9199,"Ġstripped":9200,"Ġdepths":9201,"ĠIndia":9202,"nothing":9203,"ĠPrincess":9204,"Ġdinosaur":9205,"Ġcookie":9206,"ĠAdm":9207,"Ġpinch":9208,"Ġsneaking":9209,"Ġclimbed":9210,"Ġinternational":9211,"Ġnegative":9212,"Ġunbelie":9213,"Ġgoblin":9214,"Ġdishonest":9215,"Ġdictator":9216,"Ġfeeble":9217,"Ġwrinkled":9218,"Ġbullshitting":9219,"tray":9220,"inous":9221,"Ġtheories":9222,"Ġdomin":9223,"Ġlan":9224,"omber":9225,"Ġkung":9226,"ĠMind":9227,"ĠDump":9228,"ĠNational":9229,"ĠPak":9230,"Ġvice":9231,"Ġ''":9232,"ĠEh":9233,"Ġtwin":9234,"Ġslide":9235,"auc":9236,"Ġacqu":9237,"Ġpreacher":9238,"Ġbuys":9239,"Ġpuny":9240,"Ġinterrupted":9241,"Ġlads":9242,"Ġtails":9243,"ĠBaron":9244,"Ġcrazed":9245,"Ġlipstick":9246,"ĠCastle":9247,"Ġenvironment":9248,"da":9249,"eem":9250,"mouth":9251,"made":9252,"uate":9253,"vate":9254,"Ġwimp":9255,"Ġmafia":9256,"onse":9257,"Ġcob":9258,"Ġhears":9259,"Ġpension":9260,"Ġmeas":9261,"lymp":9262,"ĠBuck":9263,"istent":9264,"ĠNate":9265,"eline":9266,"ĠPre":9267,"Ġspoken":9268,"Ġvalley":9269,"upt":9270,"Ġproced":9271,"Ġcoinc":9272,"Ġunstable":9273,"Ġgras":9274,"Ġendless":9275,"Ġsurf":9276,"Ġsnot":9277,"Ġappeal":9278,"Ġrelief":9279,"Ġrobe":9280,"Ġfella":9281,"Ġdelivered":9282,"Ġgrows":9283,"Ġsatell":9284,"Ġgodforsaken":9285,"Ġshameful":9286,"ĠSammy":9287,"Ġassassination":9288,"Ġrequest":9289,"Ġdaily":9290,"Ġtunnel":9291,"Ġfloating":9292,"Ġgloves":9293,"Ġdegree":9294,"bullshit":9295,"ĠJedi":9296,"Ġwaking":9297,"Ġdiver":9298,"inging":9299,"Ġlamb":9300,"ication":9301,"ĠSister":9302,"Ġsoil":9303,"ĠMi":9304,"ĠBudd":9305,"odge":9306,"ĠFort":9307,"Ġscaring":9308,"ĠEaster":9309,"Ġevents":9310,"Ġgunshot":9311,"Ġchaos":9312,"never":9313,"ĠVinc":9314,"Ġskunk":9315,"Ġbothered":9316,"Ġimpression":9317,"Ġmagical":9318,"onymous":9319,"Ġgrandpa":9320,"ĠScot":9321,"Ġpoisoning":9322,"Ġcalcul":9323,"Ġattempts":9324,"ĠColomb":9325,"ĠAmanda":9326,"Ġclaimed":9327,"Ġpsychopaths":9328,"Ġspoil":9329,"ĠHelen":9330,"Ġdaft":9331,"Ġresults":9332,"Ġexclaimed":9333,"Ġmutilated":9334,"Ġprincip":9335,"LA":9336,"gle":9337,"gay":9338,"vity":9339,"Ġmax":9340,"Ġrect":9341,"ighty":9342,"ĠCind":9343,"uming":9344,"Ġsomewhat":9345,"Ġlecture":9346,"ĠRel":9347,"Ġcomment":9348,"Ġfatty":9349,"Ġswitched":9350,"Ġplanes":9351,"Ġimpr":9352,"Ġimprove":9353,"Ġcompare":9354,"Ġrecall":9355,"Ġinfidel":9356,"Ġsells":9357,"ika":9358,"ĠHarvey":9359,"Ġconvict":9360,"zzt":9361,"Ġdrained":9362,"Ġtools":9363,"Ġbuffoon":9364,"Ġashtray":9365,"Ġblanket":9366,"Ġconfirmed":9367,"Look":9368,"po":9369,"rome":9370,"Ġtag":9371,"Ġmister":9372,"orough":9373,"ĠAir":9374,"Ġheroes":9375,"entially":9376,"ĠBol":9377,"ĠDoyle":9378,"Ġhellhole":9379,"umper":9380,"ĠHeaven":9381,"ĠFed":9382,"Ġdecisions":9383,"Ġsteals":9384,"Ġpicks":9385,"Ġrelative":9386,"Ġjumps":9387,"Ġannihil":9388,"ĠWillie":9389,"Ġfilling":9390,"Ġconcert":9391,"ĠMommy":9392,"ĠCraig":9393,"Ġcivilization":9394,"Ġcrazies":9395,"Ġ90":9396,"Ġconnected":9397,"ĠPolice":9398,"Ġhighest":9399,"Ġpersu":9400,"Ġactivity":9401,"ĠAustral":9402,"hawk":9403,"Ġpigeon":9404,"ĠWestern":9405,"An":9406,"RO":9407,"Ġvent":9408,"Ġdildo":9409,"Ġcable":9410,"Ġgam":9411,"oria":9412,"Ġrapp":9413,"ĠSeth":9414,"Ġreneg":9415,"Ġjelly":9416,"ĠMolly":9417,"Ġnostr":9418,"Ġcrab":9419,"ĠPenny":9420,"Ġ-...":9421,"Ġscorn":9422,"Ġclaw":9423,"Ġgrou":9424,"neck":9425,"Ġsecure":9426,"Ġpatron":9427,"Ġ21":9428,"Ġmissiles":9429,"Ġawfully":9430,"Ġfreaky":9431,"Ġbarbec":9432,"Ġpossessed":9433,"Ġexpress":9434,"Ġrisking":9435,"Ġpopulation":9436,"Ġmarked":9437,"Ġtoilets":9438,"Ġscratching":9439,"ĠSonny":9440,"ĠLaure":9441,"Ġodds":9442,"Ġfirmly":9443,"keeper":9444,"Ġtolerate":9445,"ĠfiancÃ©e":9446,"Ġcynic":9447,"ademy":9448,"Ġrecommend":9449,"ĠDrizzt":9450,"oving":9451,"sk":9452,"Ġtitties":9453,"Ġwoe":9454,"Ġmong":9455,"Ġtoad":9456,"Ġpawn":9457,"Ġbee":9458,"idd":9459,"outhern":9460,"Ġjourney":9461,"ĠAcc":9462,"ĠMet":9463,"ĠBest":9464,"ĠLem":9465,"ĠNad":9466,"oland":9467,"Ġbackward":9468,"earing":9469,"Ġfled":9470,"anky":9471,"Ġperv":9472,"ĠUgly":9473,"Ġcontr":9474,"Ġheartless":9475,"ancing":9476,"Ġscares":9477,"ĠBruce":9478,"ĠAlbert":9479,"Ġcharged":9480,"ĠGovern":9481,"Ġdeformed":9482,"bloody":9483,"Ġsecretly":9484,"ĠAtl":9485,"Ġveh":9486,"Ġobsession":9487,"Ġpretended":9488,"Ġvaginal":9489,"Ġcolleague":9490,"Ġhomosexuals":9491,"Ġremained":9492,"Ġswimming":9493,"Ġprovide":9494,"Ġfifth":9495,"ĠAngeles":9496,"ĠBerlin":9497,"Ġeconomy":9498,"Ġsanct":9499,"Ġartificial":9500,"pack":9501,"inch":9502,"Ġfer":9503,"Ġtomb":9504,"Ġgates":9505,"educ":9506,"Ġpuff":9507,"Ġinev":9508,"Ġrusty":9509,"Ġrein":9510,"ĠHung":9511,"ilton":9512,"ĠCom":9513,"abs":9514,"ĠLake":9515,"hants":9516,"ĠRab":9517,"Ġcomr":9518,"ĠEat":9519,"Ġflaw":9520,"ograp":9521,"ocr":9522,"Ġimpressed":9523,"Ġaccomp":9524,"okes":9525,"ĠAlso":9526,"Ġcocks":9527,"Ġcatching":9528,"ĠSpar":9529,"Ġinterests":9530,"ĠFranken":9531,"Ġscratched":9532,"ĠConf":9533,"Ġteachers":9534,"Ġmaint":9535,"Ġsinner":9536,"Ġdwarves":9537,"Ġemotionally":9538,"Ġsatisfied":9539,"ĠCaroline":9540,"Ġgalaxy":9541,"Ġgambling":9542,"ĠCaesar":9543,"Ġsymbol":9544,"30":9545,"US":9546,"gal":9547,"maid":9548,"point":9549,"sized":9550,"zan":9551,"Ġbatt":9552,"itated":9553,"Ġgn":9554,"aned":9555,"Ġhilar":9556,"eness":9557,"Ġkil":9558,"Ġshore":9559,"Ġrank":9560,"amas":9561,"ĠWild":9562,"ĠMall":9563,"ĠCard":9564,"ĠCourt":9565,"ours":9566,"ĠPam":9567,"Ġbru":9568,"Ġchimp":9569,"Ġtwins":9570,"Ġworker":9571,"Ġmustache":9572,"Ġperman":9573,"Ġpatience":9574,"Ġphones":9575,"Ġfinanc":9576,"Ġappoint":9577,"Ġnicely":9578,"Ġinterrupt":9579,"Ġregarded":9580,"Ġmorons":9581,"Ġshallow":9582,"Ġtennis":9583,"Ġexception":9584,"iterate":9585,"Ġdiseased":9586,"Ġconstant":9587,"Ġsatisfaction":9588,"ĠEuropean":9589,"Ġsloppy":9590,"Ġharassment":9591,"Ġargument":9592,"Ġfantasies":9593,"ĠCasey":9594,"Ġejacul":9595,"Ġgroups":9596,".!":9597,"mble":9598,"uine":9599,"wing":9600,"rees":9601,"Ġok":9602,"Ġpoured":9603,"Ġhind":9604,"oma":9605,"arre":9606,"ĠSend":9607,"ĠWade":9608,"ĠAah":9609,"ĠHorn":9610,"ĠHark":9611,"Ġabomination":9612,"Ġath":9613,"ĠGor":9614,"Ġsheet":9615,"estic":9616,"ĠPoint":9617,"olar":9618,"Ġspill":9619,"Ġcomedy":9620,"Ġchubby":9621,"Ġtwelve":9622,"ĠKay":9623,"Ġprank":9624,"Ġpoked":9625,"Ġslid":9626,"ĠThurs":9627,"Ġammo":9628,"Ġhock":9629,"Ġmessages":9630,"arby":9631,"Ġdickhead":9632,"ĠBrook":9633,"Ġincident":9634,"Ġhighway":9635,"Ġtestify":9636,"Ġsurprising":9637,"Ġpotato":9638,"Ġdespicable":9639,"Ġrelationships":9640,"ĠDavis":9641,"ĠAngela":9642,"Ġflee":9643,"Ġcorruption":9644,"Ġteenagers":9645,"ĠCommun":9646,"ĠTeddy":9647,"Ġobscene":9648,"two":9649,"Ġoxygen":9650,"Ġoverwhel":9651,"RE":9652,"fa":9653,"fool":9654,"low":9655,"rating":9656,"wind":9657,"Ġtire":9658,"Ġcert":9659,"Ġlaser":9660,"otions":9661,"Ġstitch":9662,"Ġshine":9663,"ĠSad":9664,"ĠSur":9665,"ĠSab":9666,"ĠMort":9667,"ĠDear":9668,"Ġsheets":9669,"icken":9670,"Ġnoon":9671,"rix":9672,"ĠRub":9673,"Ġargu":9674,"ĠEnd":9675,"Ġsmug":9676,"Ġslime":9677,"wny":9678,"Ġmadmen":9679,"acles":9680,"ĠStew":9681,"Ġowns":9682,"Ġtragedy":9683,"Ġimpot":9684,"Ġdrunks":9685,"ĠâĢ¦":9686,"oids":9687,"Ġstarved":9688,"Ġmedioc":9689,"Ġservices":9690,"Ġcosts":9691,"boyfriend":9692,"ĠCheck":9693,"Ġemployee":9694,"Ġemployees":9695,"Ġmasturbating":9696,"Ġbalance":9697,"Ġshells":9698,"Ġstruggling":9699,"Ġwisdom":9700,"ĠPrivate":9701,"natural":9702,"Ġsarc":9703,"Ġpeasants":9704,"pherd":9705,"non":9706,"piece":9707,"rational":9708,"Ġod":9709,"Ġobey":9710,"Ġgou":9711,"Ġghetto":9712,"otte":9713,"aman":9714,"Ġasyl":9715,"Ġoutlaw":9716,"ĠBoss":9717,"aks":9718,"agine":9719,"ulting":9720,"ĠNa":9721,"ĠJunior":9722,"ĠOlymp":9723,"Ġlend":9724,"Ġalert":9725,"ĠFle":9726,"Ġspawn":9727,"ĠRad":9728,"Ġsometime":9729,"Ġsworn":9730,"ĠShh":9731,"pected":9732,"ĠJustin":9733,"ĠMarines":9734,"ahl":9735,"Ġmilit":9736,"Ġdelicious":9737,"Ġtorturing":9738,"Ġpopped":9739,"Ġcigar":9740,"Ġcries":9741,"Ġaddicted":9742,"Ġreceive":9743,"Ġreceived":9744,"ĠDragon":9745,"Ġowes":9746,"ĠSuper":9747,"Ġclinic":9748,"Ġunreason":9749,"ĠLewis":9750,"Ne":9751,"rough":9752,"Ġga":9753,"Ġgigg":9754,"utt":9755,"Ġranc":9756,"ĠSue":9757,"ĠSyl":9758,"ĠHush":9759,"una":9760,"ĠDumb":9761,"Ġblessed":9762,"ĠLyn":9763,"ĠNed":9764,"ĠPho":9765,"Ġbackwards":9766,"ques":9767,"Ġchuck":9768,"ĠWhit":9769,"ĠStart":9770,"Ġinsign":9771,"thew":9772,"ivia":9773,"Ġhusbands":9774,"philis":9775,"ĠArm":9776,"Ġconfusing":9777,"after":9778,"Ġirrational":9779,"Ġpops":9780,"ĠAnything":9781,"ĠLucas":9782,"ĠItalians":9783,"Ġlitter":9784,"Ġfascist":9785,"Ġhumping":9786,"Ġceremony":9787,"Ġintellectual":9788,"Ġhysterical":9789,"Ġdistasteful":9790,"Ġcommercial":9791,"bell":9792,"wl":9793,"Ġmice":9794,"Ġfurn":9795,"Ġfren":9796,"isha":9797,"Ġpy":9798,"Ġhamb":9799,"leans":9800,"uther":9801,"Ġmeasure":9802,"Ġec":9803,"Ġlice":9804,"Ġrings":9805,"ĠAven":9806,"ĠHong":9807,"ĠBang":9808,"ĠBert":9809,"ĠBarn":9810,"Ġsucc":9811,"Ġlookin":9812,"ĠPil":9813,"oused":9814,"ĠEv":9815,"Ġagony":9816,"avel":9817,"before":9818,"Ġquality":9819,"Ġdisob":9820,"Ġfunn":9821,"Ġserving":9822,"Ġhotter":9823,"Ġobst":9824,"ĠOrleans":9825,"Ġsqueal":9826,"Ġillusion":9827,"Ġprophet":9828,"Ġprotected":9829,"Ġcrooks":9830,"Ġtrickster":9831,"Ġcookies":9832,"ĠAnybody":9833,"Ġpotatoes":9834,"Ġmasters":9835,"Ġproduce":9836,"Ġhallway":9837,"Ġcouncil":9838,"ĠCoast":9839,"crazy":9840,"Ġfifteen":9841,"Ġchewing":9842,"Ġstretched":9843,"Ġreckon":9844,"Ġpolitician":9845,"ĠBarbara":9846,"Ġarmpits":9847,"Ġmushroom":9848,"Ġpaedophile":9849,"Ġcompassion":9850,"?...":9851,"One":9852,"cony":9853,"long":9854,"sen":9855,"uits":9856,"Ġsang":9857,"rene":9858,"lla":9859,"Ġlux":9860,"Ġpadd":9861,"ami":9862,"raged":9863,"ĠBrend":9864,"Ġfrown":9865,"Ġfridge":9866,"ĠDi":9867,"odka":9868,"Ġleech":9869,"oline":9870,"ĠRy":9871,"Ġpron":9872,"pton":9873,"ighs":9874,"Ġruins":9875,"Ġconfidence":9876,"Ġconfusion":9877,"Ġdresses":9878,"Ġangrily":9879,"Ġsatanic":9880,"Ġreturning":9881,"Ġsuperstit":9882,"Ġsaliva":9883,"ĠEliz":9884,"Ġtourist":9885,"Ġhypocrite":9886,"Ġragged":9887,"Ġinjury":9888,"Because":9889,"Ġdeveloped":9890,"Ġcritic":9891,"Ġinsects":9892,"ĠRomans":9893,"ĠDuncan":9894,"Ġdungeon":9895,"ĠGordon":9896,"Ġhambur":9897,"Ar":9898,"iator":9899,"test":9900,"Ġmuck":9901,"Ġmatt":9902,"onic":9903,"Ġfert":9904,"Ġhust":9905,"engers":9906,"Ġbeans":9907,"Ġecc":9908,"Ġstress":9909,"ĠTonight":9910,"ĠTodd":9911,"ĠST":9912,"ĠWicked":9913,"Ġ\"'":9914,"star":9915,"ĠAar":9916,"ĠAdd":9917,"Ġsection":9918,"ĠBall":9919,"ĠBud":9920,"ĠBugger":9921,"ĠDol":9922,"umble":9923,"ĠJoy":9924,"ĠHector":9925,"Ġpeasant":9926,"ĠRain":9927,"ĠRita":9928,"thirsty":9929,"Ġcoast":9930,"Ġwrit":9931,"Ġwrath":9932,"ĠVol":9933,"Ġcleans":9934,"Ġbreakdown":9935,"Ġboil":9936,"Ġappl":9937,"nerable":9938,"Ġdealt":9939,"Ġpossession":9940,"Ġpencil":9941,"Ġfingerna":9942,"Ġrising":9943,"ĠGranny":9944,"Ġwhacked":9945,"Ġcomputers":9946,"Ġcivilian":9947,"Ġhalluc":9948,"Ġcheerful":9949,"Ġrequired":9950,"Ġeffective":9951,"ĠMatthew":9952,"Ġdefenseless":9953,"Ġmagnet":9954,"Ġschizophrenic":9955,"ĠWendy":9956,"ĠArabs":9957,"ĠVincent":9958,"Ġhilarious":9959,"500":9960,"Or":9961,"Ã¼":9962,"Ġcore":9963,"Ġov":9964,"Ġloop":9965,"Ġpup":9966,"orters":9967,"leen":9968,"Ġrags":9969,"sec":9970,"ĠTem":9971,"ĠBan":9972,"ĠBook":9973,"ĠBand":9974,"ĠDal":9975,"ĠCorn":9976,"agg":9977,"agu":9978,"Ġshitload":9979,"ĠLance":9980,"Ġaltern":9981,"olved":9982,"ria":9983,"Ġintended":9984,"Ġseeking":9985,"Ġunemploy":9986,"Ġbloodied":9987,"ĠThough":9988,"Ġowned":9989,"Ġbelieving":9990,"ocal":9991,"Ġtragic":9992,"ancer":9993,"Ġinciner":9994,"Ġrelatives":9995,"Ġgenuine":9996,"ĠForce":9997,"Ġstrap":9998,"Ġcharity":9999,"ĠArnie":10000,"Ġorgies":10001,"Ġdiscip":10002,"ĠGrab":10003,"Ġavailable":10004,"Ġpumpkin":10005,"Ġtattooed":10006,"Ġdisappointment":10007,"Ġrevealed":10008,"ĠVictoria":10009,"Ġemergency":10010,"ĠGrayson":10011,"Ġcooperate":10012,"Ġheterosexual":10013,"Ġtips":10014,"Ġsor":10015,"Ġbiz":10016,"itan":10017,"iture":10018,"itimate":10019,"Ġfaced":10020,"Ġcem":10021,"Ġstim":10022,"Ġjan":10023,"opard":10024,"ilize":10025,"ĠCad":10026,"ĠLester":10027,"Ġguinea":10028,"Ġpoll":10029,"Ġposter":10030,"Ġsomethin":10031,"Ġslashed":10032,"Ġswift":10033,"ĠSheldon":10034,"Ġshaving":10035,"Ġdestiny":10036,"Ġmommy":10037,"Ġstray":10038,"Ġresour":10039,"Ġcountries":10040,"ĠIns":10041,"Ġretire":10042,"Ġconscious":10043,"iggers":10044,"Ġsympt":10045,"Ġdeli":10046,"Ġdepressing":10047,"damned":10048,"Ġfingerpr":10049,"Ġcolumn":10050,"mbled":10051,"Ġvillains":10052,"ĠTrust":10053,"Ġdanced":10054,"Ġmaniacs":10055,"Ġslightest":10056,"ĠBelieve":10057,"Ġmasturbate":10058,"Ġsorceress":10059,"standing":10060,"Ġrooster":10061,"Ġappetite":10062,"Ġburden":10063,"Ġwiener":10064,"Ġasylum":10065,"ĠElizabeth":10066,"AD":10067,"De":10068,"Kill":10069,"dick":10070,"mighty":10071,"pool":10072,"roph":10073,"Ã¶":10074,"Ġ)":10075,"Ġsunk":10076,"Ġsins":10077,"reg":10078,"Ġyog":10079,"Ġheel":10080,"Ġpaws":10081,"otine":10082,"see":10083,"Ġnotes":10084,"Ġnotion":10085,"ĠDam":10086,"Ġabd":10087,"ĠGent":10088,"Ġtrophy":10089,"ourne":10090,"ĠLinc":10091,"istics":10092,"ĠRh":10093,"Ġvodka":10094,"Ġgrat":10095,"Ġsickness":10096,"ĠVag":10097,"Ġfathers":10098,"Ġscrews":10099,"Ġharlot":10100,"Ġemotions":10101,"Ġdisguise":10102,"Ġcleaner":10103,"Ġadvance":10104,"Ġpaperwork":10105,"ĠBoyd":10106,"ĠBoys":10107,"Ġnaturally":10108,"Ġmales":10109,"Ġarrows":10110,"Ġthumbs":10111,"Ġpredator":10112,"Ġdisposal":10113,"Ġbeggars":10114,"Ġcompanies":10115,"Ġstruggle":10116,"Ġwagon":10117,"Ġvapor":10118,"Ġfragile":10119,"Come":10120,"brain":10121,"crow":10122,"coon":10123,"hop":10124,"witted":10125,"Ġ[":10126,"Ġves":10127,"Ġmache":10128,"Ġcuck":10129,"Ġbears":10130,"Ġstew":10131,"Ġwhim":10132,"racy":10133,"ĠHunt":10134,"ĠMosc":10135,"Ġaber":10136,"ĠGus":10137,"aga":10138,"eland":10139,"ĠFro":10140,"Ġchill":10141,"Ġproves":10142,"ĠKl":10143,"Ġunex":10144,"acity":10145,"ivity":10146,"Ġexciting":10147,"Ġrobbers":10148,"phone":10149,"Ġlessons":10150,"ĠClown":10151,"ĠClose":10152,"Ġsadistic":10153,"ĠReal":10154,"Ġrisked":10155,"ĠShad":10156,"Ġresponse":10157,"Ġbowling":10158,"Ġbooth":10159,"Ġphotograph":10160,"Ġgutter":10161,"Ġincompetence":10162,"Ġloudly":10163,"Ġcartel":10164,"ĠThanksgiving":10165,"Ġbalcony":10166,"Ġboobies":10167,"ĠMcCl":10168,"Ġdocument":10169,"Ġwishes":10170,"ĠCarrie":10171,"Ġfavourite":10172,"ĠPapa":10173,"Ġbrainwashed":10174,"ĠLloyd":10175,"Ġdelusional":10176,"ĠCouncil":10177,"Ġhockey":10178,"Ġeccentric":10179,"ĠMoscow":10180,"Wh":10181,"dri":10182,"gage":10183,"hmm":10184,"parent":10185,"Ġtart":10186,"Ġbench":10187,"Ġcine":10188,"Ġpyr":10189,"Ġstates":10190,"ifically":10191,"ĠSaw":10192,"Ġreaches":10193,"Ġsodom":10194,"ĠDur":10195,"ĠGosh":10196,"ickers":10197,"asted":10198,"ĠOs":10199,"Ġvult":10200,"quis":10201,"Ġfeces":10202,"Ġdrool":10203,"Ġcoal":10204,"renal":10205,"Ġchannel":10206,"Ġmessenger":10207,"olley":10208,"Ġsends":10209,"Ġsweating":10210,"Ġcocksucker":10211,"Ġairpl":10212,"Ġdelicate":10213,"Ġdripping":10214,"Ġindiffe":10215,"formed":10216,"Ġbanks":10217,"Ġshrimp":10218,"ĠPlay":10219,"Ġ70":10220,"Ġunsub":10221,"ĠDisgusting":10222,"Ġinstincts":10223,"Ġmotorcy":10224,"ĠRichie":10225,"ĠBatman":10226,"ĠWalker":10227,"Ġslippery":10228,"Ġcorridor":10229,"Ġprocedure":10230,"Ġarguing":10231,"Is":10232,"UCK":10233,"ikes":10234,"rical":10235,"talk":10236,"ĠÎ":10237,"Ġdice":10238,"Ġfog":10239,"anie":10240,"Ġhoot":10241,"Ġhamm":10242,"Ġmeets":10243,"Ġstool":10244,"iro":10245,"rah":10246,"ĠSca":10247,"ĠDom":10248,"estly":10249,"ĠLen":10250,"ĠLeg":10251,"Ġoffensive":10252,"rying":10253,"Ġchunk":10254,"Ġcoin":10255,"Ġbloodthirsty":10256,"Ġinsolent":10257,"Ġcommitting":10258,"ĠFran":10259,"until":10260,"ĠMarg":10261,"ĠUnion":10262,"Ġ45":10263,"Ġworrying":10264,"Ġsharks":10265,"ĠElvis":10266,"ĠCharlotte":10267,"Ġprivile":10268,"ĠMadam":10269,"ĠEmma":10270,"fortunately":10271,"Ġattracted":10272,"Ġslavery":10273,"Ġforeigners":10274,"ĠMaggie":10275,"Ġcandidate":10276,"Ġsurround":10277,"Ġpedophile":10278,"ĠShane":10279,"Ġankle":10280,"Ġcaval":10281,"Ġinherit":10282,"ratulations":10283,"ĠFrankenstein":10284,"Ġinsignificant":10285,"Ġmattress":10286,"Ġvessel":10287,"bac":10288,"master":10289,"turn":10290,"yo":10291,"Ġsire":10292,"ishes":10293,"oral":10294,"otics":10295,"ira":10296,"ĠSadd":10297,"unting":10298,"Ġnecess":10299,"elia":10300,"Ġlemon":10301,"ĠPic":10302,"ĠEllen":10303,"Ġagency":10304,"Ġovergrown":10305,"Ġrunt":10306,"Ġpatri":10307,"Ġcountless":10308,"Ġsque":10309,"Ġconfront":10310,"ubbish":10311,"ĠUniver":10312,"Ġbasic":10313,"Ġdepression":10314,"Ġbrace":10315,"ĠHarv":10316,"Ġdistant":10317,"ĠQuick":10318,"Ġtapes":10319,"ĠMcG":10320,"Ġvagrant":10321,"ĠGraham":10322,"nesday":10323,"Ġbetrayal":10324,"Ġpreferred":10325,"ĠItaly":10326,"centered":10327,"Ġromance":10328,"Ġgypsies":10329,"Ġdescribed":10330,"Ġdentist":10331,"ĠAlfred":10332,"ĠValentine":10333,"AP":10334,"lets":10335,"mun":10336,"Ġton":10337,"Ġdart":10338,"Ġfab":10339,"Ġhi":10340,"iders":10341,"Ġrust":10342,"ĠTroy":10343,"irc":10344,"oped":10345,"ĠMitch":10346,"ĠCamer":10347,"ĠGina":10348,"inks":10349,"agon":10350,"ĠNumber":10351,"ĠJuan":10352,"ĠPear":10353,"ĠPierce":10354,"Ġsplin":10355,"Ġvast":10356,"quarters":10357,"Ġsche":10358,"plant":10359,"Ġrealised":10360,"ĠBender":10361,"Ġhateful":10362,"ocracy":10363,"Ġappropriate":10364,"Ġsteam":10365,"Ġmetaph":10366,"Ġgodless":10367,"Ġhorns":10368,"ĠSeven":10369,"ĠServ":10370,"ĠAbby":10371,"ĠPhill":10372,"ĠJulie":10373,"Ġslaughterhouse":10374,"Ġadmire":10375,"Ġseduced":10376,"Ġrebell":10377,"Ġsenile":10378,"Ġsearching":10379,"Ġmedication":10380,"Ġdeceit":10381,"Ġscrawny":10382,"Ġlobby":10383,"Ġprevious":10384,"Ġcharlatan":10385,"Ġlength":10386,"educated":10387,"Ġunreasonable":10388,"cake":10389,"mph":10390,"Ġze":10391,"Ġbol":10392,"Ġbacon":10393,"ĠImp":10394,"Ġloos":10395,"ota":10396,"asms":10397,"athered":10398,"Ġonline":10399,"ĠTot":10400,"ĠTower":10401,"ĠTyr":10402,"Ġwhine":10403,"raction":10404,"ĠSin":10405,"ĠSum":10406,"ĠSlo":10407,"ĠMoon":10408,"ĠBow":10409,"ĠDV":10410,"ĠCru":10411,"Ġoral":10412,"Ġbled":10413,"ĠJenn":10414,"ĠRats":10415,"Ġvolley":10416,"Ġsciss":10417,"Ġdrama":10418,"Ġcocon":10419,"Ġshaft":10420,"ĠChi":10421,"Ġinsp":10422,"Ġinsides":10423,"Ġactual":10424,"Ġphr":10425,"erto":10426,"Ġgland":10427,"Ġcomprom":10428,"ĠDex":10429,"Ġexcite":10430,"Ġpromises":10431,"Ġcocktail":10432,"Ġinvitation":10433,"Ġpornography":10434,"Ġdiagn":10435,"Ġempire":10436,"Ġelectronic":10437,"ĠGrey":10438,"ĠPigs":10439,"Ġbarbarian":10440,"ĠPalmer":10441,"Ġtalented":10442,"ĠTrying":10443,"Ġvulnerable":10444,"Ġcompanion":10445,"Ġnetwork":10446,"Ġwhispering":10447,"Ġroutine":10448,"Ġadventure":10449,"Ġneutral":10450,"American":10451,"Ġcoincidence":10452,"ĠBrooklyn":10453,"Ġfurniture":10454,"EL":10455,"dep":10456,"fan":10457,"iating":10458,"ji":10459,"nels":10460,"power":10461,"ras":10462,"tor":10463,"Ġtal":10464,"Ġtanks":10465,"Ġwakes":10466,"Ġinapp":10467,"etery":10468,"ader":10469,"icides":10470,"Ġjab":10471,"ĠBuddy":10472,"ĠCD":10473,"ĠGonna":10474,"ĠLang":10475,"ĠRoland":10476,"Ġcomical":10477,"oya":10478,"Ġprospect":10479,"Ġgrind":10480,"Ġhats":10481,"Ġcheats":10482,"onder":10483,"Ġelves":10484,"ĠGetting":10485,"eks":10486,"Ġelsewhere":10487,"Ġrepair":10488,"Ġexplo":10489,"Ġfiles":10490,"ĠQuit":10491,"Ġprofit":10492,"ĠBenny":10493,"eshit":10494,"Ġhostile":10495,"Ġsuggesting":10496,"Ġcomplained":10497,"Ġscientific":10498,"Ġwiping":10499,"Ġdemanded":10500,"Ġlifet":10501,"Ġcoughing":10502,"Ġintroduce":10503,"ĠLinda":10504,"baby":10505,"Ġindustry":10506,"Ġimmortal":10507,"Ġeyebrows":10508,"Ġsatellite":10509,"ĠAaron":10510,"Ġdelivery":10511,"spring":10512,"uish":10513,"uana":10514,"zel":10515,"Ġwench":10516,"Ġmamm":10517,"Ġmoust":10518,"Ġdime":10519,"Ġfest":10520,"Ġkinky":10521,"idious":10522,"ima":10523,"ĠSing":10524,"sta":10525,"ĠHart":10526,"Ġblud":10527,"Ġblamed":10528,"ĠOR":10529,"ĠFanny":10530,"ĠFreak":10531,"ĠRoll":10532,"ĠAnderson":10533,"Ġscan":10534,"Ġscam":10535,"ooter":10536,"ĠEri":10537,"Ġslapping":10538,"Ġamuse":10539,"rete":10540,"Ġundercover":10541,"ictable":10542,"Ġhumble":10543,"Ġprem":10544,"Ġadrenal":10545,"azar":10546,"Ġempt":10547,"Ġaccuse":10548,"Ġdisgusted":10549,"Ġburial":10550,"Ġrelations":10551,"Ġcolour":10552,"helle":10553,"Ġaddicts":10554,"Ġdouchebag":10555,"Ġbenefit":10556,"Ġdopey":10557,"ĠHugh":10558,"Ġencoun":10559,"Ġcrucif":10560,"Ġelectricity":10561,"ĠWilliams":10562,"ervation":10563,"ĠLoser":10564,"Ġskeleton":10565,"Ġmocking":10566,"Ġinstructions":10567,"ĠRidiculous":10568,"Ġmuseum":10569,"ĠSophie":10570,"ĠWednesday":10571,"ĠAdmiral":10572,"Ġnostrils":10573,"four":10574,"new":10575,"rich":10576,"tan":10577,"Ġtan":10578,"Ġtables":10579,"Ġsank":10580,"Ġsakes":10581,"onn":10582,"Ġcaf":10583,"esy":10584,"Ġinex":10585,"enched":10586,"Ġbeheaded":10587,"Ġweep":10588,"ifted":10589,"ĠSandy":10590,"Ġouts":10591,"ĠHob":10592,"ĠMason":10593,"ĠDrac":10594,"ĠDomin":10595,"Ġshite":10596,"ourge":10597,"ĠNonsense":10598,"ĠPitt":10599,"ryan":10600,"Ġartery":10601,"Ġprostate":10602,"ĠKarl":10603,"ĠKitty":10604,"Ġpoem":10605,"Ġunion":10606,"Ġdishes":10607,"Ġridic":10608,"Ġcaress":10609,"Ġsickening":10610,"Ġideal":10611,"Ġhairs":10612,"Ġapplic":10613,"Ġrapid":10614,"ĠAssh":10615,"Ġscreams":10616,"Ġgrandson":10617,"Ġanswering":10618,"Ġtrashy":10619,"Ġblinded":10620,"clock":10621,"Ġcrosses":10622,"ĠShaft":10623,"Ġunclean":10624,"ĠGloria":10625,"Ġaimed":10626,"Ġinsulted":10627,"ĠParker":10628,"Ġincrease":10629,"ĠThursday":10630,"21":10631,"gies":10632,"lad":10633,"lace":10634,"nies":10635,"say":10636,"Ġtarn":10637,"Ġah":10638,"Ġbake":10639,"Ġdata":10640,"Ġhub":10641,"Ġnud":10642,"Ġniece":10643,"arms":10644,"aled":10645,"Ġramp":10646,"ĠTH":10647,"ĠMight":10648,"Ġcane":10649,"ĠBomb":10650,"roid":10651,"ctop":10652,"oodoo":10653,"ĠJules":10654,"Ġlogic":10655,"Ġfemin":10656,"assy":10657,"Ġdisco":10658,"rett":10659,"ĠVin":10660,"oking":10661,"Ġcursing":10662,"ĠArcher":10663,"Ġsyphilis":10664,"Ġcloth":10665,"Ġswearing":10666,"ĠSpart":10667,"Ġsaddle":10668,"Ġdevour":10669,"Ġelectroc":10670,"Ġforgiveness":10671,"Ġorganized":10672,"Ġirritating":10673,"ĠImagine":10674,"Ġclouds":10675,"Ġmolested":10676,"Ġelder":10677,"Ġhormones":10678,"ĠWelcome":10679,"Ġjewelry":10680,"Ġintruder":10681,"Ġcemetery":10682,"Ġscissors":10683,"iag":10684,"mid":10685,"moon":10686,"oom":10687,"rity":10688,"wen":10689,"water":10690,"lle":10691,"Ġcul":10692,"era":10693,"isons":10694,"Ġgifts":10695,"Ġgypsy":10696,"Ġpod":10697,"legged":10698,"Ġstunt":10699,"Ġruff":10700,"ĠTimes":10701,"Ġjester":10702,"Ġouter":10703,"Ġherpes":10704,"Ġorc":10705,"igans":10706,"ĠNina":10707,"Ġleeches":10708,"ĠFal":10709,"ĠKa":10710,"Ġunarmed":10711,"Ġcareless":10712,"ĠVik":10713,"atern":10714,"Ġmini":10715,"Ġfinest":10716,"Ġ23":10717,"Ġbeds":10718,"Ġtesting":10719,"Ġannounce":10720,"ĠKeith":10721,"Ġtrembling":10722,"Ġdiary":10723,"Ġsurviv":10724,"Ġmainly":10725,"Ġdusty":10726,"Ġcheeky":10727,"Ġextraord":10728,"Ġuniforms":10729,"Ġcondoms":10730,"Ġliberal":10731,"Ġstalker":10732,"Ġfeathers":10733,"Ġscalpel":10734,"ĠAvenue":10735,"ĠLincoln":10736,"Ġmotorcycle":10737,",,":10738,"bby":10739,"cross":10740,"mons":10741,"spe":10742,"Ġ:":10743,"Ġwal":10744,"Ġsoph":10745,"Ġmild":10746,"Ġcents":10747,"Ġgle":10748,"Ġhint":10749,"asphe":10750,"Ġbeam":10751,"ido":10752,"ooke":10753,"ĠTown":10754,"ĠSud":10755,"Ġrehab":10756,"Ġknot":10757,"ĠHome":10758,"Ġnotorious":10759,"Ġsofa":10760,"ighted":10761,"ĠMmm":10762,"ĠBed":10763,"ulate":10764,"ĠHear":10765,"Ġpeep":10766,"Ġspong":10767,"Ġvault":10768,"throat":10769,"Ġoldest":10770,"Ġcouples":10771,"umph":10772,"Ġtraff":10773,"Ġstandard":10774,"Ġsnatch":10775,"ucing":10776,"Ġrecover":10777,"Ġpasses":10778,"ĠClint":10779,"Ġignored":10780,"Ġstrikes":10781,"ĠUnfortunately":10782,"Ġordering":10783,"Ġannounced":10784,"ĠGrant":10785,"Ġlarger":10786,"ova":10787,"ĠMonica":10788,"Ġengaged":10789,"Ġeliminated":10790,"Ġexecutioner":10791,"Ġtechnique":10792,"ĠMarshal":10793,"Ġswinging":10794,"husband":10795,"ĠCentral":10796,"Ġsqueezed":10797,"Ġdysfunction":10798,"Ġexercise":10799,"Ġbarbecue":10800,"ĠDVD":10801,"TH":10802,"bone":10803,"coming":10804,"fly":10805,"fall":10806,"kiss":10807,"mill":10808,"pre":10809,"ties":10810,"inqu":10811,"Ġbog":10812,"Ġbachel":10813,"eros":10814,"isk":10815,"Ġheir":10816,"Ġpic":10817,"imal":10818,"Ġshirts":10819,"ĠTam":10820,"verly":10821,"ĠHuman":10822,"ĠMas":10823,"ĠBrain":10824,"iless":10825,"ĠDee":10826,"ĠCons":10827,"igs":10828,"osition":10829,"Ġguide":10830,"ĠRey":10831,"Ġconven":10832,"Ġambit":10833,"Ġhating":10834,"ords":10835,"Ġinsisted":10836,"ĠDonald":10837,"Ġharp":10838,"Ġglove":10839,"olds":10840,"Ġsynd":10841,"Ġdrivers":10842,"Ġbosses":10843,"Ġlanding":10844,"Ġparked":10845,"Ġfurry":10846,"Ġimmediate":10847,"Ġautopsy":10848,"ĠWarren":10849,"ĠPolish":10850,"Ġsatisfy":10851,"becca":10852,"Ġlatest":10853,"Ġfanatics":10854,"Ġwatches":10855,"Ġexcitement":10856,"200":10857,"cont":10858,"mel":10859,"upp":10860,"inas":10861,"Ġdive":10862,"Ġfuss":10863,"erable":10864,"Ġlam":10865,"Ġhool":10866,"Ġinha":10867,"Ġhaunted":10868,"imey":10869,"Ġshuff":10870,"icals":10871,"storm":10872,"Ġjet":10873,"ĠAle":10874,"ĠAug":10875,"Ġdecap":10876,"ĠMack":10877,"ĠMem":10878,"Ġneat":10879,"oren":10880,"Ġhellish":10881,"oser":10882,"ĠEle":10883,"Ġslack":10884,"Ġkindly":10885,"Ġskill":10886,"Ġtender":10887,"Ġcommittee":10888,"Ġboar":10889,"Ġhaircut":10890,"Ġreduced":10891,"Ġpengu":10892,"ĠCliff":10893,"Ġangle":10894,"Ġraving":10895,"Ġsubway":10896,"Ġstudied":10897,"Ġcrossing":10898,"Ġhomicide":10899,"Ġconditions":10900,"Ġpubl":10901,"Ġdining":10902,"Ġadvise":10903,"Ġgasoline":10904,"ĠMichelle":10905,"Ġinjected":10906,"Ġspiritual":10907,"Ġhomosexuality":10908,"Ġcraziest":10909,"Ġcharacters":10910,"Ġaffection":10911,"ĠImper":10912,"ĠJonesy":10913,"ĠJenna":10914,"ĠVirginia":10915,"ĠLadies":10916,"Ġfelon":10917,"ĠMiddle":10918,"ĠPuerto":10919,"Ġentrance":10920,"ĠSaddam":10921,"Mr":10922,"On":10923,"bows":10924,"cca":10925,"pants":10926,"rine":10927,"ruc":10928,"zi":10929,"Ġsill":10930,"Ġsets":10931,"Ġding":10932,"Ġdil":10933,"Ġdared":10934,"lled":10935,"itate":10936,"Ġcaut":10937,"Ġgaze":10938,"Ġly":10939,"Ġlact":10940,"Ġpoof":10941,"Ġpardon":10942,"Ġhmm":10943,"Ġnuns":10944,"Ġbean":10945,"Ġhacked":10946,"Ġkings":10947,"imony":10948,"Ġmyth":10949,"ĠTO":10950,"ĠThing":10951,"ĠSav":10952,"ĠSkin":10953,"ĠMum":10954,"ĠBishop":10955,"Ġsheer":10956,"Ġbluff":10957,"ulsion":10958,"Ġsup":10959,"ĠOp":10960,"Ġguill":10961,"Ġarts":10962,"Ġtwe":10963,"Ġtwat":10964,"ĠKurt":10965,"ĠKatherine":10966,"Ġcrus":10967,"ĠThor":10968,"ĠButcher":10969,"Ġslee":10970,"ĠChin":10971,"pee":10972,"Ġbabysit":10973,"ixon":10974,"Ġcounty":10975,"alem":10976,"Ġguessing":10977,"Ġcocky":10978,"Ġpoliceman":10979,"Ġfigures":10980,"ĠHarper":10981,"ĠExec":10982,"ylan":10983,"Ġaddiction":10984,"Ġproduction":10985,"screw":10986,"ĠWalt":10987,"Ġambush":10988,"Ġunfair":10989,"Ġgallows":10990,"Ġhippies":10991,"Ġintroduced":10992,"Ġgoblins":10993,"Ġlogical":10994,"Ġtempted":10995,"school":10996,"Ġdevastated":10997,"Ġsuperstitious":10998,"Ġcavalry":10999,"Ġlifetime":11000,"does":11001,"fat":11002,"tub":11003,"wan":11004,"Ġbats":11005,"Ġnavel":11006,"Ġweb":11007,"icia":11008,"Ġdoom":11009,"Ġanonymous":11010,"lyde":11011,"ĠSave":11012,"Ġjock":11013,"ĠAx":11014,"ĠHurry":11015,"ĠMess":11016,"ĠBunch":11017,"ĠCH":11018,"ighed":11019,"Ġnosy":11020,"ĠLiam":11021,"Ġworsh":11022,"ĠNap":11023,"ĠOz":11024,"Ġplates":11025,"Ġpecul":11026,"Ġ...\"":11027,"Ġprob":11028,"ĠGods":11029,"Ġslick":11030,"ĠThird":11031,"Ġhappier":11032,"umping":11033,"Ġinspect":11034,"pended":11035,"hetti":11036,"proof":11037,"Ġ35":11038,"Ġspends":11039,"Ġimaginary":11040,"Ġthreatens":11041,"Ġranch":11042,"Ġcrossbow":11043,"ĠLeague":11044,"Ġsalary":11045,"Ġfarted":11046,"Ġcorporate":11047,"Ġfails":11048,"ĠMorris":11049,"omaniac":11050,"ĠMartha":11051,"Ġspotted":11052,"Ġproducer":11053,"Ġfields":11054,"Ġopportun":11055,"Ġfortun":11056,"Ġtechnically":11057,"Ġcartoon":11058,"Ġbonus":11059,"Ġbroadcast":11060,"Ġmasturbation":11061,"Ġshocked":11062,"Ġdescribe":11063,"Ġdescription":11064,"Ġepis":11065,"iosity":11066,"Ġgigantic":11067,"Ġracket":11068,"Ġgambler":11069,"Ġaccomplice":11070,"ĠKorean":11071,"Ġcontrolled":11072,"ĠCartman":11073,"ĠAudrey":11074,"dad":11075,"jud":11076,"net":11077,"Ġbubble":11078,"Ġfaking":11079,"Ġpages":11080,"Ġthorough":11081,"Ġbeet":11082,"imately":11083,"Ġlions":11084,"ĠSty":11085,"Ġseiz":11086,"ĠMakes":11087,"ĠDw":11088,"Ġblades":11089,"Ġtrump":11090,"Ġoffspring":11091,"ĠNanny":11092,"Ġvoodoo":11093,"Ġcomed":11094,"Ġscattered":11095,"Ġprime":11096,"Ġunique":11097,"Ġamput":11098,"ĠStick":11099,"Ġmustn":11100,"Ġsickly":11101,"ogged":11102,"ĠBeverly":11103,"ensitive":11104,"Ġappalling":11105,"ĠBlake":11106,"Ġinfern":11107,"ĠZoe":11108,"ĠReve":11109,"Ġconduct":11110,"Ġlaun":11111,"Ġdragons":11112,"ĠShawn":11113,"Ġrecorded":11114,"Ġvague":11115,"ĠBritain":11116,"Ġidentify":11117,"Ġexplosives":11118,"Ġtaxi":11119,"Ġmelted":11120,"ĠRoad":11121,"Ġofficials":11122,"Ġlocation":11123,"Ġleadership":11124,"Ġcynical":11125,"ĠMegan":11126,"orgia":11127,"Ġprosecut":11128,"Ġglobal":11129,"Ġdiplom":11130,"Ġstrategy":11131,"Ġklutz":11132,"Ġhandcuffs":11133,"Ġinappropriate":11134,"making":11135,"via":11136,"viously":11137,"itche":11138,"Ġpope":11139,"orc":11140,"Ġbeers":11141,"Ġbearded":11142,"Ġhay":11143,"imm":11144,"ĠWiz":11145,"chy":11146,"Ġgoon":11147,"Ġseeds":11148,"urg":11149,"ĠMister":11150,"ĠMAN":11151,"ĠCont":11152,"ĠGil":11153,"Ġbloke":11154,"Ġblocks":11155,"Ġblasphe":11156,"aghetti":11157,"ĠLuther":11158,"Ġoffers":11159,"ĠNigger":11160,"ĠJill":11161,"Ġaloud":11162,"olation":11163,"Ġplump":11164,"Ġexting":11165,"acey":11166,"Ġdowntown":11167,"Ġtwer":11168,"Ġuneducated":11169,"Ġquote":11170,"Ġammun":11171,"orne":11172,"Ġinsidious":11173,"Ġresident":11174,"ĠChristine":11175,"Ġbusinessman":11176,"Ġpuncture":11177,"Ġeleg":11178,"Ġhooks":11179,"Ġregister":11180,"ĠCanadian":11181,"rogen":11182,"Ġripe":11183,"ĠLev":11184,"Ġdiaper":11185,"Ġveter":11186,"Ġpreparing":11187,"Ġlicks":11188,"ĠWouldn":11189,"Ġscarecrow":11190,"ĠBetty":11191,"Ġjealousy":11192,"Ġcustody":11193,"Ġwizards":11194,"ĠFinally":11195,"Ġidentified":11196,"ĠJudge":11197,"Ġterrifying":11198,"Ġefforts":11199,"Ġmartial":11200,"Ġpulse":11201,"ĠSenator":11202,"Ġchemical":11203,"Ġfluid":11204,"Ġsalesman":11205,"Ġcollapsed":11206,"Ġarchite":11207,"Ġdyke":11208,"ĠRussell":11209,"Ġfinancial":11210,"Ġammunition":11211,"hi":11212,"riss":11213,"Ġvel":11214,"Ġtack":11215,"llip":11216,"Ġfulf":11217,"Ġpimps":11218,"Ġinit":11219,"Ġthread":11220,"lection":11221,"Ġshining":11222,"ĠMot":11223,"Ġfrat":11224,"akin":11225,"ĠLam":11226,"ĠJama":11227,"ĠRoyal":11228,"Ġclenched":11229,"Ġsmiles":11230,"ĠKor":11231,"ĠKent":11232,"ĠKey":11233,"Ġprints":11234,"Ġcrude":11235,"Ġimmor":11236,"Ġafterwards":11237,"Ġhomework":11238,"hens":11239,"Ġtryin":11240,"ggie":11241,"atts":11242,"Ġpassenger":11243,"Ġpassengers":11244,"Ġpenises":11245,"ologically":11246,"Ġlaughs":11247,"ĠSpider":11248,"ĠRebecca":11249,"Ġgirlfriends":11250,"coat":11251,"Ġbegins":11252,"crim":11253,"Ġchecking":11254,"Ġtrucks":11255,"Ġroads":11256,"Ġshrie":11257,"Ġcousins":11258,"Ġsinners":11259,"ĠSays":11260,"sucking":11261,"ĠClean":11262,"Ġarrange":11263,"ructive":11264,"Ġdemands":11265,"Ġstatus":11266,"Ġleaning":11267,"Ġrumor":11268,"Ġsniffing":11269,"ĠKatie":11270,"Ġbarbaric":11271,"Ġjournalists":11272,"Ġoblig":11273,"Ġexhausted":11274,"Ġvarious":11275,"Ġheavily":11276,"Ġoutrageous":11277,"Ġwithdraw":11278,"Ġbizarre":11279,"11":11280,"bel":11281,"fense":11282,"nan":11283,"pound":11284,"rill":11285,"yer":11286,"Ġbattered":11287,"Ġmasc":11288,"ĠIQ":11289,"Ġcroc":11290,"Ġlyn":11291,"Ġpagan":11292,"cking":11293,"Ġhal":11294,"ĠWy":11295,"antle":11296,"ĠAz":11297,"ĠHur":11298,"ĠHug":11299,"ĠHappy":11300,"ilian":11301,"Ġsafer":11302,"ĠPers":11303,"ĠFox":11304,"feed":11305,"Ġclerk":11306,"Ġpoking":11307,"Ġunpr":11308,"Ġswung":11309,"Ġshagging":11310,"Ġthroughout":11311,"holy":11312,"ĠBritt":11313,"Ġpunches":11314,"ysis":11315,"Ġpassport":11316,"ĠAsk":11317,"Ġorgasms":11318,"ĠMany":11319,"Ġindepend":11320,"Ġcontrols":11321,"ĠGeor":11322,"Ġannoys":11323,"Ġfutile":11324,"Ġdespised":11325,"ĠSeems":11326,"Ġopera":11327,"ĠMorg":11328,"Ġcauses":11329,"suckers":11330,"ĠFreddie":11331,"Ġsamples":11332,"Ġsprayed":11333,"Ġbarking":11334,"ĠMurphy":11335,"Ġtraditional":11336,"Ġgathering":11337,"Ġgesture":11338,"levant":11339,"Ġfrustrated":11340,"ĠSwedish":11341,"Ġsettled":11342,"Ġkneel":11343,"Ġfeatures":11344,"Ġparalyzed":11345,"Ġfingerprints":11346,"ĠGentle":11347,"Ġpyram":11348,"Ġpeculiar":11349,"!?":11350,"nosed":11351,"rin":11352,"Ã³":11353,"Ġtush":11354,"ede":11355,"esc":11356,"esus":11357,"Ġny":11358,"eting":11359,"ooped":11360,"ĠTa":11361,"ifting":11362,"ĠWon":11363,"Ġgoons":11364,"opping":11365,"ĠMade":11366,"ĠDylan":11367,"ĠCock":11368,"ĠGret":11369,"ulated":11370,"ĠLog":11371,"ĠLaur":11372,"Ġexagger":11373,"Ġclay":11374,"Ġdispose":11375,"ptic":11376,"Ġtermin":11377,"Ġridiculously":11378,"Ġcounts":11379,"ĠInspect":11380,"Ġimpost":11381,"Ġapply":11382,"oked":11383,"Ġhorrid":11384,"Ġfilmed":11385,"gina":11386,"phine":11387,"Ġconfident":11388,"grade":11389,"Ġindul":11390,"Ġ48":11391,"osphere":11392,"Ġobsess":11393,"ambo":11394,"Ġpleased":11395,"ĠIran":11396,"Damned":11397,"Ġtargets":11398,"ĠSuicide":11399,"ĠGotham":11400,"Ġambition":11401,"Ġapproached":11402,"ĠEllie":11403,"Ġtaxes":11404,"Ġbuffalo":11405,"ĠOwen":11406,"Ġprinciple":11407,"Ġfoam":11408,"Ġpudding":11409,"Ġconquer":11410,"Ġabduct":11411,"ĠJennifer":11412,"80":11413,"loe":11414,"Ġtig":11415,"Ġbaked":11416,"lless":11417,"ingly":11418,"Ġlou":11419,"orr":11420,"orous":11421,"Ġine":11422,"omi":11423,"aters":11424,"illery":11425,"ayer":11426,"Ġstup":11427,"ali":11428,"Ġreverse":11429,"stock":11430,"ĠAgain":11431,"urse":11432,"ĠDiv":11433,"ĠCand":11434,"oret":11435,"Ġworries":11436,"Ġalright":11437,"ĠPrep":11438,"ĠFight":11439,"Ġspying":11440,"Ġbackst":11441,"quet":11442,"shoot":11443,"Ġsnive":11444,"harm":11445,"Ġdrunkard":11446,"Ġfellas":11447,"Ġquicker":11448,"Ġsufficient":11449,"Ġstudying":11450,"Ġbathtub":11451,"ueless":11452,"stitution":11453,"Ġsuperher":11454,"Ġvein":11455,"ophob":11456,"undy":11457,"Ġexplains":11458,"ĠGriff":11459,"ĠMcK":11460,"Ġhypnot":11461,"uctive":11462,"Ġtempor":11463,"ĠAnth":11464,"Ġexplosive":11465,"Ġuglier":11466,"Ġcommissioner":11467,"Ġcamel":11468,"ĠParty":11469,"Ġunusual":11470,"ĠAccording":11471,"ĠSparhawk":11472,"Ġecst":11473,"Ġjanitor":11474,"Ġbracelet":11475,"Ġencounter":11476,"Ġcrucifix":11477,"ĠDracula":11478,"ĠInspector":11479,"EX":11480,"Maybe":11481,"Sc":11482,"ä¸":11483,"Ġsane":11484,"Ġbim":11485,"Ġbubb":11486,"ĠIron":11487,"Ġfame":11488,"Ġcoy":11489,"Ġtobac":11490,"Ġgathered":11491,"Ġhound":11492,"athetic":11493,"Ġrasc":11494,"ucking":11495,"rag":11496,"Ġkillin":11497,"Ġbutch":11498,"ĠMob":11499,"ĠBite":11500,"ĠBird":11501,"acked":11502,"essert":11503,"naked":11504,"Ġblah":11505,"ĠLin":11506,"oli":11507,"Ġspots":11508,"Ġvig":11509,"Ġexisted":11510,"Ġexhib":11511,"ĠEight":11512,"Ġproven":11513,"those":11514,"throw":11515,"thern":11516,"Ġflashed":11517,"Ġstrict":11518,"ĠAllah":11519,"Ġsurve":11520,"Ġidle":11521,"Ġunderstands":11522,"Ġexcruc":11523,"ivers":11524,"Ġconfessed":11525,"mbles":11526,"Ġgangs":11527,"Ġvideos":11528,"Ġerad":11529,"Ġrecording":11530,"Ġfairly":11531,"ĠMadame":11532,"Ġhybr":11533,"Ġfemales":11534,"ĠJuliet":11535,"Ġestabl":11536,"worth":11537,"ĠTurns":11538,"Ġfocused":11539,"Ġquarterback":11540,"ĠSyd":11541,"ĠHawai":11542,"Ġruler":11543,"ĠSquare":11544,"Ġpigeons":11545,"Ġrhyth":11546,"ĠBrandon":11547,"Ġsoulless":11548,"Ġresources":11549,"Ġridicule":11550,"Ġexcruciating":11551,"Take":11552,"ded":11553,"hol":11554,"ÂĴ":11555,"Ġwuss":11556,"Ġbony":11557,"Ġdu":11558,"Ġlur":11559,"Ġpaw":11560,"Ġnarr":11561,"Ġthirst":11562,"Ġhabits":11563,"Ġstank":11564,"Ġwast":11565,"ĠTop":11566,"ĠSna":11567,"ĠSaint":11568,"ĠSpring":11569,"ĠHarl":11570,"ental":11571,"roe":11572,"Ġaller":11573,"oodles":11574,"ppel":11575,"Ġsubs":11576,"ĠLor":11577,"ĠJune":11578,"ĠFull":11579,"olve":11580,"ardo":11581,"arer":11582,"Ġscatter":11583,"Ġchur":11584,"Ġprog":11585,"ĠKel":11586,"ĠKids":11587,"Ġcrick":11588,"Ġblackness":11589,"Ġflirt":11590,"Ġwaiter":11591,"Ġstrings":11592,"Ġcontent":11593,"Ġcompar":11594,"Ġparrot":11595,"Ġbombing":11596,"Ġconfuse":11597,"Ġprophe":11598,"ĠPrime":11599,"Ġlowest":11600,"Ġrespected":11601,"Ġjudging":11602,"Ġcorners":11603,"Ġcracking":11604,"Ġaffairs":11605,"Ġsoftly":11606,"ĠMean":11607,"ĠRico":11608,"Ġdonkeys":11609,"Ġbothers":11610,"ĠRichards":11611,"Ġsoccer":11612,"ĠCoach":11613,"ĠSupp":11614,"Ġcrowded":11615,"Ġaffected":11616,"Ġmasks":11617,"Ġhobo":11618,"Ġnickname":11619,"Ġbloated":11620,"ĠPotter":11621,"Ġloathe":11622,"ĠRandall":11623,"encies":11624,"Ġsuspicion":11625,"Ġimprison":11626,"Ġunexpected":11627,"ĠHarvard":11628,"Con":11629,"bor":11630,"break":11631,"gre":11632,"jerk":11633,"rec":11634,"only":11635,"Ġdup":11636,"Ġdessert":11637,"itating":11638,"nding":11639,"inge":11640,"Ġoaf":11641,"Ġginger":11642,"orical":11643,"Ġbeak":11644,"Ġroses":11645,"ĠSpen":11646,"ĠHap":11647,"ĠHulk":11648,"roit":11649,"ĠDre":11650,"ellig":11651,"ĠCob":11652,"ĠClyde":11653,"Ġmankind":11654,"Ġintense":11655,"Ġbye":11656,"Ġclip":11657,"Ġproceed":11658,"Ġroared":11659,"Ġnecklace":11660,"Ġdecency":11661,"Ġaccus":11662,"ĠChristopher":11663,"ĠMarsh":11664,"Ġredhead":11665,"yson":11666,"Ġgrandchild":11667,"Ġilliterate":11668,"elson":11669,"Ġregist":11670,"Ġcolon":11671,"Ġdolls":11672,"Ġbuildings":11673,"Ġsweetie":11674,"Ġjudges":11675,"Shoot":11676,"Ġdivision":11677,"hammer":11678,"Ġlimit":11679,"Ġprayer":11680,"hantom":11681,"Ġrequires":11682,"ĠCouldn":11683,"ĠDisney":11684,"Ġcommunist":11685,"Ġflashlight":11686,"Ġconfirm":11687,"Ġrepeatedly":11688,"Ġvenom":11689,"ĠJamie":11690,"ĠAntonio":11691,"Ġtrampled":11692,"Ġwealth":11693,"Ġrenegade":11694,"Ġaccompan":11695,"Ġguillotine":11696,"UN":11697,"dale":11698,"pit":11699,"ught":11700,"uated":11701,"yon":11702,"Ġack":11703,"Ġbob":11704,"Ġgoo":11705,"Ġpose":11706,"orable":11707,"Ġeffe":11708,"Ġeagle":11709,"outed":11710,"Ġstale":11711,"irk":11712,"ĠHate":11713,"ĠHog":11714,"ĠCec":11715,"Ġnoises":11716,"ĠPunch":11717,"ĠPiggy":11718,"ĠFion":11719,"ĠFbl":11720,"Ġplung":11721,"Ġpecker":11722,"Ġspaghetti":11723,"ĠRing":11724,"ĠRot":11725,"Ġloath":11726,"Ġchim":11727,"dding":11728,"Ġchess":11729,"Ġchal":11730,"Ġsucky":11731,"ĠViol":11732,"Ġgraves":11733,"Ġcompliment":11734,"Ġaccur":11735,"avan":11736,"Ġaward":11737,"chery":11738,"amese":11739,"Ġdelete":11740,"Ġdemonic":11741,"stitute":11742,"Ġmerry":11743,"Ġconcrete":11744,"Ġamongst":11745,"ĠJaps":11746,"Ġinvolve":11747,"ĠQueens":11748,"Ġgenerally":11749,"help":11750,"ĠCommission":11751,"Ġobjects":11752,"works":11753,"ĠClaus":11754,"Ġcompanions":11755,"Ġjournalist":11756,"Ġprecise":11757,"Ġforbidden":11758,"Ġultimate":11759,"Ġdomestic":11760,"ĠStewart":11761,"Ġrascals":11762,"GB":11763,"ILL":11764,"OW":11765,"RI":11766,"reland":11767,"ĠII":11768,"Ġfare":11769,"orse":11770,"Ġnav":11771,"iments":11772,"Ġstall":11773,"ications":11774,"Ġformed":11775,"step":11776,"Ġarena":11777,"Ġfries":11778,"Ġmanhood":11779,"Ġsap":11780,"ĠNah":11781,"ĠFitz":11782,"Ġplatter":11783,"Ġscars":11784,"Ġconference":11785,"Ġtheirs":11786,"ĠKind":11787,"ĠKling":11788,"Ġoverd":11789,"Ġoverboard":11790,"Ġgoodness":11791,"Ġunrel":11792,"Ġdisag":11793,"ugged":11794,"Ġflick":11795,"Ġflav":11796,"Ġbodyguard":11797,"Ġadjust":11798,"ushi":11799,"Ġlighting":11800,"Ġstrapped":11801,"Ġreads":11802,"Ġdelinqu":11803,"Ġdepart":11804,"Ġladder":11805,"Ġmutant":11806,"Ġdrawers":11807,"Ġcease":11808,"vestite":11809,"Ġsensible":11810,"ĠPaulie":11811,"Ġbreathed":11812,"Ġcollecting":11813,"Ġaccountant":11814,"Ġcandles":11815,"ĠBeach":11816,"Ġcrucify":11817,"Ġwaves":11818,"ĠHonestly":11819,"ĠChang":11820,"uza":11821,"Ġborrowed":11822,"Ġmuscular":11823,"ĠWhether":11824,"Ġassociated":11825,"Ġintimid":11826,"Ġcherry":11827,"Ġhemorrha":11828,"Ġcremated":11829,"Ġvehicle":11830,"Ġunemployed":11831,"ĠAsshole":11832,".?":11833,"Al":11834,"TER":11835,"bet":11836,"conscious":11837,"dam":11838,"pan":11839,"uj":11840,"uld":11841,"writ":11842,"Ġtucked":11843,"Ġauthor":11844,"inty":11845,"Ġbomber":11846,"Ġmaimed":11847,"onica":11848,"Ġfier":11849,"Ġgin":11850,"Ġlas":11851,"Ġheinous":11852,"edient":11853,"Ġplead":11854,"Ġnause":11855,"ician":11856,"Ġforms":11857,"verty":11858,"ĠWr":11859,"ĠWard":11860,"Ġjunior":11861,"Ġsear":11862,"ĠDang":11863,"ĠCop":11864,"ĠCurt":11865,"ĠLi":11866,"ĠPac":11867,"ĠRuth":11868,"Ġbackpack":11869,"Ġbrass":11870,"Ġbranch":11871,"Ġtwitch":11872,"ĠWeb":11873,"Ġpoverty":11874,"Ġmold":11875,"Ġunl":11876,"Ġshabby":11877,"ĠVar":11878,"Ġmoms":11879,"into":11880,"Ġtrauma":11881,"Ġmines":11882,"Ġstandards":11883,"oker":11884,"ĠFriend":11885,"Ġscale":11886,"ĠBlond":11887,"Ġreprod":11888,"Ġsidekick":11889,"Ġweirdos":11890,"Ġforgetting":11891,"butt":11892,"Ġbrake":11893,"Ġmorphine":11894,"Ġlowered":11895,"ĠGuess":11896,"Ġcellar":11897,"ĠSmells":11898,"Ġcreeps":11899,"Ġradiation":11900,"Ġprivacy":11901,"Ġpinned":11902,"Ġhonorable":11903,"Ġhoneymoon":11904,"Ġgenerations":11905,"Ġ***":11906,"Ġblocked":11907,"Ġcounsel":11908,"Ġfreshman":11909,"Ġnurses":11910,"Ġtechnical":11911,"ĠFreddy":11912,"Ġmobile":11913,"Ġinsec":11914,"Ġeducated":11915,"Ġfetish":11916,"Ġmassacred":11917,"Ġnickel":11918,"ĠHarrington":11919,"Ġchoked":11920,"Ġpounding":11921,"Ġroute":11922,"Ġruled":11923,"Ġdiabol":11924,"aithful":11925,"Ġmediocre":11926,"Ġphrase":11927,"ctopus":11928,"Ġtwerp":11929,"Ġeffeminate":11930,"!)":11931,",âĢĻ":11932,"OD":11933,"Re":11934,"fig":11935,"gor":11936,"ĠÃ":11937,"Ġted":11938,"Ġwes":11939,"Ġmummy":11940,"Ġdub":11941,"Ġduel":11942,"ĠIl":11943,"Ġfisher":11944,"Ġgh":11945,"imo":11946,"amous":11947,"amily":11948,"ĠSke":11949,"ĠYank":11950,"stance":11951,"Ġasse":11952,"Ġsole":11953,"ĠMitche":11954,"Ġalleg":11955,"ione":11956,"ĠDiana":11957,"Ġabomin":11958,"ĠLana":11959,"ittin":11960,"ĠHend":11961,"Ġcraft":11962,"hank":11963,"ĠFunny":11964,"Ġintimate":11965,"ĠRudy":11966,"Ġcrate":11967,"acc":11968,"Ġswept":11969,"Ġflushed":11970,"Ġmenace":11971,"Ġparticip":11972,"Ġskirts":11973,"renched":11974,"Ġactive":11975,"Ġstrung":11976,"ollar":11977,"Ġpattern":11978,"Ġglanced":11979,"Ġstuffing":11980,"Ġobt":11981,"actly":11982,"Ġretreat":11983,"ĠAlpha":11984,"Ġsexuality":11985,"Ġmeetings":11986,"Ġnutty":11987,"Ġpubic":11988,"Ġbummer":11989,"Ġbowels":11990,"ĠJoan":11991,"Ġheavens":11992,"ĠMotherfucker":11993,"Ġjuven":11994,"Ġjuicy":11995,"Ġexterminated":11996,"Ġbrutally":11997,"Ġtracking":11998,"ĠSecurity":11999,"ĠRosie":12000,"ĠSenate":12001,"Ġfundament":12002,"Ġoptions":12003,"Ġsimpleton":12004,"ĠTurkish":12005,"ĠStrike":12006,"ĠAfghanistan":12007,"Ġgaunt":12008,"Ġmachete":12009,"ĠCameron":12010,"Ġmoustache":12011,"ĠImperial":12012,"Ġtobacco":12013,"Ġtamp":12014,"Ġber":12015,"Ġdot":12016,"Ġdum":12017,"Ġlt":12018,"anor":12019,"Ġnod":12020,"Ġnavy":12021,"Ġthorn":12022,"Ġrival":12023,"Ġumb":12024,"Ġants":12025,"style":12026,"ĠAR":12027,"ĠAgn":12028,"ĠHannah":12029,"oping":12030,"ĠMoo":12031,"ĠCamp":12032,"nage":12033,"ĠLes":12034,"ĠPir":12035,"Ġpeel":12036,"ĠRex":12037,"ĠKnight":12038,"Ġsliding":12039,"Ġsledge":12040,"Ġflock":12041,"Ġimbec":12042,"Ġbrainless":12043,"ĠChloe":12044,"ivan":12045,"Ġinformed":12046,"Ġpenile":12047,"Ġfollowers":12048,"ĠGoing":12049,"Ġsixth":12050,"Ġsilk":12051,"ĠProm":12052,"Ġbells":12053,"Ġtransplant":12054,"Ġcoolest":12055,"Ġpositions":12056,"ĠSmall":12057,"Ġsolitary":12058,"Ġcruelty":12059,"Ġpublicly":12060,"ĠSloth":12061,"Ġphotograp":12062,"Ġgutted":12063,"Ġvomiting":12064,"Ġspanked":12065,"Ġscenar":12066,"Ġremembers":12067,"ĠFBl":12068,"Ġchatter":12069,"Ġresistance":12070,"ĠAustin":12071,"Ġobliv":12072,"ĠHarris":12073,"Ġmolest":12074,"Ġtraveling":12075,"Ġcontainer":12076,"Ġnegotiate":12077,"Ġalbum":12078,"ĠHands":12079,"ĠDepartment":12080,"Ġoccurred":12081,"ĠYankees":12082,"Ġfornication":12083,"Ġschedule":12084,"Ġcloak":12085,"Ġmushrooms":12086,"Ġcinema":12087,"Ġestablished":12088,"Ġacknow":12089,"OS":12090,"bin":12091,"bath":12092,"eating":12093,"riel":12094,"tell":12095,"inos":12096,"Ġwail":12097,"Ġsow":12098,"hast":12099,"itic":12100,"isle":12101,"Ġpine":12102,"Ġnuke":12103,"othy":12104,"ener":12105,"Ġshorter":12106,"irm":12107,"raine":12108,"Ġanaly":12109,"ĠSi":12110,"ĠSky":12111,"ieur":12112,"Ġselected":12113,"ĠHurt":12114,"ĠHaving":12115,"ĠHamm":12116,"Ġsoot":12117,"ĠBle":12118,"Ġnecr":12119,"Ġatm":12120,"Ġshepherd":12121,"igo":12122,"Ġmanagement":12123,"ĠNar":12124,"ĠPink":12125,"olas":12126,"Ġexotic":12127,"ĠEw":12128,"Ġsexist":12129,"resa":12130,"Ġsluts":12131,"reek":12132,"Ġswelling":12133,"Ġmuff":12134,"Ġballet":12135,"Ġattach":12136,"Ġresign":12137,"Ġadvert":12138,"Ġrestrain":12139,"these":12140,"Ġinstance":12141,"aley":12142,"Ġincon":12143,"ĠIsab":12144,"Ġsticky":12145,"Ġpsychos":12146,"Ġfreezer":12147,"Ġinterfe":12148,"Ġimages":12149,"Ġsixty":12150,"Ġdeputy":12151,"Ġsadist":12152,"Ġignoring":12153,"Ġallowing":12154,"Ġtransvestite":12155,"Ġvillagers":12156,"Ġcaps":12157,"ĠShall":12158,"going":12159,"Ġbankrupt":12160,"ĠNeil":12161,"incing":12162,"Ġcentre":12163,"Ġgasped":12164,"Ġrebel":12165,"Ġincluded":12166,"world":12167,"ĠTurks":12168,"ĠFranco":12169,"ĠBrody":12170,"Ġexplodes":12171,"ĠGoddam":12172,"Ġrodent":12173,"Ġ``":12174,"ĠKirk":12175,"ĠBecky":12176,"Ġseverely":12177,"ĠYankee":12178,"Ġkarate":12179,"ĠBurton":12180,"Ġpeanut":12181,"Ġgullible":12182,"Ġairplane":12183,"iagra":12184,"ĠReverend":12185,"ĠAnthony":12186,"Ġloathsome":12187,"IR":12188,"UR":12189,"bro":12190,"eb":12191,"ii":12192,"ju":12193,"part":12194,"vor":12195,"wy":12196,"whe":12197,"Ġtension":12198,"Ġwishing":12199,"ĠID":12200,"Ġcad":12201,"Ġcush":12202,"orks":12203,"Ġstag":12204,"Ġstove":12205,"Ġram":12206,"ĠTok":12207,"ĠSea":12208,"Ġjazz":12209,"ĠHud":12210,"Ġhermit":12211,"ĠMong":12212,"ĠMaur":12213,"Ġabhor":12214,"ĠCe":12215,"aky":12216,"akuza":12217,"Ġsomeplace":12218,"ĠLar":12219,"ĠLost":12220,"ĠLenny":12221,"Ġspike":12222,"ĠEach":12223,"Ġclueless":12224,"chered":12225,"Ġquarters":12226,"Ġflir":12227,"Ġratt":12228,"ogue":12229,"Ġactors":12230,"Ġattic":12231,"Ġmesses":12232,"Ġbuttons":12233,"Ġglance":12234,"Ġpolish":12235,"avin":12236,"active":12237,"Ġrapes":12238,"Ġbargain":12239,"Ġprescri":12240,"Ġsigning":12241,"Ġpropag":12242,"ĠSpain":12243,"Ġirony":12244,"Ġmorality":12245,"Ġ400":12246,"Ġextinct":12247,"Ġbegun":12248,"ĠâĻ«":12249,"Ġcontinues":12250,"ĠChase":12251,"Ġcalmly":12252,"ĠRaymond":12253,"Ġparano":12254,"ribute":12255,"izzie":12256,"Ġpuppets":12257,"righteous":12258,"Ġspecifically":12259,"ĠLucifer":12260,"itzer":12261,"Ġseparated":12262,"ĠGarion":12263,"Ġgigaw":12264,"bbie":12265,"Ġcondemn":12266,"ĠWinston":12267,"Ġdepending":12268,"Ġtemperature":12269,"Ġmanipulative":12270,"ĠDiego":12271,"Ġvirtue":12272,"ĠHomer":12273,"ĠFrancisco":12274,"Ġkarma":12275,"Ġblazes":12276,"Ġdescendants":12277,"Ġgouge":12278,"Ġluxury":12279,"Ġvultures":12280,"ĠAugust":12281,"Ġecstasy":12282,"'...":12283,"Can":12284,"norm":12285,"pret":12286,"zie":12287,"zens":12288,"Ġaid":12289,"Ġbounce":12290,"oning":12291,"ĠIce":12292,"Ġhills":12293,"Ġbehead":12294,"usa":12295,"Ġhaunt":12296,"illon":12297,"illance":12298,"Ġraces":12299,"Ġul":12300,"ĠWork":12301,"Ġjammed":12302,"Ġdont":12303,"ĠHat":12304,"ĠHills":12305,"opes":12306,"ĠBury":12307,"Ġblunder":12308,"Ġnoisy":12309,"Ġsuicides":12310,"ĠPack":12311,"ĠRu":12312,"Ġloot":12313,"Ġlollip":12314,"Ġchrist":12315,"uding":12316,"ĠKle":12317,"Ġmoist":12318,"Ġsliced":12319,"Ġgrunt":12320,"ugu":12321,"Ġfaec":12322,"mann":12323,"ĠVamp":12324,"arson":12325,"Ġpigsty":12326,"Ġhorribly":12327,"ĠDece":12328,"Ġreporters":12329,"Ġretired":12330,"ĠAlmighty":12331,"Ġlightly":12332,"iker":12333,"Ġnutter":12334,"Ġreflex":12335,"Ġartillery":12336,"ĠProt":12337,"Ġrespectable":12338,"Ġvideot":12339,"Ġpressing":12340,"Ġchairs":12341,"ĠShooting":12342,"Ġfeds":12343,"ĠNicky":12344,"Ġcaptive":12345,"ĠSexual":12346,"Ġprovoc":12347,"Ġdebate":12348,"Ġdebau":12349,"Ġdorky":12350,"smelling":12351,"ijuana":12352,"Ġpassionate":12353,"Ġhillb":12354,"Ġpouring":12355,"Ġwanker":12356,"Ġpuddle":12357,"Ġshattered":12358,"ĠHolmes":12359,"Ġheretic":12360,"Ġmongrel":12361,"Ġcomrades":12362,"Ġfingernails":12363,"Ġadrenaline":12364,"Ġextraordinary":12365,"ĠLaurie":12366,"Ġchurches":12367,"Ġdiabolical":12368,"god":12369,"huh":12370,"paid":12371,"tails":12372,"inals":12373,"Ġsought":12374,"Ġmac":12375,"Ġmars":12376,"Ġmoles":12377,"Ġoo":12378,"Ġgained":12379,"Ġrans":12380,"ĠTill":12381,"ĠSouthern":12382,"ĠWanna":12383,"anta":12384,"Ġjaws":12385,"ĠAbs":12386,"ĠMand":12387,"ĠBaker":12388,"ĠGene":12389,"igel":12390,"umpt":12391,"ĠLil":12392,"Ġoffender":12393,"ĠFry":12394,"Ġinteg":12395,"Ġloaf":12396,"Ġvon":12397,"Ġhowling":12398,"nth":12399,"Ġages":12400,"uddle":12401,"Ġmoan":12402,"acious":12403,"shirts":12404,"ĠOhh":12405,"Ġowners":12406,"Ġinsensitive":12407,"rences":12408,"ĠUl":12409,"Ġwaits":12410,"Ġpreach":12411,"Ġresur":12412,"Ġscholar":12413,"Ġglue":12414,"ĠInc":12415,"Ġimpat":12416,"eye":12417,"Ġrecent":12418,"Ġburger":12419,"Ġcurled":12420,"Ġcuriosity":12421,"ĠAlmost":12422,"Ġparole":12423,"Ġbellowed":12424,"Ġarmies":12425,"Ġsharing":12426,"ĠNeed":12427,"ĠStefan":12428,"Ġshrive":12429,"Ġwretches":12430,"Ġkidnapper":12431,"Ġcircles":12432,"Ġpinched":12433,"ĠMonroe":12434,"Ġprayed":12435,"Ġrifles":12436,"Ġ197":12437,"Ġinsults":12438,"ĠVera":12439,"ĠVanessa":12440,"Ġentertainment":12441,"Ġvegetable":12442,"Ġwacky":12443,"Ġsemi":12444,"Ġplatoon":12445,"Ġfrenzy":12446,"Ġvaporized":12447,"midt":12448,"Ġsponge":12449,"Ġcrocod":12450,"Ġfaeces":12451,"15":12452,"GH":12453,"ICK":12454,"bad":12455,"bul":12456,"eged":12457,"somet":12458,"vas":12459,"ĠÃī":12460,"Ġties":12461,"oub":12462,"Ġdamp":12463,"itis":12464,"ĠIS":12465,"Ġcod":12466,"erick":12467,"Ġoy":12468,"Ġlaz":12469,"Ġloner":12470,"Ġpanda":12471,"orage":12472,"Ġnative":12473,"arled":12474,"imme":12475,"Ġstump":12476,"Ġdoppel":12477,"ĠTina":12478,"ĠTiger":12479,"ĠWake":12480,"ĠAna":12481,"Ġbutchered":12482,"ĠBarr":12483,"robe":12484,"ellow":12485,"ĠGrol":12486,"nable":12487,"Ġblouse":12488,"abor":12489,"ĠLib":12490,"ĠNelson":12491,"rians":12492,"ĠRec":12493,"ĠRipper":12494,"Ġloony":12495,"Ġbacked":12496,"Ġbackyard":12497,"ĠEvan":12498,"obs":12499,"Ġmeanest":12500,"Ġunworthy":12501,"Ġenvel":12502,"acer":12503,"Ġdisse":12504,"Ġgrill":12505,"Ġgranny":12506,"Ġbullied":12507,"Ġeyel":12508,"Ġendure":12509,"ansas":12510,"---":12511,"Ġprett":12512,"Ġcopper":12513,"Ġprejud":12514,"Ġmarrow":12515,"Ġemperor":12516,"Ġidol":12517,"Ġdecades":12518,"Ġapprove":12519,"ĠBron":12520,"Ġenters":12521,"Ġcorrupted":12522,"Ġexcess":12523,"ĠArk":12524,"Ġcreating":12525,"Ġcreative":12526,"Ġdumping":12527,"Ġdefin":12528,"Ġbasis":12529,"blower":12530,"Ġdistrict":12531,"cery":12532,"Ġallows":12533,"Ġtransform":12534,"Ġrisks":12535,"Ġtricky":12536,"Ġelected":12537,"ĠPlan":12538,"Ġwillingly":12539,"etti":12540,"Ġgenerous":12541,"ĠTracy":12542,"Ġrumors":12543,"Ġdeceive":12544,"ĠSpecial":12545,"Ġspinning":12546,"ĠFerr":12547,"ĠFergus":12548,"Ġconcentration":12549,"Ġdepends":12550,"Ġbatteries":12551,"ĠHomicide":12552,"ĠDaisy":12553,"ĠStuart":12554,"Ġintentions":12555,"ĠTrolls":12556,"Ġhoodlums":12557,"otected":12558,"Ġinevitable":12559,"ĠBarnes":12560,"Ġapplied":12561,"Ġambitious":12562,"ĠWizard":12563,"ĠSpencer":12564,"Ġenvelope":12565,"IM":12566,"PS":12567,"bout":12568,"daughter":12569,"murd":12570,"nik":12571,"xA":12572,"Ġwoo":12573,"Ġcess":12574,"Ġnu":12575,"Ġshrew":12576,"Ġrookie":12577,"Ġdol":12578,"Ġanarch":12579,"ĠHans":12580,"Ġdebr":12581,"Ġsob":12582,"ĠBog":12583,"Ġfratern":12584,"ello":12585,"Ġabusing":12586,"Ġtrink":12587,"ĠLip":12588,"ĠFisher":12589,"Ġspook":12590,"Ġcomin":12591,"Ġdram":12592,"Ġamp":12593,"Ġamused":12594,"Ġdisl":12595,"Ġgrant":12596,"Ġgrunted":12597,"Ġflare":12598,"Ġshutting":12599,"orde":12600,"Ġgravity":12601,"Ġprevented":12602,"Ġadoles":12603,"Ġsnort":12604,"ĠBlair":12605,"Ġrelieved":12606,"Ġattacker":12607,"Ġdemocracy":12608,"lands":12609,"Ġabsor":12610,"Ġsubmar":12611,"Ġviolated":12612,"Ġvet":12613,"Ġerrand":12614,"Ġmotiv":12615,"ribes":12616,"ĠCrim":12617,"ĠCommand":12618,"Ġcelebrating":12619,"Ġraging":12620,"Ġdipshit":12621,"Ġowed":12622,"Ġtroubled":12623,"ĠVeronica":12624,"ĠRaist":12625,"market":12626,"Ġtherapist":12627,"Ġfolded":12628,"ĠGabriel":12629,"Ġassignment":12630,"Ġrecruit":12631,"ixture":12632,"ĠNicole":12633,"Ġgrasp":12634,"Ġhamburger":12635,"Ġalternative":12636,"ĠPhillip":12637,"Ġamusement":12638,"ĠShaftoe":12639,"ĠDwight":12640,"ĠFiona":12641,"Ġatmosphere":12642,"Ġgigawatts":12643,"60":12644,"Ke":12645,"oqu":12646,"Ġtainted":12647,"Ġaston":12648,"Ġdre":12649,"Ġpace":12650,"Ġhunch":12651,"Ġofthe":12652,"etta":12653,"imated":12654,"Ġramb":12655,"ĠYep":12656,"Ġjug":12657,"ĠHind":12658,"ĠMia":12659,"ĠMafia":12660,"ĠDer":12661,"icker":12662,"agen":12663,"ulking":12664,"ĠJa":12665,"ĠJin":12666,"ĠPas":12667,"ĠPay":12668,"ĠFound":12669,"ĠFeds":12670,"olk":12671,"Ġspaces":12672,"ĠRap":12673,"Ġvind":12674,"Ġbackup":12675,"Ġrighteous":12676,"bean":12677,"orders":12678,"Ġchained":12679,"herent":12680,"Ġtraps":12681,"eteor":12682,"Ġimpressive":12683,"Ġrecon":12684,"Ġburying":12685,"Ġhopefully":12686,"lander":12687,"Ġdumbest":12688,"Ġeyeballs":12689,"arlic":12690,"Ġindign":12691,"Ġtestimony":12692,"Ġstarters":12693,"Ġdisturb":12694,"Ġsubtle":12695,"Ġextrem":12696,"Ġbellies":12697,"Ġmagicians":12698,"ĠEnglishman":12699,"Ġoperate":12700,"Ġpeaceful":12701,"Ġengage":12702,"Ġbattlefield":12703,"Ġsummon":12704,"Ġbanned":12705,"Ġducks":12706,"Ġspecific":12707,"ĠSilas":12708,"ĠBuy":12709,"Ġmathem":12710,"Ġnewspapers":12711,"Ġcongress":12712,"Ġprecinct":12713,"Ġsoda":12714,"colm":12715,"Ġmosquito":12716,"Ġmaintain":12717,"Ġcuckoo":12718,"ĠMargaret":12719,"Ġseizure":12720,"Ġunprotected":12721,"Ġsurveillance":12722,"Give":12723,"OB":12724,"boo":12725,"bang":12726,"ext":12727,"gian":12728,"hour":12729,"lined":12730,"rum":12731,"tie":12732,"Ġturb":12733,"Ġtitty":12734,"inter":12735,"Ġbind":12736,"Ġbree":12737,"Ġbash":12738,"ĠIreland":12739,"Ġcodes":12740,"Ġtopp":12741,"Ġgrain":12742,"Ġlumber":12743,"Ġhed":12744,"idges":12745,"illion":12746,"kel":12747,"Ġweaken":12748,"Ġstrain":12749,"Ġdozens":12750,"Ġanch":12751,"ĠWoody":12752,"stro":12753,"Ġjur":12754,"ĠMountain":12755,"term":12756,"ĠCost":12757,"umption":12758,"Ġsabot":12759,"ulse":12760,"ĠLesb":12761,"ĠLiber":12762,"ĠLizzie":12763,"ĠPad":12764,"ĠRip":12765,"Ġvine":12766,"Ġexorc":12767,"Ġconcept":12768,"chez":12769,"Ġovernight":12770,"Ġhatch":12771,"Ġinsert":12772,"Ġtease":12773,"people":12774,"Ġstruct":12775,"Ġcontam":12776,"Ġcontra":12777,"ibi":12778,"ĠIsa":12779,"ĠAlright":12780,"Ġfarce":12781,"Ġfollows":12782,"block":12783,"Ġcolors":12784,"Ġexpense":12785,"Ġinnocence":12786,"Ġchecks":12787,"Ġsurvival":12788,"Ġdeviant":12789,"Ġvisited":12790,"strich":12791,"ĠColin":12792,"ĠConnie":12793,"ĠAbra":12794,"Ġchopper":12795,"Ġdenied":12796,"Ġnightmares":12797,"Ġscarf":12798,"Ġrevealing":12799,"slaughter":12800,"ĠDemons":12801,"Ġmicro":12802,"walker":12803,"Ġcowboys":12804,"Ġmagnific":12805,"Ġfloat":12806,"Ġlawsuit":12807,"ĠCounty":12808,"Ġcuffs":12809,"Ġrejected":12810,"Ġcavity":12811,"Ġdegener":12812,"Ġdistracted":12813,"ĠObviously":12814,"Ġarmpit":12815,"Ġconclusion":12816,"ĠToby":12817,"ĠUsually":12818,"Ġnicer":12819,"ĠLauren":12820,"Ġpermanent":12821,"ĠHarkonn":12822,"ĠMitchell":12823,"ĠSlothrop":12824,"EP":12825,"eer":12826,"ganger":12827,"hr":12828,"hound":12829,"mod":12830,"poor":12831,"zes":12832,"Ã¯":12833,"Ġwander":12834,"onia":12835,"half":12836,"itus":12837,"ĠIll":12838,"Ġcate":12839,"Ġpounded":12840,"Ġhick":12841,"Ġhos":12842,"Ġink":12843,"Ġinhuman":12844,"Ġhaw":12845,"Ġeg":12846,"Ġstung":12847,"iches":12848,"ĠTold":12849,"antha":12850,"ĠAld":12851,"ĠHou":12852,"ĠMaine":12853,"ĠCre":12854,"ĠCro":12855,"ĠGi":12856,"ĠGwen":12857,"ĠPerson":12858,"Ġplants":12859,"Ġpearl":12860,"ears":12861,"ĠKo":12862,"ipers":12863,"Ġengin":12864,"iane":12865,"izzy":12866,"shield":12867,"Ġbulls":12868,"Ġfireplace":12869,"were":12870,"please":12871,"Ġadul":12872,"Ġcurve":12873,"Ġrapists":12874,"endous":12875,"Ġgenetic":12876,"Ġpromotion":12877,"Ġpassword":12878,"Ġbaron":12879,"igga":12880,"ĠScout":12881,"ĠCanada":12882,"Ġlandlord":12883,"ĠReady":12884,"Ġembrace":12885,"ĠProp":12886,"ĠGuards":12887,"Ġannoyed":12888,"ĠCaramon":12889,"Ġcostumes":12890,"ĠChel":12891,"Ġhyd":12892,"Ġprovided":12893,"Ġwrecked":12894,"Ġtraded":12895,"ĠCleve":12896,"ĠMagn":12897,"Ġgrinned":12898,"Ġhorseshit":12899,"ĠJudas":12900,"Ġadults":12901,"Ġinjuries":12902,"ĠSurely":12903,"Ġdegrees":12904,"Ġdetectives":12905,"ribution":12906,"Ġpipes":12907,"Ġmercenary":12908,"ĠService":12909,"Ġelderly":12910,"Ġepisode":12911,"Ġimpostor":12912,"Ġsniveling":12913,"Ġrhythm":12914,"Ġfiery":12915,"ĠRaistlin":12916,"Ġengines":12917,"Holy":12918,"corn":12919,"gel":12920,"lene":12921,"pol":12922,"tight":12923,"var":12924,"Ġace":12925,"Ġsly":12926,"Ġdome":12927,"itives":12928,"Ġot":12929,"Ġostrich":12930,"Ġlured":12931,"oric":12932,"asper":12933,"aya":12934,"aders":12935,"Ġstem":12936,"alid":12937,"Ġrammed":12938,"amus":12939,"iche":12940,"ĠWater":12941,"ĠWonder":12942,"Ġreass":12943,"stupid":12944,"ĠDuck":12945,"ĠDire":12946,"ĠCab":12947,"ĠGall":12948,"ĠGem":12949,"elo":12950,"ĠHeck":12951,"Ġspinal":12952,"ĠRes":12953,"gey":12954,"ĠEld":12955,"Ġclone":12956,"Ġsmashing":12957,"Ġoverweight":12958,"Ġcru":12959,"Ġamer":12960,"Ġamusing":12961,"angar":12962,"retched":12963,"ĠShel":12964,"Ġridicul":12965,"Ġunderdog":12966,"pering":12967,"ĠVern":12968,"ĠViagra":12969,"Ġski":12970,"Ġmouthful":12971,"Ġhelpful":12972,"Ġpoorly":12973,"Ġglow":12974,"Ġcompete":12975,"Ġrecy":12976,"ippin":12977,"Ġmidst":12978,"Ġpunct":12979,"Ġredneck":12980,"Ġweirdest":12981,"arring":12982,"Ġlighter":12983,"Ġrobes":12984,"Ġpassage":12985,"ĠAnita":12986,"Ġhonour":12987,"Ġsmartest":12988,"ĠGoa":12989,"ĠDrunk":12990,"Ġgrabbing":12991,"Ġmedium":12992,"Ġdistinct":12993,"Ġsubd":12994,"brother":12995,"Ġscramb":12996,"ĠGeorgia":12997,"Ġsharpen":12998,"Ġjudged":12999,"zzie":13000,"Ġevident":13001,"ĠTrans":13002,"Ġeditor":13003,"Ġringing":13004,"Ġimmune":13005,"Ġoperations":13006,"Ġthieving":13007,"ĠSlow":13008,"boat":13009,"Ġreported":13010,"ettle":13011,"Ġavoiding":13012,"Ġcraziness":13013,"Ġopium":13014,"ĠPhilip":13015,"Ġconstruction":13016,"Ġagreement":13017,"Ġfrightening":13018,"Ġunfaithful":13019,"Ġsuffocated":13020,"ĠDetroit":13021,"ĠSpeaking":13022,"ĠBrothers":13023,"Ġpsychiatric":13024,"ĠArchie":13025,"Ġencourage":13026,"ĠTarzan":13027,"Ġregularly":13028,"Ġfugitive":13029,"ĠColombian":13030,"Ġmaximum":13031,"Ġdiscipline":13032,"Ġcoconut":13033,"Ġpenguin":13034,"Ġprosecutor":13035,"Ġelegant":13036,"Ġarchitect":13037,"Ġprophecy":13038,"Ġinterfere":13039,"nthia":13040,"Did":13041,"IE":13042,"Like":13043,"dled":13044,"deg":13045,"gone":13046,"rina":13047,"won":13048,"Ġtales":13049,"Ġtheat":13050,"Ġben":13051,"Ġfountain":13052,"ingle":13053,"Ġcoo":13054,"Ġcakes":13055,"Ġtox":13056,"Ġgroom":13057,"Ġgoner":13058,"anes":13059,"Ġpel":13060,"Ġbees":13061,"utiful":13062,"illas":13063,"imon":13064,"Ġweigh":13065,"adium":13066,"ĠTea":13067,"verted":13068,"ifully":13069,"ĠSom":13070,"ĠWu":13071,"ĠHus":13072,"ĠMantic":13073,"ĠBren":13074,"Ġfrying":13075,"acking":13076,"ĠDrew":13077,"ĠDodge":13078,"Ġnearby":13079,"ĠCry":13080,"ĠGarden":13081,"Ġmanslaughter":13082,"Ġtriv":13083,"Ġnob":13084,"olics":13085,"Ġloan":13086,"Ġvital":13087,"Ġhandled":13088,"Ġmocked":13089,"Ġcrad":13090,"Ġcrumb":13091,"azi":13092,"Ġglowing":13093,"Ġglorious":13094,"ĠInter":13095,"ava":13096,"Ġobese":13097,"ĠDeep":13098,"Ġrelated":13099,"ĠMayor":13100,"Ġtorso":13101,"Ġinvade":13102,"Ġmacho":13103,"Ġconvincing":13104,"ĠLeft":13105,"Ġlowlife":13106,"Ġcalf":13107,"Ġevac":13108,"Ġsafely":13109,"ĠEdgar":13110,"ĠWasn":13111,"Ġpractical":13112,"Ġpeeing":13113,"Ġjoining":13114,"Ġproduced":13115,"Ġcivilized":13116,"ĠCalm":13117,"ĠMalcolm":13118,"Ġmerciless":13119,"ĠSchmidt":13120,"Ġfroze":13121,"Ġtubes":13122,"Ġfacility":13123,"Ġpaintings":13124,"Ġhench":13125,"Ġlocals":13126,"Ġmockery":13127,"Ġachieved":13128,"ĠBernie":13129,"burg":13130,"Ġcurrently":13131,"Black":13132,"Ġsprink":13133,"ĠCollins":13134,"ĠCynthia":13135,"Ġbiker":13136,"ĠLaden":13137,"Ġcurtain":13138,"Ġshreds":13139,"Ġpeanuts":13140,"ĠAtlantic":13141,"Ġimpotent":13142,"ĠSylvia":13143,"Ġfunniest":13144,"Ġaberration":13145,"Ġinexper":13146,"ĠNapole":13147,"Ġsuperhero":13148,"Ġinsecure":13149,"uguese":13150,"Ġdramatic":13151,"Ġtrivial":13152,"bble":13153,"bury":13154,"cised":13155,"fold":13156,"hist":13157,"wait":13158,"wits":13159,"wives":13160,"heim":13161,"Ġbaz":13162,"Ġbuns":13163,"Ġmaze":13164,"Ġcured":13165,"Ġpets":13166,"Ġnations":13167,"enix":13168,"Ġeject":13169,"Ġstakes":13170,"Ġdegr":13171,"ĠBank":13172,"Ġwhoa":13173,"ĠDew":13174,"ĠDaw":13175,"ĠDante":13176,"Ġatomic":13177,"ĠCody":13178,"ĠLuck":13179,"ĠNeal":13180,"Ġleper":13181,"ĠPier":13182,"rial":13183,"ĠRubbish":13184,"Ġvas":13185,"Ġchoices":13186,"ĠKit":13187,"ĠKGB":13188,"eau":13189,"Ġcrummy":13190,"Ġstartled":13191,"ĠValley":13192,"Ġsketch":13193,"ocol":13194,"Ġsnooping":13195,"Ġdisgu":13196,"Ġmisunder":13197,"Ġdarkest":13198,"prise":13199,"ĠAsia":13200,"Ġdriveway":13201,"Ġeleven":13202,"Ġelement":13203,"erers":13204,"Ġstraighten":13205,"Ġbrawl":13206,"Ġreflect":13207,"ĠReggie":13208,"ĠHerm":13209,"Ġsupernatural":13210,"Ġprofile":13211,"Ġrises":13212,"Ġclasses":13213,"Ġevolution":13214,"ĠSmoke":13215,"Ġstrangely":13216,"Ġracial":13217,"Ġunderest":13218,"Ġvalues":13219,"Ġcups":13220,"annister":13221,"Ġmortgage":13222,"Ġpumped":13223,"ĠFinch":13224,"ĠBurning":13225,"Ġlevels":13226,"Ġengineer":13227,"Ġpiercing":13228,"ĠOlivia":13229,"killer":13230,"Ġfascinating":13231,"Ġassaulted":13232,"Ġfrogs":13233,"Ġcunts":13234,"Ġbugging":13235,"Ġunlikely":13236,"ĠBernard":13237,"Ġcollapse":13238,"Ġdisrespectful":13239,"Ġadministration":13240,"ĠCongress":13241,"Ġextended":13242,"Ġnecessarily":13243,"ĠPicard":13244,"ĠUniversity":13245,"Ġprogress":13246,"Ġcomparison":13247,"Ġjuvenile":13248,"hastly":13249,"Ġlollipop":13250,"Ġdoppelganger":13251,"By":13252,"aa":13253,"bu":13254,"fu":13255,"fried":13256,"list":13257,"rors":13258,"wash":13259,"Ġaisle":13260,"Ġbishop":13261,"Ġmourn":13262,"Ġmeteor":13263,"Ġdarts":13264,"ndel":13265,"Ġgarlic":13266,"Ġlair":13267,"anas":13268,"Ġhitch":13269,"Ġhides":13270,"Ġbeep":13271,"immer":13272,"aye":13273,"adel":13274,"alin":13275,"ĠTucker":13276,"ifle":13277,"ĠSnow":13278,"ĠWash":13279,"Ġrehe":13280,"Ġseized":13281,"ĠBos":13282,"ĠBene":13283,"Ġallig":13284,"ĠGand":13285,"Ġorang":13286,"Ġorbit":13287,"ĠThem":13288,"Ġmane":13289,"oda":13290,"aggot":13291,"ĠLion":13292,"ĠNin":13293,"ĠNasty":13294,"ĠJu":13295,"ĠOx":13296,"Ġlecher":13297,"ĠPost":13298,"ĠRow":13299,"ĠRet":13300,"ĠRiley":13301,"Ġvoid":13302,"Ġvoted":13303,"Ġexists":13304,"Ġsayin":13305,"ĠEthan":13306,"Ġcler":13307,"assador":13308,"bee":13309,"Ġunint":13310,"Ġcarve":13311,"shop":13312,"ĠStab":13313,"Ġcoup":13314,"Ġratted":13315,"Ġhousehold":13316,"Ġdesires":13317,"Ġclearing":13318,"Ġbund":13319,"Ġwarming":13320,"Ġresort":13321,"azed":13322,"Ġhardest":13323,"Ġsnatched":13324,"ĠLooking":13325,"Ġscape":13326,"ĠBrim":13327,"ĠBrun":13328,"cedes":13329,"Ġsideways":13330,"Ġtorped":13331,"Ġwindshield":13332,"Ġnerdy":13333,"Ġcolony":13334,"Ġmorally":13335,"Ġmorbid":13336,"Ġadvanced":13337,"Ġerror":13338,"Ġseventh":13339,"ĠAmaz":13340,"Ġmodels":13341,"guided":13342,"ĠRemove":13343,"Ġhalls":13344,"cano":13345,"Ġbenefits":13346,"Ġvacc":13347,"ĠSimpson":13348,"Ġtriple":13349,"Ġboredom":13350,"Ġflatten":13351,"Ġpilots":13352,"Ġinvestigator":13353,"uiser":13354,"ĠClaud":13355,"Ġcommunists":13356,"Ġmicrow":13357,"ĠSucks":13358,"Stop":13359,"cellor":13360,"Ġlobster":13361,"Ġsmuggling":13362,"Ġrailroad":13363,"Ġsealed":13364,"Ġtomato":13365,"ĠLawrence":13366,"Ġassigned":13367,"ĠPaige":13368,"Ġtribes":13369,"ĠMikey":13370,"Ġrectum":13371,"Ġwoeful":13372,"Ġflawed":13373,"ĠMallory":13374,"ĠBrenda":13375,"ĠShadow":13376,"driver":13377,"ourgeois":13378,"Ġvelvet":13379,"Ġimmoral":13380,"Ġparanoia":13381,"Ġdolph":13382,"ĠHouston":13383,"Jew":13384,"cs":13385,"eat":13386,"far":13387,"mong":13388,"Ġtel":13389,"Ġtummy":13390,"inates":13391,"Ġmig":13392,"Ġmates":13393,"llie":13394,"Ġooh":13395,"Ġlid":13396,"anus":13397,"Ġpharm":13398,"oran":13399,"Ġinability":13400,"omer":13401,"athan":13402,"Ġhaird":13403,"Ġstained":13404,"Ġruddy":13405,"sea":13406,"ico":13407,"ĠTap":13408,"ĠTai":13409,"ĠSet":13410,"Ġrend":13411,"Ġrept":13412,"chi":13413,"Ġoutcast":13414,"ĠHE":13415,"Ġdeals":13416,"Ġsoaked":13417,"ĠBug":13418,"Ġalleged":13419,"ĠDin":13420,"ĠDud":13421,"icky":13422,"abond":13423,"ĠJerk":13424,"ĠJuly":13425,"ĠOmar":13426,"riet":13427,"Ġtiming":13428,"ĠEin":13429,"obile":13430,"Ġhanding":13431,"Ġenvy":13432,"Ġflowing":13433,"Ġunderage":13434,"Ġrealizes":13435,"ogs":13436,"pens":13437,"Ġbaboon":13438,"ĠAllen":13439,"enses":13440,"ĠBlast":13441,"hart":13442,"Ġdamnedest":13443,"Ġwannabe":13444,"ĠMarch":13445,"Ġinfilt":13446,"iggle":13447,"ĠManny":13448,"Ġrefuses":13449,"Ġextract":13450,"Ġspeaker":13451,"Ġinnocents":13452,"ienced":13453,"goat":13454,"ĠFrenchman":13455,"ĠNeither":13456,"Ã©s":13457,"Ġprivates":13458,"Ġsights":13459,"isticated":13460,"Ġundead":13461,"Ġtelephone":13462,"Ġsplash":13463,"ĠSwiss":13464,"Ġ99":13465,"Ġblocking":13466,"Ġfortress":13467,"Ġaccounts":13468,"Ġrequire":13469,"ĠSanchez":13470,"ĠPalace":13471,"Ġmajority":13472,"Ġopinions":13473,"ĠAssass":13474,"Ġchewed":13475,"Ġsailors":13476,"omplete":13477,"ĠGreeks":13478,"Ġsandwiches":13479,"ĠHamilton":13480,"Ġdevelopment":13481,"Ġaccomplish":13482,"Ġassociate":13483,"Ġpursuit":13484,"ĠPortuguese":13485,"Ġvengeful":13486,"Ġvegetables":13487,"Ġdangling":13488,"Ġirrelevant":13489,"ĠCuban":13490,"ĠFelix":13491,"Ġmercenaries":13492,"Ġanxiety":13493,"Ġcontrary":13494,"ĠGovernor":13495,"ĠSawyer":13496,"ĠDexter":13497,"Ġconvenient":13498,"Ġsyndrome":13499,"Ġplunged":13500,"Ġimpatient":13501,"Ġmagnificent":13502,"degree":13503,"bons":13504,"gil":13505,"pow":13506,"press":13507,"Ġ_":13508,"Ġtet":13509,"Ġtant":13510,"Ġbid":13511,"Ġger":13512,"otted":13513,"Ġbehold":13514,"imeter":13515,"Ġmeals":13516,"Ġsty":13517,"Ġrupt":13518,"ĠTess":13519,"ĠSere":13520,"ĠSpr":13521,"Ġreign":13522,"Ġreception":13523,"Ġknuckles":13524,"ĠBou":13525,"ĠBubb":13526,"ĠBourne":13527,"Ġtran":13528,"Ġshithead":13529,"ulating":13530,"ĠPow":13531,"ĠPant":13532,"Ġspilling":13533,"Ġspleen":13534,"quila":13535,"Ġbridges":13536,"Ġconvention":13537,"Ġdeadl":13538,"Ġassured":13539,"ipes":13540,"Ġpointy":13541,"Ġhandker":13542,"Ġcoord":13543,"Ġmoaning":13544,"Ġune":13545,"Ġmadly":13546,"ectomy":13547,"ĠButt":13548,"Ġgrie":13549,"Ġcarot":13550,"Ġshared":13551,"Ġmenu":13552,"Ġdestined":13553,"Ġremoving":13554,"Ġpartly":13555,"Ġinsulting":13556,"Ġacce":13557,"Ġlottery":13558,"Ġtraces":13559,"Ġpref":13560,"Ġsounding":13561,"ĠBlind":13562,"oley":13563,"Ġsignature":13564,"ikh":13565,"iko":13566,"ĠYesterday":13567,"oofus":13568,"Ġsweetest":13569,"Ġdirtbag":13570,"ĠShaw":13571,"ĠSmart":13572,"Ġelectrical":13573,"iament":13574,"Ġtowels":13575,"Ġcampus":13576,"Ġexamine":13577,"ĠMadison":13578,"ĠMona":13579,"Ġsumm":13580,"ERS":13581,"ĠAlexander":13582,"icycle":13583,"Ġbaloney":13584,"Ġsneaky":13585,"ĠCathy":13586,"Ġlifeless":13587,"Ġwerewolves":13588,"Ġmanipulated":13589,"Ġunwanted":13590,"ĠDesp":13591,"Ġinstructed":13592,"Ġexhaust":13593,"Ġorphans":13594,"ĠFilip":13595,"ĠCyrus":13596,"ĠCompany":13597,"Ġbribe":13598,"ĠDumpster":13599,"ĠScotty":13600,"Ġsarcastic":13601,"Ġgratitude":13602,"Ġsplinter":13603,"Ġemptied":13604,"ĠGentlemen":13605,"Ġpropaganda":13606,"ĠIsaac":13607,"ĠCleveland":13608,"Ġhandkerchief":13609,"OP":13610,"azy":13611,"ebe":13612,"iors":13613,"miss":13614,"pass":13615,"rr":13616,"sn":13617,"worm":13618,"Ġfi":13619,"Ġcant":13620,"Ġcages":13621,"Ġpes":13622,"Ġpne":13623,"Ġpals":13624,"illes":13625,"Ġrational":13626,"ĠMine":13627,"ĠMaking":13628,"ĠGate":13629,"ĠGang":13630,"ĠGarr":13631,"indul":13632,"ulu":13633,"ĠLot":13634,"ĠNet":13635,"ĠNav":13636,"Ġanytime":13637,"Ġalibi":13638,"ĠPuss":13639,"Ġpepper":13640,"Ġdrums":13641,"Ġdownload":13642,"Ġprices":13643,"chester":13644,"Ġpox":13645,"Ġunits":13646,"Ġblackened":13647,"Ġkindness":13648,"ĠNoah":13649,"mans":13650,"ĠVas":13651,"ĠVill":13652,"ĠViv":13653,"Ġremorse":13654,"Ġdestroys":13655,"Ġperp":13656,"Ġpervers":13657,"Ġharvest":13658,"ĠBean":13659,"Ġgrabs":13660,"ibilities":13661,"Ġplanets":13662,"Ġopenly":13663,"Ġbushes":13664,"Ġboast":13665,"Ġboiling":13666,"aneous":13667,"Ġawaken":13668,"ippi":13669,"ĠMara":13670,"Ġeasiest":13671,"Ġcharging":13672,"ĠArmen":13673,"Ġgrounds":13674,"Ġprotocol":13675,"ĠDrink":13676,"Ġrocking":13677,"Ġbleedin":13678,"Ġcreation":13679,"Ġwildly":13680,"Ġsuspended":13681,"ophiles":13682,"Ġexplaining":13683,"ĠCarmen":13684,"denly":13685,"ĠColumb":13686,"Ġlimo":13687,"Ġantid":13688,"Ġsuggestion":13689,"Ġdirections":13690,"Ġflea":13691,"Ġsinful":13692,"Ġclaiming":13693,"Ġhyper":13694,"ĠPatty":13695,"Ġposted":13696,"Ġinclude":13697,"Ġslaughtering":13698,"Ġtournam":13699,"Ġprovoke":13700,"ĠBraz":13701,"Ġincludes":13702,"ĠSilver":13703,"Ġrented":13704,"Ġrevolver":13705,"ĠTerror":13706,"Ġspells":13707,"Ġfascists":13708,"Ġunbear":13709,"Ġbursting":13710,"ĠBarbie":13711,"Ġjewels":13712,"Ġcongratulations":13713,"Ġperformed":13714,"Ġknights":13715,"ĠKorea":13716,"Ġindividuals":13717,"Ġslippers":13718,"ĠFacebook":13719,"ĠInto":13720,"ĠCoward":13721,"ĠAshley":13722,"shaped":13723,"timer":13724,"ĠAcademy":13725,"Ġimmigrants":13726,"Ġstunned":13727,"Ġtoughest":13728,"ĠHearst":13729,"Ġregistered":13730,"Ġsearched":13731,"Ġghoul":13732,"ĠHudson":13733,"Ġhillbilly":13734,"16":13735,"Mad":13736,"Some":13737,"Tell":13738,"cop":13739,"dis":13740,"hill":13741,"uity":13742,"wa":13743,"Ġic":13744,"Ġwires":13745,"Ġdates":13746,"ĠIgn":13747,"Ġple":13748,"Ġpies":13749,"Ġnum":13750,"alie":13751,"Ġwhoring":13752,"rak":13753,"ĠSH":13754,"ĠSac":13755,"ĠSub":13756,"antern":13757,"ĠAk":13758,"ĠAid":13759,"Ġnoted":13760,"Ġsolo":13761,"entious":13762,"Ġalliance":13763,"Ġjustify":13764,"ĠCoke":13765,"ĠCale":13766,"ĠGeez":13767,"Ġmanic":13768,"Ġtripped":13769,"ĠLater":13770,"ĠNich":13771,"elf":13772,"ĠOri":13773,"osit":13774,"ĠPolly":13775,"Ġpluck":13776,"Ġpledge":13777,"Ġeveryday":13778,"ĠEasy":13779,"Ġbrig":13780,"Ġclamp":13781,"udo":13782,"ĠKhan":13783,"ĠKings":13784,"Ġpoly":13785,"Ġcarr":13786,"ordid":13787,"Ġchau":13788,"ĠVlad":13789,"isexual":13790,"ogen":13791,"--\"":13792,"Ġbabbling":13793,"Ġtracked":13794,"Ġserpent":13795,"Ġcontem":13796,"Ġcontrad":13797,"Ġschoolboy":13798,"Ġrelieve":13799,"ĠZach":13800,"Ġsmartass":13801,"Ġbooked":13802,"Ġcrystal":13803,"Ġsadly":13804,"Ġartists":13805,"Ġfastest":13806,"Ġdiner":13807,"Ġdifferently":13808,"Ġfigurehead":13809,"Ġvaginas":13810,"ĠSeb":13811,"Ġradar":13812,"Ġgladly":13813,"Ġsensual":13814,"ĠMadonna":13815,"deep":13816,"ettes":13817,"Ġformal":13818,"without":13819,"Ġinvestment":13820,"working":13821,"ĠSarge":13822,"icapped":13823,"Ġadmiral":13824,"Ġpsychopathic":13825,"Ġaiming":13826,"Ġcelebrity":13827,"Ġsuffocating":13828,"ĠCatholics":13829,"ĠMercedes":13830,"Ġmicroph":13831,"Ġsmacked":13832,"Ġnarcotics":13833,"Ġgraduate":13834,"ĠBailey":13835,"Ġchemistry":13836,"Ġnegroes":13837,"aughs":13838,"Ġhorrors":13839,"Ġdedicated":13840,"Ġhemorrho":13841,"Ġsupplies":13842,"ĠPakistan":13843,"Ġappointment":13844,"Ġfertil":13845,"ĠMcClane":13846,"deprec":13847,"Ġsurvivors":13848,"Ġbachelor":13849,"Ġcomedian":13850,"Ġindependent":13851,"Ġaccompanied":13852,"ĠPacific":13853,"Ġpneum":13854,"UM":13855,"ben":13856,"core":13857,"first":13858,"lict":13859,"mine":13860,"oca":13861,"inis":13862,"Ġsushi":13863,"Ġbrew":13864,"Ġmuddy":13865,"Ġdorks":13866,"Ġlinger":13867,"Ġpsy":13868,"Ġpits":13869,"Ġhoof":13870,"Ġitems":13871,"utter":13872,"illac":13873,"Ġecho":13874,"Ġstack":13875,"Ġstumbled":13876,"iri":13877,"raced":13878,"ĠSig":13879,"ĠSleep":13880,"ĠWorm":13881,"stant":13882,"Ġsequ":13883,"ĠHarb":13884,"ĠMorm":13885,"ĠMah":13886,"ilence":13887,"ĠCant":13888,"ĠGide":13889,"Ġmanif":13890,"Ġmanual":13891,"ablish":13892,"ĠNell":13893,"Ġlepre":13894,"olence":13895,"Ġpeck":13896,"Ġspun":13897,"Ġspons":13898,"ĠRidge":13899,"Ġchoir":13900,"Ġchriss":13901,"thole":13902,"Ġhandicapped":13903,"Ġfatter":13904,"Ġcramp":13905,"Ġcruise":13906,"Ġgrubby":13907,"ĠSheila":13908,"Ġshaped":13909,"gets":13910,"ĠChop":13911,"ĠhelI":13912,"ĠUr":13913,"ĠBecca":13914,"Ġpigheaded":13915,"Ġimpact":13916,"Ġsnarled":13917,"ĠJustice":13918,"uces":13919,"Ġburly":13920,"Ġsteady":13921,"attract":13922,"ĠOrder":13923,"Ġskinned":13924,"Ġgene":13925,"Ġreduce":13926,"ĠZack":13927,"Ġdelay":13928,"Ġwinners":13929,"ructor":13930,"Ġmorals":13931,"Ġpurcha":13932,"Ġfills":13933,"Ġmasses":13934,"Ġmutants":13935,"Ġfixing":13936,"Ġsystems":13937,"ĠKingdom":13938,"ĠFlint":13939,"Ġexamined":13940,"Ġchops":13941,"Ġchopping":13942,"ottom":13943,"Ġsnee":13944,"Ġadmir":13945,"Ġmalar":13946,"Ġmerchant":13947,"Ġillegitimate":13948,"ographic":13949,"ĠJeffrey":13950,"Ġroughly":13951,"ĠPalest":13952,"Ġturds":13953,"ĠSpani":13954,"Ġmatches":13955,"Ġbiological":13956,"Ġarrival":13957,"uzzy":13958,"ĠGolden":13959,"ĠMontana":13960,"Ġconceal":13961,"ĠMurray":13962,"Ġclutching":13963,"Ġprosec":13964,"Ġsqueezing":13965,"Ġmechanic":13966,"Ġensla":13967,"Ġchapter":13968,"Ġphilosophy":13969,"Ġdismissed":13970,"ĠBuddha":13971,"ĠCindy":13972,"ocrats":13973,"Ġfleeing":13974,"ĠCadillac":13975,"ĠSuddenly":13976,"Ġpyramid":13977,"Ġdebauchery":13978,"oubted":13979,"Ġcesspool":13980,"ĠAbraham":13981,"Ġridiculed":13982,"Ġleprecha":13983,"'-":13984,"AC":13985,"Cl":13986,"Jack":13987,"Please":13988,"big":13989,"bred":13990,"cream":13991,"fi":13992,"gas":13993,"ihad":13994,"mat":13995,"mitted":13996,"tu":13997,"zers":13998,"Î¿":13999,"Ġmixture":14000,"nda":14001,"Ġlapt":14002,"Ġpens":14003,"Ġnom":14004,"Ġliability":14005,"Ġstere":14006,"Ġstations":14007,"ĠTie":14008,"ĠSod":14009,"ĠSaul":14010,"Ġren":14011,"stra":14012,"allas":14013,"ĠHIV":14014,"ĠMered":14015,"ĠBark":14016,"ĠBuff":14017,"ĠBella":14018,"ĠBalls":14019,"Ġframed":14020,"ĠDob":14021,"ĠDub":14022,"Ġabusive":14023,"ctions":14024,"ĠGhost":14025,"Ġblaming":14026,"ĠLan":14027,"ĠLow":14028,"ĠNigel":14029,"Ġalike":14030,"ĠFoley":14031,"Ġspar":14032,"ĠRaj":14033,"Ġdrone":14034,"ishly":14035,"ĠKur":14036,"Ġovercome":14037,"Ġunin":14038,"Ġmonks":14039,"ugar":14040,"ubs":14041,"umped":14042,"ĠChicken":14043,"Ġworlds":14044,"Ġminimum":14045,"Ġidioc":14046,"Ġcounted":14047,"Ġdoorstep":14048,"ipple":14049,"Ġpromoted":14050,"Ġdelusions":14051,"Ġrockets":14052,"Ġpuzzle":14053,"brush":14054,"Ġterrorism":14055,"claimed":14056,"ĠPeace":14057,"Ġdraws":14058,"Ġerased":14059,"Ġcrackpot":14060,"ĠConn":14061,"Ġ150":14062,"urable":14063,"Ġsharply":14064,"Ġpanel":14065,"Ġbanished":14066,"Ġraining":14067,"Ġefficient":14068,"ĠBurns":14069,"Ġarrives":14070,"Ġeffects":14071,"Ġorigin":14072,"Ġjersey":14073,"Ġsniffed":14074,"ĠDenver":14075,"Ġpulp":14076,"ĠWhenever":14077,"Ġgorillas":14078,"Ġholidays":14079,"Ġsteroids":14080,"Ġfrakking":14081,"Ġreeks":14082,"ĠForeman":14083,"Ġinherited":14084,"ĠOtto":14085,"Ġdecorated":14086,"Ġanxious":14087,"Ġchooses":14088,"Ġejaculated":14089,"ĠCommunists":14090,"Ġindifferent":14091,"Ġprivilege":14092,"Ġdeceitful":14093,"Ġnymph":14094,"ĠGriffin":14095,"Ġhybrid":14096,"Ġaccurate":14097,"Ġwestern":14098,"ĠMoore":14099,"ĠNapoleon":14100,"Ġcarotid":14101,"25":14102,"40":14103,"Ex":14104,"Here":14105,"Le":14106,"Me":14107,"UGH":14108,"ds":14109,"gled":14110,"iated":14111,"mn":14112,"mout":14113,"pin":14114,"rade":14115,"uations":14116,"yeah":14117,"hee":14118,"Ġaer":14119,"Ġsings":14120,"reas":14121,"real":14122,"Ġbourgeois":14123,"Ġmature":14124,"Ġmoth":14125,"Ġmaker":14126,"Ġduke":14127,"ingu":14128,"Ġoak":14129,"Ġgown":14130,"Ġpint":14131,"orld":14132,"oto":14133,"Ġbeads":14134,"user":14135,"Ġhast":14136,"Ġkangar":14137,"idable":14138,"Ġstable":14139,"Ġstroll":14140,"Ġmyst":14141,"ĠTook":14142,"ifty":14143,"ĠSU":14144,"ĠWong":14145,"Ġreview":14146,"stained":14147,"ĠAg":14148,"ĠAut":14149,"Ġseas":14150,"urbs":14151,"unless":14152,"Ġdement":14153,"Ġsocially":14154,"ĠMoses":14155,"ĠDim":14156,"Ġtrusting":14157,"aki":14158,"agin":14159,"ulty":14160,"ĠNigga":14161,"ĠPower":14162,"ĠRaw":14163,"Ġexit":14164,"quer":14165,"Ġbran":14166,"through":14167,"Ġunle":14168,"Ġunsc":14169,"Ġunlock":14170,"Ġquar":14171,"plain":14172,"Ġshowers":14173,"ilyn":14174,"ĠBeen":14175,"Ġhumour":14176,"Ġpushes":14177,"Ġhottest":14178,"Ġimpulse":14179,"Ġsnuck":14180,"Ġmisguided":14181,"ĠBrooke":14182,"Ġcurb":14183,"Ġincest":14184,"Ġdemol":14185,"Ġbombed":14186,"Ġsquash":14187,"Ġwitchcraft":14188,"ĠAnsw":14189,"Ġfellows":14190,"Ġinvasion":14191,"ĠClaren":14192,"Ġdeter":14193,"Ġsilic":14194,"Ġstudies":14195,"Ġviolation":14196,"Ġcontinent":14197,"Ġboyfriends":14198,"ĠPerry":14199,"Ġdivine":14200,"ylons":14201,"Ġformidable":14202,"Ġundoubted":14203,"Ġtaller":14204,"Ġpinky":14205,"ĠSantos":14206,"Ġexterminator":14207,"Ġmerciful":14208,"ĠSchool":14209,"ĠCorps":14210,"Ġscarred":14211,"Ġcaves":14212,"ĠErn":14213,"Ġturf":14214,"ĠNegroes":14215,"Ġspineless":14216,"ĠIda":14217,"Ġblowjobs":14218,"Ġconceited":14219,"ĠHorse":14220,"Ġvirtually":14221,"Ġsausages":14222,"Ġcheerleaders":14223,"Ġcurtains":14224,"ĠCareful":14225,"Ġyanked":14226,"Ġinterrogation":14227,"Ġknucklehead":14228,"Ġchoosing":14229,"Ġbouncing":14230,"Ġunbelievable":14231,"Ġchimpan":14232,"Ġathlet":14233,"Ġamputate":14234,"Ġinfernal":14235,"ĠMeanwhile":14236,"ĠAgnes":14237,"ĠFerrari":14238,"Ġdebris":14239,"ĠMeredith":14240,"38":14241,"Sl":14242,"TS":14243,"apped":14244,"bies":14245,"could":14246,"cers":14247,"fter":14248,"gos":14249,"hit":14250,"Ġtapping":14251,"inations":14252,"Ġwink":14253,"Ġsard":14254,"Ġsung":14255,"Ġbatch":14256,"Ġbung":14257,"Ġbapt":14258,"Ġdorm":14259,"Ġtops":14260,"Ġtoaster":14261,"Ġghastly":14262,"eda":14263,"vember":14264,"hattan":14265,"owl":14266,"ushes":14267,"Ġstoo":14268,"Ġdock":14269,"ĠTrent":14270,"lying":14271,"ĠWha":14272,"ĠWol":14273,"Ġreun":14274,"ĠAch":14275,"Ġareas":14276,"ĠMut":14277,"ĠBuster":14278,"ĠCord":14279,"ĠGust":14280,"ulent":14281,"ittens":14282,"redictable":14283,"ĠOre":14284,"geons":14285,"ĠKer":14286,
[...]
