#version: 0.2
Ġ t
h e
Ġ a
o u
i n
Ġ w
Ġ s
Ġt he
r e
Ġ y
Ġy ou
Ġ b
Ġ m
o n
h a
Ġ d
l l
i t
Ġ I
n d
Ġ f
in g
Ġ c
e r
i s
Ġt o
Ġ o
Ġ g
Ġ l
a n
Ġ he
. .
e d
Ġ p
Ġa nd
Ġ h
o r
v e
ha t
Ġo f
e s
Ġ n
c k
o t
Ġ in
e n
' s
a s
o m
a r
Ġt h
a t
o w
Ġb e
u s
Ġ ha
Ġ k
e t
l e
Ġ it
' t
u t
i d
i ll
Ġ on
i m
l d
k e
Ġm e
Ġ e
Ġt hat
a y
Ġw e
Ġyou r
ou t
.. .
a d
o o
Ġl i
g h
Ġs t
Ġ is
Ġs h
it h
a l
Ġ r
s e
a m
Ġ u
i c
Ġw ith
Ġm y
Ġd o
Ġw as
Ġ T
i r
Ġf or
v er
u ck
' re
i f
Ġw h
Ġha ve
r a
Ġa n
l y
gh t
Ġ S
Ġ W
ou ld
Ġ re
an t
Ġ Y
c h
Ġh im
Ġ "
s t
Ġth is
Ġ j
Ġd on
i e
Ġ A
Ġli ke
us t
Ġg o
Ġs e
' m
a ll
u r
Ġk ill
om e
he r
Ġa s
ĠY ou
c e
Ġ out
Ġk n
Ġh is
Ġf uck
Ġ H
Ġ if
Ġn ot
Ġu p
Ġb ut
Ġhe r
o p
u n
Ġw hat
Ġd e
Ġthe y
Ġg et
Ġa re
' ll
Ġs o
en t
i ght
Ġ M
Ġc an
Ġ B
Ġw ant
r o
Ġkn ow
i l
Ġa ll
i on
Ġf r
a ck
Ġwh o
Ġ D
on e
Ġw he
e ll
Ġn e
Ġa b
t er
Ġa t
a ke
Ġj ust
Ġ C
c t
Ġ G
Ġs he
Ġo r
in k
us e
oo k
es s
n a
i ck
o re
i g
ĠT he
Ġb l
Ġw ill
Ġon e
h ing
i ve
Ġthe m
Ġm an
Ġab out
in d
Ġt r
Ġd id
oo d
Ġw ould
a k
o d
Ġhe ll
p p
a g
u m
as t
am n
Ġs ome
c a
Ġhe re
Ġs a
er s
ar t
Ġsh it
ou r
Ġwhe n
Ġn o
on na
u l
Ġfuck ing
Ġth ink
Ġg onna
Ġs u
es t
a nd
Ġthe re
a b
Ġ L
ver y
Ġw or
Ġha d
Ġof f
is t
Ġ N
all y
Ġfr om
Ġ J
Ġan y
a in
e l
it t
re d
Ġ O
ĠH e
Ġ us
Ġc ra
o s
l f
Ġg ot
Ġg u
Ġwe re
Ġl ook
Ġl e
ca use
Ġa l
ha n
ou nd
Ġ P
Ġ F
ou s
Ġgo ing
.. ..
ve n
e p
o l
ow n
r i
ar d
' ve
ot her
Ġp l
Ġc ould
f e
' d
Ġn ow
Ġin t
Ġp e
Ġs p
Ġ R
r y
Ġl o
Ġ v
Ġe x
Ġb ack
Ġthe n
ĠA nd
on g
u ll
at e
Ġt im
Ġse e
Ġa r
am e
a ce
itt le
z y
Ġd amn
q u
id e
. "
Ġgu y
Ġ ...
Ġe very
Ġth ing
Ġ -
Ġl ittle
Ġd ie
Ġr ight
Ġkill ed
o se
ĠI t
Ġc om
w ay
a re
Ġ '
Ġs ay
Ġb y
op le
Ġh ow
ĠW hat
n t
Ġbe cause
Ġsa id
Ġcra zy
Ġs c
a p
Ġto o
o ot
al k
Ġt ake
Ġpe ople
g e
Ġ E
Ġb r
ou gh
Ġtim e
Ġhe ad
at h
Ġt ell
Ġse x
oo l
Ġf e
Ġe ven
Ġint o
b le
re s
Ġd r
ic e
Ġc on
se lf
i es
Ġd own
u p
Ġa g
Ġdid n
Ġw om
Ġl et
ur n
Ġthe ir
Ġde ad
Ġas s
Ġc l
t y
is h
e ar
in e
Ġt han
Ġs m
Ġg ir
o y
it e
Ġon ly
Ġc h
Ġt w
Ġg ive
e m
at ion
u d
Ġ our
Ġp ro
t h
Ġm ore
is s
Ġ K
i p
as s
ĠW e
Ġp ut
Ġwh y
om et
Ġbe en
t hing
e a
ou ght
Ġsh ould
Ġgir l
Ġp r
i re
t her
Ġc ome
Ġm ake
o b
Ġre ally
c he
Ġp o
Ġha nd
Ġs omet
Ġc o
Ġo ver
Ġm o
ĠI f
Ġt alk
Ġdo es
a ve
od y
ĠG od
Ġsh oot
Ġg ood
Ġne ed
f ore
b e
it y
Ġbe t
ie nd
Ġth r
u re
f f
re at
Ġo ld
Ġme an
Ġli fe
Ġf at
Ġu n
Ġ qu
or t
Ġc all
l ess
Ġth ose
y ing
Ġb ad
v ing
Ġs l
w n
Ġo ther
Ġbe fore
.... ..
Ġha s
Ġw ay
Ġ en
Ġag ain
i ed
a u
Ġtw o
Ġm ad
ag e
â Ģ
Ġwhe re
, "
e ct
Ġsomet hing
p l
Ġbl ood
ĠW h
Ġd ay
re e
i an
Ġc r
Ġb ig
ĠT hat
ĠT h
n g
Ġa m
Ġth ought
a c
d d
Ġsh ot
Ġa f
t ing
Ġne ver
Ġc ut
ur d
Ġm ay
Ġf ool
re w
Ġwom an
an g
Ġde ath
Ġd is
Ġthe se
nd er
Ġbl ack
up id
Ġdo ing
Ġk id
Ġw on
ic h
e w
ĠB ut
as e
u e
re t
ra in
Ġg r
ea h
ir st
b er
or n
Ġs w
i z
ĠS he
Ġk e
Ġar ound
i le
ĠThe y
it ch
Ġf ace
Ġst upid
Ġsome one
Ġm on
Ġf ind
Ġfr iend
on s
Ġc ar
u g
Ġst ill
Ġb re
Ġ hat
Ġf l
Ġr o
i ld
Ġr id
s h
Ġha pp
ĠO h
Ġm u
un k
ab le
Ġs ha
Ġf irst
a ch
v ed
Ġb oy
Ġst op
Ġ use
u b
if e
ĠS t
Ġlo ve
Ġc ou
ou se
ĠS o
n y
Ġke ep
Ġ im
Ġwor k
Ġbe l
Ġto ld
at ch
Ġwe ll
Ġmu ch
Ġc are
Ġe ver
Ġh it
Ġw r
Ġsh ut
Ġc he
Ġu nder
Ġo wn
g et
ĠS h
Ġa way
Ġb ull
p t
or d
ak ing
Ġdoes n
Ġaf ter
Ġany thing
Ġf a
Ġh o
ad y
one y
f t
Ġm urd
Ġm other
res s
Ġy ear
i ous
ar k
p er
Ġn ight
Ġg un
ve s
Ġl ast
Ġs le
m ent
Ġk ind
Ġm ust
Ġe y
Ġc ha
ĠN o
Ġfe el
Ġwant ed
Ġbe ing
au ght
on d
out h
he re
ĠTh is
Ġm en
Ġbet ter
Ġt urn
way s
Ġst art
Ġl ong
um p
Ġdo g
Ġs uck
a it
Ġd est
Ġb rain
k ay
o ck
n e
m an
s y
Ġre al
b ody
f ul
ĠC h
v il
Ġkill ing
Ġwor ld
Ġs ick
Ġ 1
Ġ V
Ġhe l
Ġfat her
Ġre m
an k
Ġm oney
Ġal ways
ĠW ell
ic t
is e
Ġsc rew
en ce
Ġp art
Ġin s
Ġpl ay
Ġt er
ro y
Ġe nd
Ġsh ow
e red
Ġwh ich
Ġbel ie
Ġa c
Ġs k
Ġr at
Ġsu ch
Ġguy s
Ġm outh
Ġb all
Ġ very
i ly
an s
Ġt e
at ed
Ġhapp en
Ġtalk ing
re n
Ġh ouse
Ġm ind
Ġb urn
Ġas k
o g
Ġo h
Ġnot hing
Ġhel p
Ġb ot
Ġhand s
i a
ĠD on
Ġtr ying
Ġl ot
Ġs on
a il
Ġbr other
Ġdest roy
at ing
Ġp er
ĠM r
Ġsu re
Ġmay be
Ġwho le
Ġm om
Ġd es
Ġen ough
Ġthr ough
p e
Ġha r
Ġthing s
Ġmad e
st er
Ġa ct
s s
Ġr un
Ġe l
Ġgo dd
ig n
en se
ir d
Ġat t
Ġf ire
in t
Ġfuck ed
Ġ U
a w
Ġsp e
Ġpl ace
! "
he d
Ġyear s
Ġw ait
Ġd ir
Ġh ome
u ff
g er
Ġwom en
ĠB e
ĠG et
ar y
ic ul
? "
Ġan other
Ġtoo k
Ġyour self
Ġevery thing
Ġw ife
Ġm ight
Ġsle ep
Ġwith out
he n
Ġse c
Ġst r
m er
Ġhat e
os s
w e
i et
ist en
Ġth ree
Ġc han
0 0
Ġu nt
- -
e ver
un ch
as h
p en
p le
Ġwh ite
at er
Ġm ess
Ġg ra
Ġbelie ve
che d
Ġwould n
Ġdon e
d ay
an ce
Ġgodd amn
x t
Ġb ab
Ġmo st
i al
ĠWh y
u al
Ġpo or
Ġk ick
Ġp ret
n ing
o c
Ġg reat
l es
Ġthr ow
ers on
Ġt ra
Ġf un
ak es
Ġc ame
Ġle ave
Ġle ft
um b
Ġch ild
h o
ĠN ow
op e
or y
Ġunt il
ar s
e k
i gh
Ġf am
ab ly
Ġey es
Ġblood y
m y
ĠY eah
Ġc op
Ġb ody
Ġne w
Ġc le
Ġb itch
or s
Ġany one
Ġh um
ĠH ow
Ġhim self
Ġkn ew
m s
on t
Ġe at
Ġo kay
re am
Ġs ame
ur t
ĠM y
Ġmurd er
ill y
Ġbl ow
Ġevery one
ri ble
Ġs er
Ġcon t
âĢ Ļ
or ry
i b
l ed
Ġcra p
Ġhe art
icul ous
d er
ĠYou r
Ġel se
r ow
Ġtr y
Ġbe at
p ect
Ġwant s
ud e
m ed
Ġp re
Ġsm ell
Ġn ame
o ll
Ġbut t
Ġb u
Ġm in
Ġy eah
Ġdir ty
Ġh u
ut e
Ġw ar
Ġon ce
e re
Ġsu pp
ĠD amn
Ġbab y
Ġrid iculous
Ġb it
am p
in ce
Ġbr ing
Ġkill er
Ġl os
Ġre s
Ġj ob
b ably
Ġm ar
ion s
Ġpl an
Ġuse less
Ġha ng
Ġp ig
Ġ .
Ġf re
le ase
Ġa d
l ing
ĠD o
o ke
Ġp ull
n ess
Ġ ide
Ġbre ak
Ġo pen
o h
pp ed
g g
Ġlook ing
Ġman y
is on
Ġb us
Ġf ound
sh it
Ġl isten
Ġball s
i x
i red
ke y
Ġp erson
Ġwh ile
os ed
Ġw atch
ro ss
Ġf ight
Ġp us
Ġh ot
Ġne xt
Ġle g
a z
Ġtr ied
Ġne ck
o st
u ally
Ġp at
al s
che s
Ġb est
Ġpro bably
Ġcom pl
y ou
or m
Ġe m
Ġgirl s
ĠA ll
Ġhar d
s o
Ġs ur
Ġfam ily
is ter
Ġb ro
ar b
Ġp h
Ġs orry
ast ard
ul t
Ġbot h
Ġg ay
i ke
Ġmy self
Ġw ent
p s
et s
Ġli ve
Ġre st
Ġ id
Ġwr ong
a id
Ġhe ar
er t
ow er
Ġha lf
Ġs ch
Ġcou nt
ic al
Ġcom m
e e
Ġg l
Ġst ay
ĠI n
ĠF uck
i ot
Ġget ting
Ġp ol
Ġf in
Ġb o
Ġwas n
ut s
Ġde c
et e
Ġ 2
Ġs it
aught er
Ġsa w
Ġp iss
Ġc our
t e
Ġu g
Ġim p
i ble
Ġkid s
Ġpret ty
Ġfriend s
Ġro om
ri ed
Ġfuck in
Ġb astard
Ġcom p
i er
un g
he ad
Ġw alk
ĠThe re
Ġac c
Ġh urt
Ġst and
om b
Ġse en
an c
em ber
h ind
Ġsay s
Ġter rible
Ġs n
ĠW hen
en s
Ġha ir
Ġdr ink
Ġa pp
Ġd ad
t he
Ġdo or
Ġs illy
Ġfr ont
ĠWh o
Ġst uff
r ist
ĠHe y
a v
Ġcall ed
it her
Ġc ow
Ġwor d
Ġbe hind
t ed
i v
Ġide a
get her
it s
Ġs ound
Ġo b
ĠJ ust
u c
Ġh our
n er
o k
Ġp ie
Ġug ly
a ct
Ġg ave
Ġqu iet
Ġto gether
at ter
Ġdis g
Ġk iss
Ġscrew ed
ĠF r
e y
ar n
Ġg one
Ġf ull
ĠL ook
Ġh or
Ġin st
Ġlook ed
Ġyou ng
t en
Ġlo st
Ġs ca
ĠB l
in ess
Ġb ed
itt ing
in s
as on
Ġlook s
t a
ant s
Ġm is
Ġbe c
Ġto day
fe ct
ha r
Ġre c
ĠD e
Ġd ick
Ġpro ble
p ed
Ġb ur
an e
Ġde al
Ġd ra
Ġget s
ĠB r
Ġsch ool
Ġus ed
an na
Ġm iss
Ġt ou
Ġ (
Ġwe ek
ĠThe n
Ġrem ember
Ġagain st
Ġc ur
Ġunder st
ĠL et
he t
Ġso on
Ġhe ard
Ġr ap
Ġan im
Ġst e
Ġid iot
Ġp ay
Ġp ain
Ġp ick
Ġa in
e nd
ĠSh it
Ġ ent
Ġsec ond
b ed
Ġsay ing
Ġd ied
a le
k s
Ġa w
Ġin c
ĠCh rist
et h
re ady
ad e
Ġdamn ed
iz e
Ġcould n
Ġhe y
o ve
Ġbull shit
Ġh ope
ĠA re
Ġdr unk
Ġp lease
Ġtim es
Ġh us
Ġis n
un t
Ġbre ast
Ġal ready
Ġha ving
at t
e c
Ġn ice
Ġst re
Ġa p
Ġe ach
Ġcr im
ons ense
Ġsupp osed
Ġit s
ro at
Ġse nd
ian s
ust ing
w here
Ġhum an
Ġcompl ete
b and
ak ed
d y
ou l
Ġs ent
Ġde vil
we en
i ent
Ġpo int
Ġre l
o ld
Ġmon ster
Ġre p
Ġb unch
Ġy es
Ġunderst and
ie f
Ġt aking
Ġ âĢ
ce pt
arb age
Ġal one
Ġre t
m ost
Ġhappen ed
or k
a ir
ĠI s
Ġle ast
Ġcou ple
Ġs ister
Ġf ing
Ġth roat
ĠO r
ard s
Ġex pl
b y
Ġal so
Ġatt ack
Ġdr ug
mer ic
Ġknow s
Ġday s
Ġd aughter
Ġn onsense
Ġg arbage
Ġf il
d ing
Ġw anna
Ġfa ct
us h
Ġbet ween
g ed
Ġst ick
ĠA l
a ut
Ġal ive
ak en
Ġde m
r iend
Ġhus band
g in
Ġl au
ut es
he s
Ġm atter
ĠW here
e x
are nt
as ter
Ġs ince
Ġmo ve
Ġmis er
Ġm akes
is ed
Ġbus iness
Ġb le
Ġp ar
g ot
Ġc or
Ġst ab
Ġp ower
Ġex c
ist s
sy ch
Ġf ar
ĠA meric
Ġal most
ing s
ĠBe cause
Ġf all
ct or
Ġsk in
Ġf ore
Ġe ither
Ġfe w
Ġcount ry
Ġcour se
Ġfre ak
c es
m or
Ġho le
e ad
het ic
ĠM ay
i pp
ang er
Ġs et
m e
Ġb omb
if ul
Ġcom es
Ġlos er
ĠM ar
Ġg en
im es
Ġbe aut
Ġm id
Ġp un
Ġb ag
ct ion
ĠF or
? !
ar ly
Ġdr op
Ġshoot ing
at s
Ġl aw
c ed
Ġf ive
Ġgu ess
Ġsw e
if f
ĠN ot
Ġs ide
Ġre d
oh n
i ver
Ġho ld
Ġd ark
Ġp sych
Ġh igh
Ġmon th
ou ble
Ġl uck
Ġm ent
Ġm orn
Ġr u
Ġs qu
Ġwe ird
Ġfun ny
Y ou
Ġf ree
at es
a x
id ent
Ġst ink
Ġin ter
Ġcon s
Ġe as
Ġm aking
it ion
Ġpr om
a pp
Ġdisg usting
ar r
Ġpus sy
Ġe vil
Ġproble m
Ġcle an
l and
Ġmorn ing
m en
Ġ es
t o
Ġre ason
ap t
Ġli ght
Ġbull et
Ġm et
Ġtou ch
at her
Ġmean s
ut h
Ġfool ish
u red
ast y
Ġag o
ar ing
a h
p r
Ġr ob
Ġchan ce
Ġab s
Ġch ick
Ġturn ed
j ect
Ġw itch
Ġd umb
art h
ra id
y s
ĠC ome
se l
Ġm ist
Ġmon key
Ġpat hetic
Ġwhat ever
Ġfe et
ĠJ es
Ġm ag
Ġwor th
Ġc ase
Ġli e
ĠSh ut
c i
Ġf our
Ġthink ing
Ġey e
Ġin f
Ġab le
s ed
Ġp ass
Ġsm all
Ġto r
Ġstart ed
Ġche st
Ġaf raid
er k
in es
Ġf oll
ĠJ ohn
Ġg re
a red
ou nt
r ic
Ġgo es
r or
o le
o ice
Ġins ide
Ġco ck
Ġask ed
Ġhour s
Ġt aken
Ġfor get
Ġcop s
Ġb ar
Ġst ra
w ard
Ġ Q
c her
at ic
Ġse lf
ĠA n
Ġpie ce
Ġ 3
ĠA s
p h
Ġcl ose
Ġd ies
ic ide
Ġsex ual
Ġf ell
Ġto wn
ĠS ome
Ġpol ice
Ġmin utes
e g
Ġco ll
Ġcha r
Ġmiser able
Ġth ough
Ġco ld
Ġchild ren
Ġw all
Ġcom ing
Ġw ater
Ġtell ing
Ġp oss
at or
el t
Ġw ind
Ġsa ve
. '
Ġg ame
u res
Ġn asty
Ġse ll
Ġc ity
ra ct
Ġrat her
Ġwor se
Ġn aked
ĠA r
Ġno se
Ġs ing
ho le
Ġph one
Ġr ot
Ġgr ound
Ġt ea
b ut
Ġthink s
Ġhapp y
ĠT o
Ġb ird
us s
Ġbeaut iful
Ġg i
ĠMay be
Ġcomplete ly
Ġsome body
Ġbreast s
c ess
c le
am es
Ġm il
l er
er n
ĠJ ack
Ġgot ta
ĠJ ew
Ġre ad
Ġcon f
o e
d le
Ġkn ife
Ġin v
on y
Ġl ady
Ġdr ive
ĠJes us
Ġwe ak
Ġc reat
in ed
Ġf ig
Ġs oul
id es
Ġlo se
Ġso ld
f uck
Ġle ad
ĠO kay
Ġbec ome
Ġhu h
t s
z e
Ġ Z
im p
ig g
Ġare n
on es
o or
Ġy et
Ġp en
Ġl ess
ol og
Ġleg s
Ġc atch
Ġto t
Ġboy s
Ġme et
Ġd ump
k es
c y
Ġsca red
ĠC l
Ġsc ream
Ġsh ip
Ġgra nd
Ġd ying
Ġd ress
Ġa ir
Ġqu est
Ġp arent
Ġs y
Ġc at
iz ed
Ġh on
Ġt ong
Ġan g
ĠH ell
a use
Ġwait ing
Ġanim al
sel ves
Ġre ady
Ġcrim in
s w
ĠO ne
if fe
ck ed
ate ly
Ġany way
ĠD id
Ġv amp
Ġsm art
im e
ĠE very
Ġd ream
Ġp ri
Ġpr ison
Ġ ill
Ġm ill
ious ly
ĠH is
Ġp ict
Ġpr ot
Ġb ook
Ġrun ning
Ġde l
m ore
Ġe le
Ġmom ent
Ġte eth
Ġ ign
Ġj unk
Ġyour s
Ġor g
Ġst ri
ar l
Ġfoll ow
is hed
Ġp res
Ġc aught
ĠO n
Ġbot t
ub b
Ġa dd
Ġlau gh
m it
ic ally
Ġv ir
Ġinst ead
Ġl ying
on ight
Ġf elt
Ġex pect
g r
Ġhave n
ĠG o
ĠM an
ĠU n
Ġw ish
Ġqu ick
Ġto mor
ĠS c
Ġtomor row
b all
Ġli ves
am a
el s
Ġwon der
Ġsu icide
Ġstre et
re nt
Ġd ude
Ġn uts
Ġbu y
Ġs ign
Ġt reat
Ġwor st
er ing
r ay
Ġpart y
Ġde f
Ġj erk
Ġact ually
Ġs itting
it ed
it al
Ġh ook
Ġd ri
Ġtong ue
m in
Ġre g
ter s
ou d
ĠD r
âĢ Ŀ
Ġc ry
Ġkn ock
Ġj ump
Ġf oot
v ie
Ġspe nd
Ġd anger
Ġd iffe
Ġp ants
ve l
Ġor d
Ġparent s
o on
Ġw in
Ġ z
re st
Ġwho re
Ġtr uth
Ġim ag
Ġap art
s on
Ġp unk
Ġs ix
en e
t on
ation s
Ġth reat
Ġr an
Ġs ake
Ġsu ff
Ġs ir
Ġt onight
Ġm us
Ġtr ouble
Ġb as
Ġsuck s
Ġgr ow
ĠC an
Ġle arn
th y
ro om
Ġex ec
oo se
i o
Ġ 5
in a
b s
ĠN ew
i k
a f
Ġsomet imes
Ġent ire
Ġli ving
r u
ro g
ere st
ro l
Ġd ou
Ġn er
T he
s ide
Ġd et
Ġdo ctor
Ġro ck
Ġtr ust
ut ion
ĠY es
Ġf ood
us ed
b l
Ġpr op
Ġplay ing
Ġchan ge
Ġdes er
Ġr a
o id
Ġany more
Ġin d
Ġb oss
Ġan sw
n ed
Ġble ed
it or
ere r
Ġst ory
ert ain
Ġwas te
Ġk ing
ic s
ep t
Ġmar ried
Ġl ater
Ġcl own
Ġde p
Ġs at
Ġcl ot
Ġt est
Ġv ict
Ġc re
Ġtr ash
Ġm ine
Ġkill s
Ġsw ear
Ġsec ret
ver s
ĠS p
Ġstra ight
Ġburn ed
um ber
Ġfin ally
Ġste al
Ġst ar
sh ip
Ġb ra
Ġsle pt
lf riend
Ġs il
Ġgra b
ent s
Ġv oice
Ġwork ing
Ġhor se
Ġor der
oo f
Ġother s
Ġ- -
d amn
Ġpo ison
Ġins ane
y p
Ġgo d
Ġmonth s
Ġ ir
Ġs ad
i pped
dd en
Ġfing er
ĠH ar
ig ger
ĠK ill
ĠA f
Ġc ol
Ġint erest
apt ain
Ġ $
Ġan n
Ġn ut
ĠC har
Ġt rain
Ġbrain s
Ġtr ue
Ġkick ed
Ġm ed
Ġf ly
Ġsound s
c ial
Ġwe ap
Ġass hole
Ġen em
Ġsu dden
, '
Ġr ich
Ġoff ic
om p
Ġret urn
Ġd ist
ĠW ith
Ġsu b
Ġb oo
k en
pp y
ĠL ike
Ġm or
ĠT om
Ġsee ms
Ġhead s
Ġst ud
Ġkid ding
k ed
Ġde ep
m b
Ġm ach
Ġdem on
Ġu h
Ġbro ke
m p
Ġoff ice
Ġin n
h y
ie ld
Ġl and
Ġp orn
Ġw it
Ġex p
Ġsha ll
ĠâĢ ľ
o es
Ġth ief
Ġp u
Ġy ell
id ed
Ġprot ect
Ġre f
Ġt en
Ġper fect
r up
od e
i ol
Ġmid dle
Ġs ense
ĠR e
Ġno body
ive s
ro ll
ot e
ĠD ad
Ġem b
Ġbr ought
Ġj oke
Ġsl ave
Ġgir lfriend
b r
ĠI nd
Ġl ine
Ġmill ion
Ġp ap
an y
ol es
Ġshould n
ac es
Ġb ath
Ġj ail
Ġdog s
Ġt ired
Ġdo ll
Ġrat s
er al
Ġqu ite
Ġher self
Ġsl ow
Ġ 4
Ġsh ort
00 0
c o
Ġbe ast
Ġe arth
Ġbl ind
Ġfl oor
Ġvict im
u el
Ġth rew
Ġt akes
Ġp ack
Ġter ror
ous and
Ġwere n
oo p
ĠH er
Ġbu ild
Ġsw ord
l ic
Ġar t
st it
Ġword s
i res
Ġcon v
Ġign or
Ġhad n
Ġex act
c l
Ġc ross
m a
an ge
f fe
Ġsu per
Ġp ur
os p
Ġmurd erer
an ny
Ġst ep
le y
Ġth ousand
Ġr ip
ĠL e
c er
Ġknow n
f or
n ot
Ġwind ow
ĠW ill
Ġex t
Ġluck y
Ġto p
" ?
Ġneed s
Ġdanger ous
Ġb uck
er man
Ġh om
ull y
em pt
Ġs ort
Ġ1 0
nd red
Ġcon d
Ġspe ak
Ġswe et
il ed
ĠQ u
Ġon es
Ġh ide
Ġh ung
ra p
ĠFr ank
ĠP r
ug g
Ġstr ong
Ġt ear
Ġf ag
Ġv iol
Ġinn oc
le as
ur ing
Ġeas y
a ving
re l
es b
Ġfor got
ous y
ĠA t
Ġc ertain
Ġg ang
Ġsome where
t hat
Ġex cept
Ġbe g
Ġpro f
i en
o ly
Ġp ub
Ġdestroy ed
ĠK e
Ġh op
ver n
Ġhappen s
Ġ2 0
Ġevery body
Ġf ill
Ġme at
Ġt re
or ing
Ġaw ful
f ort
Ġd i
Ġsha me
Ġte am
Ġcr ook
if ic
Ġhu ndred
Ġsee med
Ġdis app
a j
Ġ ve
Ġar rest
Ġst uck
Ġex per
ĠSt op
Ġlaw y
Ġcow ard
es e
ĠE ng
Ġmin ute
en ed
Ġw ild
Ġimp ort
Ġf ast
Ġp unch
ĠJ im
Ġbro ken
Ġac ross
Ġtot ally
Ġvamp ire
g y
k ing
Ġbe ll
Ġde fe
ore d
o x
ir t
Ġmurd ered
Ġst om
Ġl a
Ġro ll
Ġt ast
c r
Ġf ine
Ġbo x
Ġk ept
Ġp ast
Ġall ow
Ġclot hes
ĠS am
Ġtor t
is ion
m ing
Ġd in
at ure
ĠT ell
Ġstab bed
Ġtr ans
Ġg uts
Ġsa ved
ip e
Ġdra g
Ġr is
g est
Ġtr ick
Ġs im
Ġabs urd
ag es
ĠBl ack
Ġo pp
Ġli ar
Ġcont rol
i ence
Ġf ired
Ġsleep ing
Ġp op
Ġs al
Ġmo vie
Ġfe ar
il ity
ĠMr s
re ad
Ġsc r
âĢ Ķ
w hat
Ġl esb
Ġar m
ĠAmeric an
Ġp ark
Ġcl ub
c c
Ġexact ly
Ġh id
Ġd ire
ĠG e
Ġstom ach
Ġc ook
Ġdrug s
Ġposs ible
Ġes ca
Ġm ass
Ġpiss ed
Ġgi ving
Ġad v
Ġsm oke
Ġh osp
Ġdiffe rent
Ġimport ant
e al
Ġl ad
ĠT ake
ĠD ick
Ġhu ge
ren ch
y ear
is m
er y
Ġsex y
ĠG ive
Ġsmell s
Ġrap e
Ġl ow
Ġn umber
ou n
Ġgo ld
Ġweek s
Ġinnoc ent
Ġbig gest
n ie
Ġco ver
Ġl un
Ġf art
Ġl ate
Ġgun s
Ġh un
Ġwor ry
Ġv ill
Ġm er
Ġthem selves
u es
Ġt ill
Ġcrimin al
Ġwe ar
Ġcl ass
ur y
Ġs us
ock s
op h
Ġn one
Ġb ang
Ġg ent
ĠR uss
Ġl ousy
Ġqu e
Ġquest ion
Ġcall ing
l o
ou p
Ġsur pr
i or
Ġb ite
st ers
il i
Ġfing ers
Ġc ool
am ed
Ġcon c
Ġtra itor
Ġres pect
Ġcar ry
Ġment al
as hed
Ġme ant
Ġv ide
Ġd am
h ood
Ġc al
Ġhosp ital
Ġbastard s
Ġn orm
a ld
ĠThe se
in y
Ġt able
Ġf ish
arr ass
Ġfig ure
Ġsha r
Ġdir t
igh b
Ġanim als
Ġj ack
Ġc ap
Ġal ong
u nd
Ġli kes
Ġ !
a im
Ġpict ure
ĠG erman
Ġob s
b it
Ġwr ite
l et
att le
Ġfil thy
Ġmach ine
Ġemb arrass
f riend
ĠA ny
Ġfa v
an a
ne y
Ġb orn
Ġl ay
ĠS ha
r it
Ġt ap
Ġj ud
Ġsk ull
Ġp ress
Ġwe aring
ound s
Ġf ake
ĠE l
Ġsm ok
Ġdec ided
Ġchick en
id er
ĠP e
Ġar my
Ġper ver
Ġu r
Ġdis c
â Ļ
ĠE ven
Ġt its
ĠG u
Ġpull ed
r on
f ully
it ies
ess ion
Ġsing le
Ġb es
Ġm ut
Ġne arly
Ġlo ck
ill s
Ġlun atic
Ġb um
Ġcle ar
j oy
Ġbur y
Ġher o
Ġcor p
i us
Ġne ighb
Ġnew s
Ġw ood
Ġbe ating
Ġpret end
Ġ âĻ
Ġc ir
a ul
Ġob v
h ouse
Ġdr own
ot h
ĠH oly
ud dy
or ge
Ġhang ing
g ing
ci ally
ĠChar l
Ġgo vern
ĠB ob
Ġche ck
Ġprom ise
Ġang ry
at ive
ĠL isten
Ġcomm and
Ġf ix
Ġbott om
Ġexpl ain
Ġstr ang
Ġbull ets
Ġsur v
Ġimag ine
Ġfe ed
Ġass ass
z z
ist ed
Ġw ed
Ġstand ing
Ġann oy
g n
Ġst ate
ag ed
ir th
o int
qu e
Ġcont in
Ġb and
ĠC ar
Ġcl os
Ġp aid
Ġres p
er m
Ġ #
Ġe ar
Ġm ark
Ġpie ces
Ġdra w
Ġansw er
Ġvir gin
Ġwho se
Ġmus ic
Ġpre p
it er
Ġem p
i est
p ing
s ing
Ġe v
Ġfool s
Ġun less
Ġlos ers
ven t
Ġc ell
Ġt ough
Ġpro stit
w ise
l ish
Ġc orn
Ġn ail
Ġto il
Ġfa ult
Ġsp ent
Ġlawy er
g o
y r
Ġcur sed
o lf
Ġser v
Ġmag ic
Ġru in
ent y
Ġb ow
ĠG r
it es
Ġe ars
Ġplan et
Ġfore ver
b t
Ġlo ved
Ġen joy
Ġb are
Ġp ot
Ġp os
st em
Ġtr uck
air s
ĠF rench
il t
if ied
ĠJ oe
Ġthan k
Ġ er
ĠL ord
Ġcra ck
Ġass es
Ġup on
Ġsee m
ĠâĻ ª
Ġh orn
Ġt ail
ĠT r
ĠY ork
Ġb ank
Ġun c
x ual
Ġs na
Ġc ig
Ġb ug
et er
ĠP ut
Ġgive s
am er
Ġout side
Ġf ra
ĠM c
Ġlong er
pe cially
Ġpig s
Ġr ab
Ġcomp any
it ing
ĠM ex
ĠN e
Ġf ut
Ġl ar
Ġhor rible
y n
Ġe ating
ĠWh ite
Ġro ad
Ġsu it
Ġpun ched
rup t
ĠMex ic
Ġpap er
Ġask ing
Ġtea ch
e es
Ġser ious
ĠFuck ing
Ġrot ten
m ber
s et
ur ch
Ġus ing
Ġvide o
Ġst ole
Ġsudden ly
Ġtw ice
Ġam ong
ul ar
o v
ir l
Ġco st
Ġmother fuck
Ġrec ord
Ġm aster
ha ps
Ġe gg
Ġdes p
Ġrap ed
ow s
Ġgive n
Ġcour t
in c
Ġm ot
ĠS m
ĠM iss
Ġwatch ing
Ġpol it
Ġwho ever
i ac
um e
Ġw ake
Ġb irth
Ġg ross
Ġsp ir
Ġmist ake
Ġsy stem
Ġhat ed
Ġwh is
Ġcre ep
Ġb ust
Ġb od
Ġb oring
am b
are t
a ur
c al
Ġc ent
ĠT w
Ġre pl
at ched
Ġv ag
Ġs un
ac ed
ren ce
f er
Ġfin ish
Ġgent le
Ġdis e
av y
Ġ ..
ĠG ra
r is
Ġe ight
Ġbrother s
Ġbel ong
ĠM om
a ven
Ġenem y
Ġneed ed
Ġcha ir
ffe e
a che
Ġsm ile
Ġsecond s
Ġt ight
Ġbe er
n es
Ġbe ha
Ġcreat ure
om m
Ġwed ding
Ġli es
Ġde v
ro ve
Ġplan e
Ġg as
Ġbe ar
Ġso l
ĠTh ose
i ers
Ġ ?
ag er
Ġgl ass
in ation
Ġne ar
W hat
ĠR ob
Ġpr ick
Ġfa il
ot s
ĠS e
Ġam az
ĠK ing
ot ic
ĠE x
Ġ ed
Ã ©
Ġp leas
Ġprop er
o f
Ġli ck
ĠW ould
Ġc ri
ĠAmeric a
Ġesca pe
ĠSt e
Ġcoll e
! '
Ġr ide
Ġj ok
Ġdri ving
l ike
Ġstop ped
Ġhon est
Ġnorm al
Ġd ance
Ġr ad
Ġstr ange
g ive
H e
u ce
Ġboy friend
Ġsa fe
ip s
he ll
Ġli ps
b ing
Ġco ffee
it ive
Ġv is
Ġchar ge
Ġl ame
ul es
m m
Ġd are
Ġde ar
Ġsl ap
Ġperson al
Ġcur se
ĠCharl ie
b oy
Ġcr uel
Ġlesb ian
Ġbe gin
ĠGod damn
ar a
Ġpub lic
Ġr ing
Ġele ct
Ġle aving
Ġscrew ing
Ġt ree
id ge
Ġar ms
Ġc e
il es
Ġfa ir
Ġdin ner
Ġtoil et
Ġsh r
Ġa ff
Ġbre ath
ĠJew s
ol ute
Ġgovern ment
Ġf ir
Ġbig ger
Ġdeser ve
Ġquick ly
Ġsuck ed
Ġcorp se
as m
ood y
che n
Ġhand le
Ġmar ry
Ġd anc
Ġf ur
i am
Ġs ong
Ġhis t
ĠH it
ĠO K
ĠB en
Ġatt empt
C ause
S h
Ġfeel ing
Ġpart ner
ve st
Ġbl ue
ven ge
k y
Ġpro ve
ain s
Ġd uring
id ence
Ġr ub
ĠN or
ĠP er
Ġbod ies
ĠB y
el ess
Ġw ret
ĠH ave
Ġst ood
Ġsh op
itt en
Ġar rog
Ġproble ms
Ġany body
Ġbath room
Ġto w
st r
Ġhe al
Ġkid na
Ġwork ed
ĠGe orge
d en
Ġb oot
Ġr ound
Ġhe ld
Ġwas h
es h
ĠEng lish
Ġim m
Ġfav or
Ġr ubb
ĠP ro
Ġhold ing
Ġgi ant
Ġd iv
Ġc amp
Ġc ause
ĠG re
Ġho st
ho st
ha m
Ġo per
as k
Ġwhe ther
Ġgl ad
Ġ3 0
Ġso ft
Ġr ace
Ġru ined
Ġh ur
ĠM or
Ġfut ure
ĠC ol
itt ed
Ġgr oup
Ġ ice
Ġth ie
Ġtr igger
Ġemp ty
h ow
z en
ĠS l
Ġthan ks
Ġint ell
Ġ ut
Ġa ge
ve red
Ġgot ten
Ġspe cial
Ġweap on
c ome
ĠC on
om an
ĠO f
ĠE d
ĠS at
Ġhat es
Ġp it
Ġmess ed
Ġwor ried
Ġgre en
Ġsc um
Ġrem ind
Ġstink s
Ġlad ies
A nd
Ġa head
in ate
Ġcig aret
ick ed
Ġc ast
ĠJ e
b o
ĠT V
Ġse ven
w h
. âĢĿ
Ġwith in
ri age
Ġrel ation
Ġes pecially
Ġabs olute
Ġpri v
Ġrep ort
Ġexc use
Ġcr ush
ĠS er
and y
Ġgra ve
Ġt ie
Ġsh out
ĠA b
ĠM e
ĠF l
Ġannoy ing
Ġa v
Ġs ens
ĠW as
ĠA d
ĠT han
op ath
ĠR ic
Ġex am
gg ed
w ar
Ġl im
Ġp ract
ter n
ation al
g es
Ġan t
Ġdou bt
y l
Ġl ab
Ġth ick
ast ic
Ġcir c
um my
ard ed
Ġk it
Ġpri est
Ġh yp
un ity
Ġamaz ing
Ġw ound
or ies
ĠC aptain
ĠSh oot
Ġble w
ar ch
Ġup set
Ġp in
Ġsu gg
Ġsuck ing
a i
ĠM ad
Ġrelation ship
all ow
Ġburn ing
ĠAf ter
Ġsugg est
ur ity
il ing
Ġreal ize
Ġtast e
l in
ĠC he
Ġpre gn
har d
Ġhist ory
I t
v in
Ġm ir
if t
ĠM art
Ġche ap
anc y
Ġb ones
ĠP lease
med i
Ġdon key
... "
ĠHe re
ose xual
u ct
er ry
Ġn amed
ĠP aul
Ġbleed ing
.. ...
Ġscream ing
ĠC ra
Ġlo cked
Ġch op
Ġbeg an
Ġp et
Ġacc ident
Ġord ers
ĠJ ap
Ġsp it
ress ion
Ġwalk ing
Ġcry ing
o ff
Ġd ate
Ġb reat
Ġc ous
Ġmad man
ines e
? '
ĠA m
Ġim medi
Ġignor ant
d e
Ġm od
Ġg host
Ġcrim e
Ġ 6
Ġb ought
Ġli ved
Ġ1 5
Ġfre aking
Ġbec ame
g ar
m as
in ite
Ġlar ge
ĠM ic
ĠD av
Ġbuck s
Ġcan not
imp ly
Ġpe ace
Ġdire ct
Ġof ten
Ġfor ce
Ġcut e
Ġs ight
Ġdes per
c ious
Ġbl ame
ĠM ike
Ġsold iers
Ġt ar
Ġc amer
ic es
ent ion
ĠP l
ur al
u it
ĠA ng
ess ed
Ġsp ot
Ġpe e
Ġsee ing
Ġsa nd
Ġinv ol
Ġpict ures
Ġthie ves
Ġkn ees
ĠE arth
Ġapart ment
Ġb other
ter day
Ġquest ions
Ġcrimin als
u ed
Ġsh oes
ĠR ight
k in
Ġo cc
Ġin ject
ĠM on
ĠC ha
l ook
Ġput ting
Ġm ate
Ġkill ers
Ġresp ons
Ġt roll
en ny
ib ly
Ġadd ict
ĠHar ry
ra c
Ġj o
Ġsp ace
d om
Ġb at
ut ed
ĠP h
Ġwill ing
Ġap olog
Ġl ist
Ġe qu
Ġhon or
Ġbes ides
Ġc aptain
ra ge
ĠU h
Ġspir it
Ġex ist
a ched
Ġw et
ĠB ar
el a
g en
ot t
Ġmo ved
Ġen g
y le
en ing
ĠCh inese
Ġse es
oh ol
the y
I f
Ġc a
Ġcan cer
Ġhot el
Ġbur ied
Ġd ig
Ġis land
Ġpro d
Ġdrop ped
Ġdress ed
Ġbit ches
ĠS omet
ĠA h
Ġb uddy
Ġac cept
Ġself ish
Ġpres ident
Ġcal m
c ohol
n ow
n ers
Ġs imply
pp ing
Ġh unt
Ġgu ard
Ġpo ck
ang ers
Ġtea cher
as y
ist ic
ĠE m
Ġreal ized
Ġthrow ing
et t
ag ue
Ġbuild ing
u ke
ĠS ee
Ġmo ving
Ġmon sters
Ġfight ing
Ġmar riage
Ġpat ient
Ġm ale
Ġsa v
Ġn or
ĠS ir
Ġstart s
c ha
in al
u ation
Ġkit chen
Ġr ac
Ġfor m
un e
it ary
Ġstri ke
in o
Ġshow ed
Ġsca re
Ġfor give
ĠDe ath
Ġidiot s
Ġb attle
Ġbl ond
Ġ5 0
Ġbell y
ck s
as c
Ġs ne
Ġla zy
iz a
Ġturn s
Ġarrog ant
Ġm ain
ic ious
Ġs um
ra ce
Ġth igh
ĠF irst
Ġf le
ĠP eter
Ġsus pect
Ġb one
Ġfig ured
E R
Ġw ha
Ġweap ons
i um
o ved
s c
ĠI r
ur b
Ġsa cr
Ġbird s
g ue
og n
Ġment ion
Ġrubb ish
Ġd ust
ĠG ood
Ġal cohol
Ġlo ad
Ġtw isted
Ġtot al
ĠJim my
Ġmess ing
Ġhook er
Ġact ing
Ġli ked
Ġu nd
Ġbet ray
Ġsim ple
Ġobv iously
ĠR ay
ress ed
Ġdise ase
inite ly
Ġcertain ly
Ġcri pp
Ġf aces
Ġha m
Ġte le
Ġyell ow
i vil
is ing
ic ed
Ġcl im
Ġpr oud
Ġrel ig
Ġtap e
Ġsuff er
Ġ et
Ġcare s
Ġneighb or
Ġat e
ĠJ o
Ġother wise
Ġlisten ing
ĠPe ople
Ġw ipe
om ed
Ġsu c
Ġhas n
Ġhum ili
Ġfill ed
Ġpick ed
Ġd ry
or ce
Ġus ually
Ġinf orm
Ġcoll ect
W e
Ġt ick
Ġshould er
oll y
Ġad mit
Ġs in
Ġp al
Ġeven t
Ġinc omp
Ġf ield
Ġin fect
Ġshit ty
Ġcomp ut
Ġoffic er
Ġque en
Ġh oney
Ġre ach
Ġam nes
Ġf ed
Ġtort ure
Ġth ird
Ġyes terday
Ġlaugh ing
g u
Ġw atched
ĠChrist mas
Ġgen ius
Ġpr ay
Ġwork s
Ġbo at
Ġcorn er
Ġamnes ia
Ġc ard
Ġman iac
Ġsp read
Ġh itting
Ġse a
Ġcous in
Ġimmedi ately
ĠC arl
Ġsk y
cess ary
Ġ1 2
Ġdou che
al ent
Ġcall s
Ġph ot
Ġwit ches
n ect
Ġcomm it
Ġ ver
Ġh ired
Ġexpl ode
Ġg ut
Ġp oop
ĠD an
Ġinterest ed
Ġc ivil
em ent
Ġrec ogn
ĠQ ue
in ary
iet y
Ġpun ish
Ġm ount
ĠN az
Ġchan ged
Ġbott le
Ġser iously
Ġsn ake
Ġpsych o
ĠN ob
Ġcl aim
r ing
Ġevery where
Ġallow ed
Ġh y
gg ing
Ġcompl ain
Ġris k
n o
u ra
ant ic
Ġv an
Ġdrink ing
a ches
Ġun cle
ord ing
ĠOn ly
ĠB oy
D amn
c on
Ġ ib
ĠB ig
Ġfind s
s ive
w ith
Ġg e
ow ers
Ġfor ward
Ġch urch
Ġhung ry
ĠKe ep
Ġcolle ge
Ġst one
Ġfe m
Ġmil es
Ġb ase
Ġin vest
ĠP at
Ġpregn ant
ot ion
Ġho ly
Ġgen er
Ġib iza
O h
w ell
ad es
Ġr iver
if y
ĠB et
Ġwit ness
Ġj eal
Ġpar an
Ġcor rupt
Ġabsolute ly
a wn
Ġc ust
im ent
Ġr ules
Ġsec urity
Ġintell ig
Ġtar get
Ġwor m
Ġorg asm
pp er
Ġsuck er
Ġp ool
ĠO ur
ĠP ar
Ġsp l
Ġhorn y
d o
ar ter
Ġpo st
Ġsent ence
Ġjud ge
Ġt em
le x
Ġv al
v ous
ac y
j ust
l ine
en n
ĠJap an
s he
Ġlau g
l a
on ed
Ġc ab
res h
ea red
r op
Ġt iny
us ing
Ġr angers
Ġlos ing
l aw
w ho
Ġd war
Ġwr ote
Ġslow ly
ha l
Ġdef initely
Ġsh ove
ent ly
Ġmiss ion
Ġpar as
Ġra ised
Ġdefe nd
Ġn igg
Ġplay ed
Ġsold ier
p ort
Ġd ouble
Ġl oose
Ġfor se
ĠS w
ug s
Ġmist ic
ĠInd ian
Ġt all
Ġbeat en
Ġskin ny
s aid
Ġwalk ed
ubb orn
e ch
Ġwho res
ment s
Ġworth less
w ork
Ġincomp et
Ġ *
Ġhe avy
ĠS ar
iss ion
Ġstre ets
ri b
ud d
Ġwar m
a ff
ha el
is es
Ġout ta
ĠM ax
Ġhom osexual
" .
Ġth in
ĠH en
Ġpre fer
Ġdisapp ear
Ġlike ly
Ġco vered
Ġfl esh
ic a
ĠM ary
ĠC ut
ĠR em
iz z
Ġorg an
d on
ha ppy
Ġc rew
A N
ak er
our se
ĠTw o
Ġ 7
Ġc as
itt y
Ġswe at
Ġab ove
Ġcr ow
w ood
Ġopen ed
Ġinc l
Ġhid ing
Ġshar p
ĠD ude
ĠL ou
Ġper haps
Ġun iver
Ġte en
Ġgentle men
Ġd rove
Ġte ch
ĠRic hard
Ġwe e
Ġcha sing
Ġkick ing
Ġlearn ed
Ġf ant
Ġn at
Ġr if
ĠR ed
Ġhurt s
Ġl aid
Ġhe aven
Ġr oof
ĠW ait
Ġmil k
ri es
Ġch oice
il ty
us hed
Ġwret ched
ĠB ull
ĠR on
Ġrem ain
ee z
Ġpu pp
ĠJ ul
Ġcl ient
Ġinc red
Ġassass in
Ġc up
Ġha ll
ag s
Ġav oid
aj or
Ġcra z
Ġhum ans
Ġke y
Ġsurv ive
Ġl oud
Ġra ise
Ġdoll ars
T hat
Ġp an
y our
Ġf an
Ġg ames
Ġtalk ed
Ġsl aughter
ĠAf ric
Ġag ent
Ġvamp ires
Ġsurpr ised
D on
r ight
Ġ 9
Ġso c
Ġcra w
Ġmiss ed
Ġprof ession
m on
Ġse ver
ĠJ ames
Ġ1 9
m other
Ġsh irt
Ġp air
... ?
Ġst ubborn
Ġre v
Ġbl ock
Ġhe ck
Ġn on
al ty
ipp ing
y an
ot ch
Ġfuck er
Ġway s
pl oy
Ġsha re
Ġenem ies
Ġd en
Ġche ek
h oles
k et
Ġst ation
ĠWh ich
Ġcou n
Ġfil m
Ġknock ed
Ġse at
ĠC o
Ġel im
Ġb an
ĠC r
Ġcar s
ed y
han t
Ġdad dy
ĠSome one
Ġp ile
om ing
Ġinter n
Ġo we
Ġn ipp
Ġ1 00
Ġattack ed
ie l
Ġperver t
c ri
s es
Ġst aring
Ġun happy
r id
Ġ 8
Ġp ill
Ġn ude
Ġst ore
Ġany where
Ġsl ut
c ase
Ġb ill
ĠJohn ny
Ġp ir
Ġch oose
Ġsit uation
Ġner vous
t ime
ĠC al
Ġbo ard
he l
Ġdes ert
Ġmid get
Ġw iz
her iff
ord er
Ġmil itary
Ġwood s
in ing
Ġw ine
Ġn ar
us ion
Ġstupid ity
ĠChrist ian
Ġfag got
Ġev idence
nd ed
Ġgu ilty
Ġbirth day
ĠDav id
l t
Ġsw allow
Ġopp ort
c an
Ġf resh
Ġli ft
one l
Ġexec ution
p ar
p ose
Ġs ize
Ġgo at
Ġcra ppy
Ġmad ness
Ġshot s
Ġshow er
Ġfoot ball
Ġkn ee
Ġcut ting
Ġad m
Ġpsych opath
ĠC omm
ess or
ĠN ick
Ġprom ised
Ġvill age
Ġcomput er
Ġr ain
ĠM other
Ġmiss ing
Ġinter c
Ġconc ern
Ġpleas ure
I N
t le
ĠS u
Ġbr own
ĠMic hael
Ġb ene
Ġd uck
Ġn umb
Ġe re
Ġst ories
Ġa ut
Ġn ature
Ġv om
Ġterror ist
ĠS orry
Ġde af
Ġunder w
Ġspe c
Ġdesper ate
Ġo p
Ġour selves
Ġeas ily
Ġinvol ved
i ant
Ġoff er
be cause
Ġcare ful
Ġide as
ĠBr it
Ġcons ider
Ġs ed
ro d
ĠNob ody
Ġparan oid
th ough
Ġord ered
ĠRuss ian
ĠB B
Ġscr atch
T h
Ġj u
Ġtell s
ĠOn ce
Ġfly ing
Ġpos ition
Ġjeal ous
ag ger
Ġext ra
Ġp ant
Ġre pe
head ed
Ġdeal er
Ġsmok ing
l ight
Ġt y
Ġn ur
Ġold er
Ġacc ording
Ġpock et
ĠW al
Ġwr iting
t es
ĠB illy
Ġsp y
Ġkeep s
Ġut ter
ĠSat an
ĠL uc
Ġcamer a
Ġsever al
k a
as ed
Ġsupp ort
Ġsoon er
ĠG ot
Ġapp ear
Ġdream s
Ġcon nect
Ġpus h
Ġsell ing
Ġdiffe rence
Ġz omb
Ġneighbor hood
Ġit self
il s
ri an
Ġstart ing
ĠDo es
Ġmonkey s
Ġr ude
Ġdo pe
ound ed
Ġsp erm
r ant
look ing
Ġv ac
Ġner d
Ġy a
Ġwh om
ĠE n
Ġsha ke
Ġkiss ing
Ġme m
Ġlo cal
Ġfin ished
Ġm al
Ġr ipped
Ġsm ash
Ġmess age
Ġfem ale
Ġinterc ourse
ill ed
Ġre b
Ġthr own
ang u
Ġlove s
Ġinform ation
Ġl unch
Ġcl osed
Ġtou ched
Ġt our
ĠH u
Ġturn ing
Ġimp oss
Ġexec uted
Ġjok es
Ġwe l
Ġsend ing
Ġcreat ures
Ġdri ver
ĠS im
Ġstr uck
Ġbegin ning
ĠG l
Ġmotherfuck er
Ġtr ip
Ġment ally
le br
Ġfor t
ll en
or row
ĠIt al
Ġbus y
b les
l im
Ġcust om
ĠHen ry
Ġa im
Ġb ored
Ġd ull
Ġc ult
Ġc ats
id ay
Ġpriv ate
ĠQue en
Ġc apt
Ġend ed
Ġw olf
an n
le ep
id s
ill e
Ġhelp ed
Ġsteal ing
Ġterror ists
Ġl ung
Ġgod s
Ġet ern
Ġrif le
Ġm ort
ell y
Ġag ree
Ġass holes
Ġsp o
Ġbelie ved
en a
Ġshe ep
Ġlet ting
ac le
in ct
am mit
Ġfl at
Ġcha rac
n ight
Ġhe at
Ġp ink
ke nd
st airs
ĠM ark
pt ion
Ġpres ent
Ġignor ance
Ġdanc ing
b ack
i ved
ĠS ex
Ġfreak s
Ġrad io
Ġtech n
Ġc art
Ġe ff
ĠA nt
Ġser ial
Ġp il
ut y
ĠW or
Ġsc ient
Ġdec ide
Ġembarrass ing
ic le
Ġun s
ect ive
Ġsuff ering
Ġce lebr
g l
r al
Ġ X
Ġm ama
Ġp oo
ra ph
Ġal ien
Ġex ter
Ġcare er
Ġdisg race
Ġvictim s
ĠIr ish
Ġwr itten
Ġthreat ened
Ġhyp oc
f ace
Ġt ied
Ġfor ced
ĠDe vil
Ġfell ow
Ġf it
er o
Ġp ump
at ors
ĠF in
Ġbre aking
Ġcont act
Ġfar m
Ġslave s
Ġviol ent
Ġwee kend
g ers
Ġhappen ing
Ġatt ention
gr am
Ġh oles
os h
ge ant
Ġsupp ose
gr ound
ĠM a
and a
Ġgu ards
ĠE dd
arent ly
Ġir on
Ġl angu
ĠB ill
Ġpower ful
Ġfir ing
Ġst age
aught y
fort un
ĠJapan ese
Ġdwar f
Ġincompet ent
t hen
ad s
Ġa x
Ġn a
Ġr ope
Ġar row
Ġsw im
Ġem otion
ĠSome body
Ġmeet ing
Ġp ure
ĠM en
Ġfa ith
ĠUn cle
Ġtreat ed
Ġmem ory
is f
ir ty
ĠA lex
Ġcan n
Ġbl ast
Ġrem ove
Ġend s
Ġpain t
Ġsil ent
Ġcol or
o ver
Ġth umb
ĠD anny
Ġpro v
Ġexper ience
c ent
Ġw re
Ġs ut
Ġtra p
Ġph ys
ĠBl oody
ĠAmeric ans
ĠInd ians
Ġjo in
g un
Ġsuc cess
m are
ut en
ĠS ay
ĠM al
ard en
Ġpay ing
ru ction
ĠTom my
Ġl ed
ĠB ra
Ġsc ary
Ġam b
ank s
Ġatt ract
ĠFr om
Ġlight s
f ather
r ate
s uck
Ġcle arly
Ġperson ally
Ġcomm on
c ra
Ġf al
ĠM us
Ġreg ret
Ġincl ud
a ult
Ġtw enty
ĠSc rew
f fect
t ered
ĠS on
ĠP res
Ġob ject
ĠBob by
am ela
Ġan ger
ĠS ant
Ġplan ning
k i
Ġs en
ĠT ony
Ġsl a
Ġnight mare
ĠW est
Ġbas ket
Ġm ix
ib ility
Ġbook s
Ġlaug hed
it ude
Ġn igger
Ġsc ene
Ġmean ing
ac her
Ġl iter
Ġnot ice
Ġtr ad
Ġins ult
Ġmor on
ĠPh il
le ct
ĠW ar
ul ation
ĠE ur
Ġfore ign
Ġhop ing
Ġw ip
Ġre venge
Ġsp ank
th is
Ġdevil s
i as
Ġbl ade
Ġpull ing
Ġthousand s
Ġprostit ute
ĠH ouse
Ġknow ing
ĠC le
Ġno ise
ĠF red
igg ing
Ġsut ra
Ġc ash
ed s
Ġk ama
Ġviol ence
Ġevent ually
Ġb on
us es
ĠM ag
Ġbl own
Ġmo on
Ġrespons ible
om en
Ġwas ting
Ġacc ount
Ġsoc iety
Ġexter min
Ġd iff
Ġf ist
Ġn ine
Ġshit ting
ĠF ather
Ġstick ing
ĠJew ish
ĠQu iet
u nder
Ġs am
it a
ic ated
ie w
Ġfam ous
Ġcrow d
al ity
Ġr ib
Ġegg s
ĠB urn
um s
Ġsa ving
ey ed
fort able
Ġm ast
Ġr ag
se y
Ġwar ri
Ġfree ze
Ġboo bs
v is
Ġli ed
Ġpass ed
Ġpen is
is hing
Ġn aughty
ch ing
and er
Ġclown s
v ision
ĠP ig
Ġar r
Ġgr in
Ġmer c
Ġur ine
i at
Ġh ire
if ice
ĠS il
Ġeat en
Ġbu ilt
Ġsqu ad
Ġexec ute
r om
in cess
Ġb ald
Ġre lease
k er
Ġt aught
re et
Ġl one
ĠP ol
Ġapp ro
Ġfollow ed
he art
Ġd rain
ĠC ity
ang ed
Ġwiz ard
c ing
r ation
Ġqu it
Ġne g
Ġsc en
Ġhit s
Ġche er
Ġshow s
Ġimposs ible
Ġan c
ĠL ittle
Ġpl ant
Ġv iew
Ġcon st
Ġgreat est
Ġ4 0
irl s
Ġopport unity
Ġf aster
Ġr om
Ġpl astic
Ġbr at
Ġen c
Ġcou rage
Ġblow ing
Ġjunk ie
r ated
u be
ing er
Ġn ames
ĠT ed
un ning
Ġbr ut
Ġcr otch
Ġgen eral
Ġ est
re nd
Ġb arb
Ġd ating
Ġe arly
um ent
Ġneed le
Ġeas ier
Ġill eg
Ġdrunk en
w or
w hen
Ġsl ight
Ġbro ad
ĠEdd ie
i ally
Ġg ro
Ġlo ver
Ġfeel ings
Ġgrab bed
Ġhands ome
Ġid ent
Ġvis it
Ġthigh s
Ġc red
Ġstuff ed
Ġcontin ue
c ut
u ous
re me
Ġm aid
ic y
Ġsp ort
ĠBe fore
Ġmiser y
j ob
Ġh ol
Ġh ors
Ġre qu
Ġmind s
Ġcock ro
ĠSte ve
Ġunderw ear
Ġsex ually
Ġwall s
Ġstar ve
Ġserv ice
Ġwel come
e ed
Ġc ried
Ġbutt ocks
Ġdra gged
Ġpl aces
Ġpl enty
Ġrest aur
Ġapp re
Ġt att
it z
Ġre ve
ant ly
ĠM ars
ĠB ab
Ġnow here
Ġsoul s
ru ct
Ġdeser ves
b ag
ĠS ch
Ġshoot s
Ġcha se
Ġru le
N o
f ast
ĠB el
mb ers
n el
x x
oo per
ic les
Ġwhe el
âĢ ¦
Ġdes k
ĠâĢ Ķ
Ġdem and
Ġscream ed
Ġgrand mother
Ġdiff icul
Ġw icked
Ġc and
ie ve
ail s
Ġwait ed
Ġsur r
Ġrob ot
Ġlead er
Ġbare ly
ĠT ra
ĠA w
ĠR ick
ash ion
ĠEvery one
Ġexp ression
ĠSomet imes
g an
Ġd er
Ġf oul
Ġp ale
Ġbe ard
Ġli ver
Ġtr ies
ĠL a
Ġgr own
Ġexpl os
Ġstr anger
uten ant
Ġm ask
ll y
Ġf ol
Ġp amela
Ġand erson
Ġdo zen
uc le
Ġpur pose
Ġfal se
Ġag re
ip er
Ġthought s
Ġke ys
Ġsat isf
Ġbang ing
Ġham mer
Ġprofession al
ar m
Ġlet ter
Ġpr ice
Ġtra ck
Ġhang ed
ĠâĢ ĵ
ĠPres ident
Ġf ro
ĠS an
Ġfeel s
Ġcap able
en ch
Ġle vel
head s
Ġconv ince
Ġcripp le
in i
re y
Ġc ream
Ġl ord
Ġme re
Ġun if
uc ed
Ġadv ice
Ġlangu age
ĠH el
ĠG ay
ick ing
og raph
Ġmag az
Ġvom it
ar ry
Ġbut cher
ĠC ould
Ġser ve
by e
Ġexpect ed
Ġaff ord
Ġs ack
Ġm atch
as ion
as hing
ĠW atch
olog y
Ġelim inate
, âĢĿ
aw s
Ġinterest ing
Ġinvest ig
Ġuniver se
Ġleave s
Ġwonder ing
Ġbeha v
ĠEur ope
Ġbe ach
Ġso cial
Ġsha d
Ġem ploy
Ġstre ng
Ġforgot ten
ĠJe ff
Ġshout ed
Ġexam ple
im ate
our n
Ġbull y
Ġdem ons
lo ad
Ġclos er
A R
Ġme mber
Ġfr ight
ĠF ool
Ġv ile
Ġcom b
ge on
Ġsn ow
Ġp ed
um m
ond on
Ġjump ed
Ġna ive
Ġappre ci
as ant
Ġty pe
d own
Ġr ough
ĠJ ake
Ġconv in
Ġsacr ifice
Ġtele vision
i ving
Ġf if
es ter
Ġis s
ra b
Ġbag s
Ġdrag on
Ġcigaret tes
ucle ar
s it
Ġse men
Ġas leep
Ġfra ud
ĠPar is
) ,
Ġt ip
Ġp red
Ġu m
ĠW all
un ny
Ġbr idge
Ġfa iled
Ġ1 8
Ġgodd am
Ġsum mer
Ġnat ural
Ġcharac ter
B ut
I A
p he
et te
Ġe ffect
Ġsmell y
anc es
Ġbomb s
Ġord inary
ĠKill ing
ĠEng land
Ġrab bit
c at
p ir
Ġm ood
ĠP al
Ġspe aking
Ġgang ster
Ġtort ured
Ġcigaret te
v a
Ġm ob
ĠO ld
Ġstay ed
ĠEvery body
Ġsurpr ise
ĠMexic an
Ġg ate
ick s
Ġus ual
ol en
Ġbr ight
be red
i ber
re ak
Ġl ower
as ons
Ġhell o
ĠL ondon
Ġret arded
Ġs ink
vie w
Ġconvin ced
ad d
ĠT urn
st e
ĠB ea
ain ed
ĠR yan
Ġfollow ing
ĠSar ah
Ġl ack
ĠS aid
Ġse arch
Ġbl unt
ff ic
Ġrun s
Ġcle ver
Ġapolog ize
p ered
Ġh ood
Ġput s
Ġconcern ed
Ġhide ous
ĠThan ks
Ġtatt oo
' .
Ġt yp
Ġt alent
Ġd ummy
Ġl it
ĠC all
ap er
Ġun f
Ġhair y
ĠLook s
Ġbas ically
Ġmed ic
Ġn uclear
om in
Ġbel t
Ġmost ly
ĠMus lim
Ġmast urb
Ġm ajor
ĠC or
Ġhow ever
Ġcr uc
Ġpart icul
pe nd
Ġproper ty
Ġop in
u is
Ġper f
Ġdec l
ĠCra zy
z ing
Ġm ud
ic ate
Ġwas ted
Ġne ither
Ġ1 6
Ġpus hed
The y
Ġo ven
Ġe arn
Ġsh ock
al y
Ġfre ed
ĠDad dy
ĠNe xt
Ġdifficul t
Ġto ss
ĠS ec
Ġsc ar
ĠTh row
Ġrem em
en cy
ĠD ou
ĠJ ud
Ġgoddamn ed
end ed
Ġfore head
Ġbust ed
ĠNor th
b ow
k n
Ġmo ves
Ġmurd ers
Ġhar m
Ġstink ing
Ġrob ber
Ġsil ver
ĠGerman s
Ġobv ious
ĠGra nd
Ġstreng th
Ġf ought
Ġmy ster
Ġtr unk
ĠL ea
ict ed
Ġarrest ed
Ġeng ine
Ġst iff
ĠF at
Ġcon vers
Ġpro gram
ĠSt an
Ġdeal ing
Ġvirgin ity
Ġhur ry
o ster
u le
Ġp ath
Ġst olen
Ġdump ed
Ġsuff oc
Ġmurderer s
or ter
Ġsp oke
Ġsp ray
Ġspe ech
Ġinf l
Ġrot ting
oun ce
ĠRuss ians
Ġprep ared
Ġg ar
ca p
Ġsp are
Ġsl ay
Ġw ra
Ġb al
Ġc os
ol ves
Ġbed room
ĠBull shit
c il
Ġs our
Ġd a
Ġc ake
Ġre nt
Ġre ached
Ġnot iced
Ġde b
Ġare a
ĠM el
Ġor ig
Ġbad ly
Ġrepl ied
Ġdirect ly
g s
h in
ar ian
Ġwe ight
Ġst at
ĠA ss
op s
ĠN eg
ound rel
Ġcou ch
Ġche w
Ġres ult
ĠCl a
Ġperfect ly
Ġutter ly
Ġliter ally
v y
Ġin se
il ar
Ġpart s
led ge
Ġwar ning
Ġcond om
Ġdefe at
r ick
Ġc age
ur s
Ġcarry ing
Ġsne ak
A T
es ome
ĠT ur
ĠD is
ĠG en
art ment
Ġle an
ĠDe an
Ġstud ent
Ġzomb ie
Ġbreak fast
Ġcomm itted
Ġboo b
Sh ut
f l
Ġtr ial
od d
ĠE ither
Ġeven ing
Ġdam age
id al
ĠT e
Ġj ung
Ġse w
ĠAnd y
oy al
Ġplay er
u ly
Ġto ward
Ġg y
ĠE ll
Ġwon d
Ġad ult
Ġc ure
Ġst ake
hing ton
ĠE ast
Ġsm ashed
Ġch ief
Ġcomp et
Ġbra ve
Ġhid den
Ġo il
Ġo dd
Ġp a
Ġp ills
Ġin j
ar ant
ĠD et
Ġpr im
Ġun fortun
ho ld
Ġwonder ful
Ġmer cy
f ord
f ield
Ġe h
am m
Ġche ese
az e
ĠNot hing
Ġfail ure
r at
he red
Ġl ink
ĠM at
ĠB o
sh ot
Ġtrain ed
Ġoper ation
E S
Ġt ax
ĠS ince
Ġsa il
ĠR og
Ġkeep ing
Ġexc ited
Ġner ve
Ġme mbers
Ġoff ered
ĠP ark
Ġsmell ed
Ġcomm un
Ġdark ness
Ġgre edy
Ġsing ing
Ġt ank
Ġy ard
et y
ĠM ore
iz ing
Ġhelp less
Ġmet al
Ġreg ular
ĠH al
Ġfr y
Ġhelp ing
Ġcreat ed
Ġvag ina
Ġelect ric
Ġrev ol
Ġp imp
Ġre se
ore s
Ġwhen ever
Ġpl ain
ĠTh ink
Ġbug ger
Ġrestaur ant
ct ors
Ġsp ear
Ġtouch ing
olog ical
Ġwhore house
, ...
it iz
it ors
Ġp ier
Ġon to
uck y
ur sed
Ġne cessary
Ġv ol
Ġaw are
ove red
Ġdi am
n oon
Ġsc oundrel
Ġafter noon
Ġter r
Ġref use
ĠBrit ish
Ġjung le
Ġpl ans
ate ful
Ġch oke
Ġmo v
Ġmark et
Ġlone ly
re r
Ġst ock
Ġnot e
ro ying
oot h
Ġtrain ing
ĠMc C
ĠRem ember
Ġere ction
f aced
Ġm a
Ġd ork
Ġsome how
ĠO ther
Ġins ur
Ġdes ire
Ġconf used
Ġstri p
ĠWill iam
Ġcontin ued
ĠWas hington
Ġrelig ious
Ġpant ies
Ġpil ot
Ġt ub
Ġc ards
ill a
Ġal though
be c
Ġmay or
ĠUn less
ar ling
us hing
ĠM ac
ĠM ost
iz ation
Ġ2 4
Ġdrink s
Ġbeaut y
Ġpen alty
Ġpu ke
Ġrecogn ize
m o
p et
Ġd ish
Ġli p
am s
ĠO l
Ġche ating
Ġeat s
Ġfall en
Ġpark ing
i ar
oo ps
Ġre act
Ġfir m
O N
v an
Ġn in
le ad
ĠV ict
Ġtor n
Ġdef ense
Ġdiam ond
Ġmov ies
w ife
ha ll
Ġd im
ĠS ure
ĠJ ane
Ġass ume
ber t
Ġsha ve
Ġbu ying
Ġs ons
Ġs heriff
Ġd ip
Ġf oc
Ġme l
ĠT ry
Ġtr ade
Ġgu est
Ġche at
Ġpolit ical
Ġglass es
Ġinject ion
Ġeff ort
i que
Ġ /
Ġa ud
Ġw ave
Ġg ift
ĠM ick
Ġrap ist
Ġcoward ly
Ġwre ck
Ġb ump
Ġm art
Ġli qu
Ġre ce
ĠM ake
Ġang el
Ġsub ject
Ġinfect ed
ĠLou is
Ġw a
om pl
Ġst orm
ĠT oo
ĠH olly
Ġsc umb
Ġen er
Ġfag s
s m
Ġtr i
Ġsl aught
Ġprep are
c up
Ġg all
ĠS al
ĠD ra
ig er
ress ive
Ġdisapp oint
Ġblond e
i j
am med
ĠT er
ĠC ath
ĠR o
Ġquiet ly
att ered
Ġsil ence
g ic
m ate
m ail
Ġw and
Ġw ide
Ġc ave
Ġh ig
Ġse par
ĠH on
Ġpr ince
oll ocks
ĠFr anc
Ġfil th
Ġwhis pered
Ġbreat he
Ġreve al
Ġ ought
Ġf ac
is c
om y
ĠS us
ĠM urd
ĠB ad
Ġar med
ide red
ort ion
Ġpoint ed
Ġpoint less
ache l
s l
Ġf ancy
Ġj er
ĠSc ott
Ġfavor ite
bo ard
g ent
in ting
um an
Ġdel iver
. ,
Ġd agger
ĠD em
Ġsp ell
Ġext reme
Th is
Ġscen es
W hy
ĠM in
Ġqu arter
Ġhat red
Ġdes ign
Ġfun eral
Ġdick s
Ġread ing
Ġthreat ening
Ġir rit
Ġoffic ial
Ġheal th
Ġhors es
ut ation
Ġdes cri
Ġkiss ed
Ġreturn ed
Ġbuck et
Ġtear s
Ġappreci ate
k ill
Ġli f
ĠM er
est y
ĠJ er
ĠWhat ever
Ġtra pped
Ġsna pped
Ġpupp et
Ġt urd
Ġm ic
Ġd arn
Ġf asc
Ġr um
ĠS uck
Ġre asons
ist ol
Ġsw ing
Ġsure ly
Ġfall s
Ġwha ck
Ġslaught ered
ow ing
Ġass ault
Ġun b
ons cious
ĠSt reet
Ġcha in
Ġ2 00
ĠâĢ ĺ
vel op
Ġrock s
ĠAng el
v ille
Ġw ings
ar ies
Ġst ret
Ġjust ice
ĠJ erry
ĠR oman
Ġdis p
Ġed uc
Ġw ow
Ġf ate
Ġto ol
ĠL ady
ĠR os
Ġaf fect
Ġmir ror
Ġilleg al
W ell
ĠS y
ĠB es
ĠN ever
ĠF ire
ĠE ric
ĠCh ris
app ing
Ġobs essed
Ġsla pped
H E
Ġe p
ĠW omen
ĠY o
ĠE r
Ġbit ter
Ġste pped
Ġjack et
Ġprostit utes
Ġmount ain
Ġt ur
Ġp ers
ĠD el
ĠF B
Ġdec ent
Ġcreep y
Ġrac ist
Ġbase ball
Ġnur se
G od
l ock
Ġdo ctors
ĠC IA
ĠG ree
Ġar se
Ġte nd
Ġinclud ing
b id
d og
ĠM aster
Ġshe ll
ol t
Ġch in
per or
Ġdest roying
iv al
Ġconvers ation
k ward
Ġse ed
Ġde ce
ĠC han
Ġcha mp
Ġshow ing
Ġbab ies
Ġapp arently
Ġbar rel
ĠSp an
? .
w alk
y e
Ġl ump
Ġre ck
Ġj e
ul a
Ġvir us
Ġhun ting
Ġpress ure
ĠMexic o
Ġpolit ic
ĠNeg ro
I D
O U
i os
p a
Ġf rog
Ġo w
ĠT im
ĠW il
ĠL at
ĠK n
Ġfl owers
Ġchick s
Ġbow l
Ġax e
p y
Ġh ump
ĠTh om
Ġdest ruction
Ġmir acle
Ġopin ion
er v
ĠB ro
ĠG reat
Ġman ager
ĠL os
ol ate
Ġex pen
ĠTh ree
Ġlot s
ĠThan k
Ġbene ath
B e
Ġh ug
as ure
ĠL ast
Ġtra il
Ġres c
Ġpun ished
Ġpap ers
Ġdiv orce
Ġnumb ers
Ġfreed om
Ġg rew
Ġth ugs
us sy
Ġha g
ill iant
Ġwas hed
Ġwh ip
ĠS pe
Ġno ble
Ġfl ash
Ġhear ing
ci ence
Ġmill ions
Ġcond ition
Ġwip ed
m ission
Ġbut ter
Ġlo y
ee ze
Ġz ero
Ġque er
ĠMart in
n am
Ġst airs
st on
ĠB ur
ĠThe ir
Ġv ul
Ġshould ers
Ġblack s
Ġaw kward
Ġca used
Ġintellig ent
ĠVict or
Ġw ire
Ġm ail
it ions
Ġh ipp
ĠW ow
Ġass ist
Ġgr ass
Ġspe ed
Ġprison er
Ġart ist
Ġcommand er
g ie
ad a
ĠG ar
ĠP oor
Ġv ain
Ġv icious
Ġsm ack
ort ed
Ġug l
Ġbur st
Ġweird o
Ġboo ze
O R
Ġbe gg
Ġst ars
ĠS outh
ĠH igh
ĠL ie
ĠR ome
Ġcred it
y ond
ĠI m
ic idal
Ġfind ing
Ġact ion
Ġcont ract
Ġ2 5
Ġcow boy
Ġgrow ing
Ġed ge
Ġwond ered
v al
Ġdo c
ĠP ete
Ġright s
Ġdead ly
Ġwhere ver
Ġdis m
Ġhome less
Ġfin al
Ġfoll y
Ġprison ers
' ,
Ġb os
Ġc itiz
Ġwor ms
Ġ1 1
Ġpoison ed
Ġpract ice
Ġinsur ance
S t
o ch
s ome
Ġw id
ĠT or
ce ll
ul sive
ain t
Ġpr incess
ĠSt ay
Ġwr ist
ĠRob ert
ĠHit ler
Ġg ig
Ġtr ou
Ġshot gun
ict ion
Ġfore st
Ġbelong s
Ġnar c
N A
Ġ vers
Ġc unt
Ġl ap
ow ed
ĠB u
Ġrem oved
Ġhar der
Ġdec ision
ĠPer haps
Ġsurr ounded
w hy
Ġt un
Ġa unt
Ġyou th
Ġb ass
Ġto oth
Ġbe gging
Ġsh ith
all ed
Ġman aged
ĠSh ould
Ġclean ing
Ġdet on
Ġkidna pped
Ġspl it
Ġener gy
Ġt ent
Ġd rew
om es
Ġbre ad
Ġblow s
Ġhundred s
rib ly
! !
w it
Ġg arden
en ces
Ġsc ra
Ġstupid ly
ĠSt upid
Ġlove ly
Ġpick ing
Ġmag n
ĠAn other
ĠUn ited
Ġhop eless
Ġroll ing
Ġdesp ite
S he
Ġm at
ĠT y
ff in
Ġdis aster
Ġ1 4
Ġcomp an
Ġcons idered
Ġpass ion
Ġinv ite
Ġless on
Ġadd ed
Ġbeast s
ĠLea ve
w ards
Ġm ute
Ġd uty
Ġc hat
Ġp ork
Ġst ro
Ġab and
ĠN at
ĠK ick
Ġsl op
Ġtra vel
Ġposs ibly
Ġbes ide
Ġexist ence
Ġagre ed
Ġunif orm
H ow
Ġr ack
ĠA ct
ĠB rian
Ġsp in
ens ion
Ġyoung er
b its
t here
Ġm ult
ha med
ĠB arb
Ġbr illiant
Ġburn s
int s
oc i
Ġres ist
Ġjob s
Ġrep utation
Ġtre es
Ġvill ain
Ġsand w
Ġsav age
ourn al
f it
Ġp ort
Ġu na
ro c
um sy
ĠF er
ol ic
ĠDe ad
ĠKe vin
ĠCol onel
Ġant i
Ġrom antic
Ġ ,
Ġw oke
Ġc andy
Ġj ew
Ġas hes
ĠO pen
Ġbring ing
ipp er
Ġincred ible
ven ted
Ġtalk s
ub by
Ġcha sed
Ġpiss ing
Ġhuman ity
Ġansw ered
co ver
ĠWal ter
Ġexpen sive
b b
Ġw ore
Ġthe ory
Ġdo in
Ġgu arant
ĠE s
pl es
Ġstr ugg
Ġbec oming
Ġgrand father
Ġstud ents
Ġstrang le
ĠBes ides
Ġd read
Ġp istol
Ġn ation
am ing
Ġre ar
ant age
ĠK im
Ġreal ity
Ġbutt s
Ġpus s
Ġste el
Ġcor ps
Ġsqu eeze
Ġcond em
p es
u k
re m
ĠI d
ĠD ave
ain e
Ġsc al
ĠV eg
fuck ing
bl ood
ĠSant a
Ġremem bered
Ġb ike
Ġr ow
ĠS k
Ġgo ats
Ġun ne
Ġcr ushed
Ġcha llen
ĠV er
Ġsound ed
Ġsus p
Ġocc asion
o is
Ġb i
Ġg ri
Ġst ared
ce ed
Ġsm iling
ĠV ir
Ġbetray ed
ĠNaz i
Ġm as
Ġm ap
Ġh ill
Ġj oy
ĠJ ason
ĠF e
Ġar ri
ĠV an
Ġstay ing
Ġele p
ĠNaz is
Ġparas ite
Ġbrut al
b ook
Ġm ouse
ank ly
Ġpain ting
Ġoffic ers
Ġtrick s
Ġpretend ing
Ġintellig ence
Ġt um
Ġw is
Ġb uff
is a
Ġo x
Ġhe n
Ġbe yond
Ġe arl
ir ts
ĠW ay
Ġup stairs
ent ial
ink y
ĠFr ance
Ġset tle
Ġstrang led
u x
re ct
on er
Ġtr uly
Ġsc ience
Ġcha mber
Ġsn itch
Ġrep res
Ġalcohol ic
Ġpunish ment
Ġwarri or
ĠGen eral
c han
l ers
Ġc ode
Ġc attle
Ġwere w
Ġfl o
Ġlaw s
Ġbas ement
ĠPr ince
Ġembarrass ed
id ing
Ġas ide
Ġman ip
Ġdr ank
Ġsha pe
Ġconc ent
m ind
Ġw ise
it o
Ġg oof
at o
un s
ĠL ee
Ġpr ide
Ġuse ful
Ġprof essor
Ġcockro aches
C K
n ic
Ġp ounds
en ced
ĠW in
Ġre leas
ag o
Ġsu e
Ġlo c
Ġsol ve
Ġcirc us
Ġbreat hing
ĠDan iel
ste in
t in
Ġas hamed
ĠK enny
te en
Ġsn iff
Ġaw esome
Ġfreak in
Ġnail s
ĠItal ian
e f
Ġf ian
Ġfuck s
Ġmother s
Ġign ore
aim ed
Ġmagaz ine
F uck
he st
re ment
ck er
ĠS han
ce l
Ġso ck
Ġknow ledge
Ġfr uit
ast e
ĠL arry
Ġle ather
ĠSt ep
Ġsuck ers
Ġplan ned
Ġsister s
Ġinv ited
Ġlesb ians
Ġmod el
M y
Ġ i
Ġp izz
Ġh ob
ie ce
ell a
ĠJ ones
os es
Ġpl ague
Ġch ose
Ġro gue
Ġrelig ion
m ar
Ġc unning
ust ed
ĠH old
Ġco at
Ġshoot er
Ġfl ight
Ġbreak s
Ġcons cience
Ġdam mit
Ġclim b
Ġspo iled
ĠWor ld
Ġf et
Ġp our
Ġst are
Ġsp ring
Ġpro cess
Ġgr ay
Ġhor ror
Ġrepl ace
Ġnigg a
Ġc ough
Ġfor mer
ĠA my
ust y
ĠH ank
est ed
Ġpo et
Ġsl it
Ġsl im
ĠCh urch
Ġbit s
Ġdisapp eared
L L
Â ´
Ġs ides
Ġf ang
om atic
al ph
all s
Ġall ey
Ġun ple
Ġcar ried
ĠSt ates
Ġexc rement
ĠDid n
ĠEvery thing
e v
Ġb order
am on
ĠT ex
ĠC ast
um ed
and om
Ġoff ense
are n
Ġmurder ing
Ġpus hing
cl ass
e en
Â Ń
Ġt yr
Ġm um
Ġl oss
ĠD en
Ġne ur
ĠK at
Ġgrow led
Ġge ek
Ġnipp les
Ġorig inal
ad ed
Ġas h
ĠM il
ab ility
ĠWh ile
ger y
Ġopen ing
Ġclos et
Ġshr ink
Ġparas ites
c ul
ĠH am
ĠJ ess
Ġcl oud
Ġmass ac
Ġadv antage
Ġfol ks
ic op
ĠD ay
ous es
ĠR a
Ġpro ject
iss y
Ġact iv
Ġcomp ared
ĠBr other
Ġstri pper
Ġmed ical
Ġheal thy
Ġphot o
Ġcoun ter
he m
Ġw ounds
re ll
Ġm eth
Ġd ue
it ar
ly n
ĠW ant
ol a
Ġcl umsy
Ġrel ax
ĠWith out
Ġmut tered
Ġunc om
c Ã©
u z
u ction
Ġb ul
ot es
Ġj aw
un ter
Ġde velop
aj esty
Ġroll ed
Ġserv ant
ĠSomet hing
IN G
A S
E N
g on
Ġw ives
Ġto re
Ġli ber
ĠB er
Ġint end
ĠR alph
Ġorg ans
Ġdisc uss
Ġcir cle
ĠAfric a
Ġunne cessary
e nder
Ġb in
Ġb orrow
ĠK en
ier ce
Ġthreat en
Ġcorps es
Ġrepres ent
Ġunple asant
H ey
Ã ī
Ġp or
Ġn ick
Ġr oot
Ġfr ig
ĠP ri
pl ay
Ġgr ad
Ġhard ly
Ġinter view
Ġrob bed
ĠSim on
Ġw ank
ill ing
ke ep
Ġsh ook
Ġr as
ap h
Ġbr ute
ip le
Ġbel ow
Ġhel icop
Ġexpl od
an ity
Ġp ul
Ġdo ors
Ġdo omed
Ġgo in
Ġde pend
ĠD NA
ĠC ount
Ġrid ing
Ġown er
Ġsn iper
Ġele v
Ġmus c
Ġmach ines
Ġpir ate
Ġwra pped
' ?
Ġn et
as es
ar i
ĠS und
ĠGod d
Ġun it
ĠDo ctor
Ġmag got
Ġgre asy
Ġnut case
Ġlawy ers
ĠCar ol
Ġcent er
Ġfair y
ĠPro bably
ĠGre en
Ġpit iful
Ġtem per
x ic
Ġt it
al es
un ted
ĠJ en
Ġcr it
Ġpain ted
Ġdet erm
Ġsens itive
Ġnipp le
ĠVeg as
p ut
Ġo ce
Ġhe sit
Ġsha m
ĠCh ic
Ġpre vent
Ġcre ate
Ġsmok ed
Ġnews p
Ġsacr ific
S aid
j a
Ġs outh
Ġb atter
Ġc ong
as er
Ġan k
ĠB on
Ġsw itch
ment ed
Ġair port
Ġexper ien
Ġboot s
Ġmeaning less
Ġfro zen
Ġmanip ul
Ġt ube
Ġth ug
st ead
ĠA pp
Ġask s
Ġchild ish
Ġblow job
Ġcrook ed
ĠAny way
Ġbarb ar
I S
f oot
g ins
Ġhe ap
ut ch
ver age
ĠD og
Ġtr oops
res p
Ġsha king
Ġatt itude
ĠU m
Ġinst inct
Ġunderst ood
Ġexc l
Ġstra w
Ġdeser ved
Ġfort une
Ġbos om
s ity
in ated
Ġs ke
Ġc uff
Ġto y
ĠS en
ĠD ie
ĠG old
ĠR ock
ĠK yle
Ġim pl
Ġdet ective
ĠChar les
Ġrub ber
Ġhost age
Ġinse ct
Ġshith ole
Ġlo b
Ġstick s
ball s
Ġlunatic s
Ġhero in
Ġdrown ed
Ġwe ed
Ġwe ather
oo s
Ġj ournal
ĠA ust
Ġgo sh
ĠJ an
Ġam ount
Ġkind s
Ġact s
umb led
Ġlisten ed
phe w
S o
u ch
Ġb ark
ha d
er ved
or med
Ġn est
at ory
Ġst aff
Ġwant ing
Ġback ground
Ġsqu ir
Sh it
ĠSpan ish
ĠLie utenant
f ish
o ons
on as
ha b
Ġd igging
Ġr oyal
Ġre ward
ĠH aw
Ġne phew
ter y
Ġbl ank
Ġcomm unity
Ġob l
Ġmot or
Ġfur ther
Ġincred ibly
ĠRog er
ĠThom as
m ark
r am
er ate
Ġp ipe
ot ed
ce nd
em s
Ġmo ck
Ġfl ies
Ġreal ise
Ġper mission
Ġtra itors
Ġbring s
Ġbur nt
ĠBr own
Ġbra nd
Ġgold en
Ġwound ed
Ġy ards
Ġg al
Ġk itty
Ġr ise
Ġr andom
ĠS up
up s
Ġun p
iv id
Ġdire ction
Ġpizz a
c ast
Ġ 00
Ġb ound
Ġwe ars
Ġr age
se qu
if ying
Ġgo lf
ĠH arr
Ġfr ankly
ĠJ ac
ĠE mp
th ur
Ġco ffin
ĠSt ill
anc ed
Ġgrand ma
Ġpres ence
Ġstud y
Ġju ice
Ġrib s
ĠHolly wood
Ġw olves
Ġli c
ct ure
Ġsa f
Ġsha g
ĠIn tern
ĠFor get
Ġgre y
Ġtre acher
Y our
g a
Ġm ater
Ġme mor
ĠM ont
ĠB a
ĠB ack
ell ing
Ġch ok
Ġsw ine
Ġbelie ves
Ġleg al
Ġwalk s
Ġyell ing
Ġder anged
E D
ou red
Ġp ound
Ġp age
Ġha ul
Ġst yle
Ġcon ce
pl ace
Ġexc han
Ġlead ers
Ġsign al
Ġfeed ing
Ġspec ies
Ġjer ks
y ard
Ġj ury
il a
Ġbutt on
az z
Ġpsych iat
Ġind eed
Ġunc onscious
Ġcult ure
Ġlung s
h ip
n s
z ed
Ġb ars
out s
ĠM ama
ĠM iles
ĠF our
ĠR ep
Ġ1 7
Ġconf ess
Ġpu ppy
Ġslight ly
" ...
Ġs orce
ha ired
Ġd itch
Ġto ler
ĠW he
na h
Ġcut s
Ġfl ag
Ġche m
Ġnight s
Ġper for
ĠLe on
Ġtast es
ĠAd am
ĠAfric an
5 0
i able
Ġb ugg
it ation
at a
ĠO ut
Ġpl ate
Ġint rod
ib ber
Ġpig gy
Ġtest icles
Ġscient ist
Ġearl ier
Ġuncom fortable
r ot
Ġd ent
Ġg or
Ġe mer
ay be
st and
ĠA rab
ĠD est
Ġsm iled
Ġsm ugg
Ġco ach
Ġhum or
Ġacc ursed
Ġspend ing
ĠSm ith
Ġvac ation
Ġgar age
ĠSund ay
h us
Ġb ait
ha nd
Ġe con
... !
ĠD uke
art s
ous ly
Ġgr ade
Ġche ated
Ġsk irt
Ġent er
Ġpsych otic
ĠHu h
ĠFB I
b orn
o ices
Ġthe rap
re p
Ġf ox
Ġg amb
se x
Ġgo bl
all ey
Ġfr ied
Ġsc ore
Ġfl u
ĠV iet
ĠMar c
Ġfree zing
Ġstrang ers
Ġwhis per
Ġpersonal ity
Ġload ed
ĠBet ter
rop ri
Ġpill ow
Ġshad ow
Ġelep hant
k ins
m et
u h
Ġf old
Ġj oint
Ġtr ous
ĠR od
Ġgr im
Ġmon t
Ġsur gery
Ġacc ompl
ĠFr iday
Ġweak ness
Ġstep s
ĠMexic ans
Ġpriest s
ĠEm peror
Ġcann on
Ġs oup
it ched
Ġli on
ĠM ill
Ġbr ide
Ġran ge
ĠEx cept
ĠSer geant
Ġetern al
Ġmix ed
Ġextreme ly
Ġoce an
Ġa ch
Ġa pe
Ġw ag
Ġm ol
Ġhe els
Ġst ing
il ies
ul f
ĠO w
Ġwait ress
Ġadd ress
Ġdep artment
ĠPro f
wh ile
Ġrepe at
l or
m es
it ches
ĠM ur
Ġsl ug
Ġmatter s
ĠDou g
I T
ve re
Ġsh oe
ag ers
Ġthr one
Ġcr ash
Ġpre c
Ġcow ards
Ġmist ress
Ġjack ass
Ġfle w
ID S
r an
Ġh ip
Ġth y
Ġbe nd
se ll
Ġwh ites
Ġch oc
Ġser ved
Ġser geant
Ġapp eared
ĠAl an
Ġconf ir
Ġdoll ar
oph ile
Ġobs c
Ġaff air
Ġpet ty
Ġsav ages
Ġbill ion
Ġetern ity
Ġbehav ior
Ġfian cÃ©
* *
i od
re en
en g
Ġr ug
ver t
ĠH or
ĠM att
Ġor p
Ġun w
Ġun like
sh ut
Ġexp osed
Ġlick ing
Ġemotion al
Ġtrad ition
Ġp ity
Ġr it
Ġwh ipped
Ġre ject
ĠM o
ĠB ern
ĠD ark
Ġbr ief
Ġag g
Ġblack mail
Ġhar ass
Ġpiss es
Ġcow s
ĠBr ad
ĠIs n
Ġsqu are
Ġcirc um
Ġcab in
Ġextermin ate
Ġanc ient
Ġguarant ee
Ġreleas ed
) .
l s
z o
z er
ur ies
Ġlet ters
Ġass oci
Ġacc ent
Ġacc ess
Ġhol iday
ĠD es
ĠG ab
ab les
os en
ĠR ich
ath y
urd ay
Ġsk ills
Ġmouth s
ib al
Ġpain ful
min ist
Ġwin ter
ĠGre g
ĠAb out
Ġpract ically
Ġmere ly
Ġassist ant
blood ed
Ġmont ana
" ,
Ġha nah
ĠA IDS
ĠP et
Ġtw ist
Ġ1 3
Ġacc used
Ġwood en
Ġcustom ers
mind ed
ĠChic ago
b ers
g irls
ha w
Ġli ars
Ġr od
Ġco ke
Ġim age
Ġwar ned
Ġyell ed
Ġtow ards
Ġcheek s
Ġunfortun ately
Ġsandw ich
b ur
b ox
r ad
w as
Ġh ips
Ġkn ight
ĠM ajesty
Ġsee k
ud ge
Ġro ast
Ġwar rant
Ġmid night
Ġhigh ly
i ens
id a
Ġr out
Ġsu ffe
Ġsu gar
ĠL au
ĠL isa
ĠJ ose
Ġcur rent
ĠAr thur
Ġdrive s
ĠJo ey
Ġgro in
ĠOther wise
Ġresc ue
ĠTex as
m ond
s ion
he a
Ġb ent
ĠB itch
Ġab used
ĠG ray
âĢ ĵ
Ġcare fully
Ġrem ark
Ġfam ilies
Ġheart s
Ġpull s
Ġph il
ĠWho a
ĠWho ever
Ġfall ing
Ġsweet heart
Ġmass ive
A ss
Ġc yn
is her
an ch
st ick
ĠD ar
ĠR achel
ĠSh ow
Ġho ll
Ġpart ners
Ġgl o
Ġchick ens
Ġhypoc rit
ashion ed
Ġmedic ine
Ġdish on
he y
Ġw ing
at ives
Ġst alk
ĠF re
res pect
Ġour s
Ġchan ces
Ġfact ory
Ġexper iment
Ġtick et
? âĢĿ
T here
g ment
Ġf und
Ġyour selves
ant e
ĠH a
Ġso d
omed ay
Ġfoc us
ĠAct ually
r ud
Ġl ake
an i
ĠW itch
ĠA in
ĠM m
Ġbl ink
nt il
Ġstr ing
Ġinst it
Ġbur gl
ĠAr my
Ġmus cle
Ġsecret s
oun ced
Ġshar k
Ġc ere
Ġe ager
ĠM s
Ġal t
Ġlo g
Ġpo inting
ple x
Ġwar n
ĠBl ow
Ġvir t
Ġopp on
Ġhun ter
Ġnorm ally
Ġmut il
Ġteach ing
Ġcost ume
ĠSat urday
Ġrit ual
s pect
in n
Ġm ur
Ġd arling
Ġg ibber
Ġl aughter
Ġwh ist
ĠH om
Ġwom b
Ġpussy cat
Ġmoment s
Ġpunk s
Ġwindow s
Ġfur ious
Ġsweat y
Ġnar row
Ġtri be
1 0
Ġg ren
Ġr are
uck le
ĠB at
ĠD a
ĠL ind
Ġcom fort
Ġsm arter
rup ted
Ġpur s
Ġkidna p
Ġcast le
Ġsuffoc ate
Ġlink in
Ġwerew olf
Ġfang s
f rom
t han
in er
Ġto ast
Ġin vent
ĠT od
Ġj am
Ġman ure
Ġtr amp
ge nd
ud es
Ġrem ains
Ġcross ed
Ġmort al
Ġexplos ion
ĠT HE
if er
ell ed
ook ie
Ġter ribly
ĠDr op
ĠKill ed
Ġsna p
Ġrepe ated
Ġattract ive
kn own
f ashioned
id el
ĠM eg
pp ers
Ġpl us
Ġsp ine
Ġsc rap
Ġfar mer
ili ar
Ġwa ist
Ġtum or
Ġchoc olate
W ho
Ġr ul
ust er
ĠL ove
Ġpr inc
ian ce
Ġper iod
uff y
row s
ĠAn nie
Ġsim ilar
Ġcent ury
Ġrespons ibility
A re
u ise
ĠH ard
Ġde er
ĠM ove
Ġoff end
ĠR om
ĠK id
ĠK ore
Ġdis order
ĠBe at
Ġfant asy
ĠDet ective
Ġhig her
Ġmater ial
B l
Ġf ence
Ġc av
Ġp ow
Ġag ents
ĠK r
ac ul
ub lic
ĠSt u
Ġent ered
Ġopp os
Ġpan ic
ĠLat in
Ġelev ator
r ous
Ġ ing
ha ble
Ġl ately
ar ily
id ate
Ġme al
am ent
ter ing
Ġcl in
ure au
umb ling
oll en
ĠAs ian
ĠJack ie
ĠCar ter
ĠSe an
Ġprod uct
Ġden y
Ġgy m
Ġsuffe red
b itch
Ġd ict
ve y
ra el
un ction
Ġso ap
ĠC rap
Ġal iens
ĠF ind
Ġbr ot
Ġbad ge
Ġtra ve
Ġmor al
Ġstrong er
Ġpop ular
Ġsal es
Ġfix ed
h unter
l ife
y es
Ġw ished
or g
Ġin vented
en ger
ay s
Ġli cked
Ġfor bid
Ġwh ining
ĠS qu
Ġab ortion
Ġsa us
ĠP ussy
Ġint est
Ġfe ather
Ġsl ipped
Ġro le
Ġkind a
Ġte xt
ĠU se
Ġpig e
Ġinst ruct
Ġsent enced
Ġswe ep
Ġexper t
Ġpunch ing
Ġer otic
Ġver min
Ġphys ical
Ġsuccess ful
Ġearn ed
in ating
it als
Ġc y
Ġl at
ĠS her
Ġso cks
ĠM ir
ro b
ĠD un
Ġgu itar
ap ers
Ġch osen
ĠK ate
ĠK elly
ip ment
Ġpr oof
ĠU ntil
Ġsch iz
Ġcrim es
Ġsy mp
Ġtreat ment
Ġconv icted
Ġhop ed
Ġdisc overed
Ġsurv ived
Ġbeha ve
Ġaband oned
Ġtrous ers
Ġ xx
re nder
or ity
om s
Ġr ail
Ġde gen
ĠP ret
Ġar g
ĠE ve
ish op
Ġpo le
Ġche cked
ĠV al
ĠU S
Ġchild hood
Ġcompl icated
Ġstay s
Ġthroat s
Ġlight ning
Ġcoll ap
Ġwall et
Ġprotect ion
Ġhun ted
Ġequ ipment
Ġnor th
ĠSus an
Ġbrot hel
d ra
Ġw aving
Ġf o
ar med
Ġr ose
Ġr ode
Ġfor ces
ĠC os
ĠL ong
ĠP ort
ĠP ope
Ġpl ot
Ġback side
Ġhead ed
ian o
Ġfl ames
Ġpol ite
Ġapp le
Ġcook ing
ĠJe an
Ġxx x
G et
f ire
Ġa verage
Ġth irty
Ġfor th
ĠW es
ĠH ad
Ġde g
Ġso ci
Ġun re
Ġdeath s
ump y
Ġimag ination
Ġcap ital
Ġpress ed
Ġcheer lead
Ġsham eless
Ġd awn
an ic
Ġha bit
Ġst er
ĠS it
ĠD ammit
ive ly
ĠN ice
Ġthr ust
Ġsw ollen
Ġsur face
Ġinst r
Ġcons pir
Ġexpect ing
Ġsign ed
Ġdist ance
Ġesca ped
yn am
Ġgentle man
ropri ate
Ġ ig
ou ch
ĠS har
Ġse al
Ġkn ives
ĠB ay
ab l
ĠN one
Ġex ha
Ġmo le
Ġins anity
Ġsit s
Ġcol ored
ĠRe ally
Ġdam aged
Ġneighb our
Ġprostit ution
Ġattempt ed
ĠProf essor
D o
or ate
ĠS a
ĠA ri
ĠD onna
ell e
Ġback s
Ġcom fortable
less ly
ile y
Ġact or
Ġsur geon
Ġgl ory
ok en
Ġrec ently
af ia
Ġexplain ed
Ġwhis key
Ġce iling
Ġanc est
Ġgibber ish
i oc
w in
Ġ venge
Ġl imp
if orn
Ġan al
ĠM ust
ro s
ick in
ĠR ose
ĠR oy
ĠCh uck
ĠCh ina
Ġhar sh
Ġbu zz
Ġbo ld
ĠJack son
Ġship s
Ġslut ty
ĠVir gin
Ġhelicop ter
ĠT ime
ĠH ot
Ġnot hin
Ġup per
Ġsp ider
Ġpatient s
Ġcompet ition
Ġvers ion
Ġdeterm ined
Ġ ess
Ġd un
ĠI ra
Ġl ines
Ġp ud
ic ient
ra nd
ĠS n
ĠC a
ĠC at
ca ine
ĠO oh
Ġcl ock
Ġfriend ship
Ġmurder ous
cept ion
got i
Ġwin ning
Ġve st
Ġassass ins
Ġsna kes
Ġpolit ics
ĠMon key
Ġcollect ion
Ġfed eral
Ġsour ce
Ġfrig gin
b a
n ant
Ġ 0
Ġc ared
Ġl ust
un ior
ig an
ĠL y
Ġsl ip
Ġcr is
Ġmist akes
Ġking dom
Ġdep ressed
Ġbum s
Ġcas es
Ġfan atic
ĠCal iforn
Ġconnect ion
Ġparticul ar
Ġorp han
k on
n or
Ġ `
Ġh ouses
Ġu lt
ĠS and
ĠS heriff
ĠL uke
Ġsp r
ĠR id
Ġv ision
Ġcom plex
Ġplay s
ĠBr ing
Ġent ertain
Ġfoolish ness
Ġdet ect
Ġve get
Ġfart s
ĠGu y
Ġfra k
Ġexchan ge
Ġto m
Ġg ather
st op
ĠP iss
Ġdown stairs
Ġtalk in
Ġsw amp
Ġter m
Ġact ed
Ġbitch ing
Ġpre cious
ĠJohn son
Ġhun ger
suck er
Ġlic ense
ĠIntern et
l am
Ġthe e
Ġf ires
Ġo ption
Ġshit less
ĠN avy
Ġfool ed
Ġkick s
ĠDamn ed
ĠIn stead
ĠFuck in
Ġind ivid
Ġsport s
Ġinfl u
Ġtur key
H ell
u a
ĠT erry
Ġsa c
Ġpl ug
Ġv ote
Ġsm ooth
ĠK ir
Ġfl ush
Ġstand s
ĠAn na
Ġperver ted
Ġval ue
Ġarri ved
I C
n at
Ġt empt
Ġy e
Ġr hy
Ġj onas
Ġle gend
ĠSt ar
Ġact ress
iv a
Ġdeal ers
pr ing
Ġhur ting
Ġ6 0
Ġpolitic ians
Ġbegg ar
Ġras cal
ĠCaliforn ia
d r
Ġy o
Ġn ational
her s
ĠB astard
ĠC oll
Ġcon sequ
Ġsl ice
ĠU gh
Ġcont ain
ĠFrank ie
Ġimm ature
ĠEd ward
ĠCath olic
d ie
Ġ Â
Ġb arn
Ġr aw
ĠH an
Ġab ility
ĠC y
ĠG al
Ġor ange
ĠJ ord
Ġpe ed
ĠR andy
Ġbad ass
Ġfool ing
Ġbeing s
Ġfight s
Ġbec omes
Ġinc re
Ġjerk ed
Ġdist ract
umm ies
Ġscumb ag
ĠTod ay
! âĢĿ
i h
or ious
ad ing
Ġab use
iz es
Ġfam iliar
Ġsword s
Ġut er
Ġeduc ation
v ir
an ing
ĠA N
Ġse ason
Ġne goti
ĠG ary
Ġal b
ĠF il
Ġcr own
Ġcar pet
ens ive
Ġansw ers
Ġve ins
Ġdesp ise
Ġteen age
ĠEn ough
Ġfright ened
Ġmyster y
L E
g ain
k o
s er
Ġa kon
Ġw we
Ġs an
Ġb b
Ġb ik
Ġf ile
Ġc ooper
an ke
ad ise
il is
ag n
ĠF ar
Ġser ies
Ġret ard
ph y
Ġlead s
Ġdist ur
Ġref used
Ġsal t
Ġintell ect
Ġchop ped
Ġclient s
Ġcraw ling
ĠRick y
f orm
Ġb ollocks
Ġhe nt
ad em
Ġst ones
ĠW alk
Ġ" ...
Ġup side
ĠB al
ĠG irl
Ġshe d
ook s
ĠO b
ĠO ff
Ġle ar
fe rence
ap e
Ġco caine
orn ey
Ġpoint s
Ġrep ulsive
Ġchar ming
Ġdel ight
Ġdep ra
Ġmed ia
Ġclass ic
oph ren
Ġdiv or
ĠMor gan
Ġca using
Ġnerd s
ĠBra nd
Ġprim itive
Ġbass hunter
ĠDest roy
v iet
Ġt a
Ġs hat
Ġc ord
ĠC ent
ĠG irls
Ġman age
ag an
Ġlo ving
Ġcl ue
ber g
Ġho g
Ġpart ies
ĠU p
Ġpar ade
Ġang els
Ġmeant ime
Ġprick s
Ġtow er
Ġtreacher ous
Ġhent ai
z ard
Ġg ain
Ġg oose
ĠW ood
ant ed
ĠH and
Ġcan s
el ie
ĠO sc
Ġgu ilt
ri pt
Ġar mp
Ġsl ob
Ġkid ney
Ġim per
Ġgreat er
Ġcont empt
Ġstink y
Ġlead ing
Ġteen ager
Ġperf orm
Ġindivid ual
A ll
r ont
Ġs ar
Ġd ang
ĠY ear
ĠH ope
ĠL ad
ep s
Ġgood bye
Ġam ate
ress ing
ĠAr ch
olog ist
Ġjump ing
Ġmor gue
Ġporn o
ĠAny one
wh ich
Ġhumili ated
Ġpal ace
Ġwitness es
Ġfant as
Ġinstit ution
b re
c alled
Ġo pt
Ġg est
Ġth ou
Ġr aid
Ġr ush
Ġre ek
ur ry
op hy
ĠM ed
ag ing
Ġwor ship
ist an
Ġcl ut
Ġpro se
Ġfat ass
ĠCh ief
Ġste ak
Ġsqu eez
Ġcons id
ĠJes se
ĠHell o
Ġvir gins
Ġla wn
ĠMick ey
Ġnewsp aper
p or
p ers
Ġw ack
ĠW olf
um ents
Ġplay ers
Ġcop y
ĠHow ard
Ġlos es
Ġcor rect
Ġes c
ĠCl ark
Ġstar ving
Ġsim pl
ron ic
ĠPat rick
Ġcraw l
Ġwid ow
Ġuter us
t ail
u an
Ġw rap
is y
ar ters
ic ing
Ġdo d
Ġdo se
ĠT en
ĠA p
ĠH mm
ĠD ep
ĠC ap
ĠC arr
th s
irst y
Ġsw ore
ĠSo viet
ĠBe ck
Ġ5 00
Ġcol onel
ĠRuss ia
Ġnail ed
Ġmotherfuck ing
Ġmotherfuck ers
Ġwret ch
Ġtow el
Ġmod ern
Ġcamer as
la us
Ġneg ro
Ġparticul arly
Ġdread ful
Ġsaf ety
Ġschiz ophren
r ite
t own
Ġ ven
Ġt ale
Ġb art
Ġm os
et ic
Ġde ck
Ġfr ickin
ĠD or
Ġle ap
Ġmake up
ug ger
Ġwr iter
Ġfull y
ĠIs rael
Ġdrive n
ĠFl or
Ġswallow ed
Ġreact ion
Ġaud ience
ĠFranc is
Ġtrou bles
L et
j ack
l ot
m uck
Ã ¡
Ġt one
Ġt urt
Ġa st
Ġd ummies
Ġto ys
Ġn it
Ġst amp
Ġsh y
ĠT al
ĠS we
ĠS ounds
os al
ĠF ore
Ġfe e
Ġcon cl
Ġtra ffic
Ġroom mate
uth less
Ġsmall er
Ġmot el
Ġhumili ate
Ġpir ates
lect ed
Ġappro ach
Ġchallen ge
g irl
Ġm ush
Ġf el
ed ge
Ġbl ess
Ġsp ies
ĠV ic
Ġhalf way
Ġdump ster
Ġdet ails
gen cy
Ġhy ster
Ġnigg ers
Ġoppon ent
2 0
b led
p ot
w ill
Ġm all
Ġto xic
ay ed
ĠH all
um es
ĠJ am
Ġlet hal
Ġper ish
Ġsecret ary
omp ous
Ġprotect ing
Ġneighb ors
enn is
ĠGree k
Ġmemor ies
T hen
b on
c ol
g ood
Ġb ureau
Ġd ough
Ġp owers
Ġwe as
Ġli br
ĠH as
ĠC ase
Ġshe l
ĠJ osh
ol ent
Ġsc ript
ĠWe re
Ġfl ame
Ġmind less
Ġsqu at
Ġdire ctor
ĠGu ys
Ġmark s
Ġbug s
ĠRob in
Ġaccident ally
Ġcripp led
ĠCarl os
Ġlift ed
ĠTur k
Ġsoci opath
i our
Ġt ask
Ġw est
Ġs ite
Ġm ath
ha nded
Ġin her
Ġse m
um n
Ġsa int
ĠF ine
ĠK al
Ġun gr
iz er
Ġwr ink
Ġattack s
ĠCl ay
Ġtre asure
Ġfav our
Ġjud gment
Ġperver ts
Ġruin ing
Ġproper ly
Ġboot y
Ġdesign ed
Ġreck less
Ġscal p
resp ons
f ight
Ġm ile
il ities
ĠD ere
ĠL ily
ĠJ on
ĠP op
ĠE arl
be at
Ġsl ipp
Ġbel oved
Ġwr ists
ling s
Ġdrug ged
Ġspir its
iam i
Ġsong s
ĠMart y
Ġdeton ate
R A
b ar
c use
h is
t i
Ġf ond
Ġha ck
Ġme lt
al o
ir al
Ġfor k
ĠM id
Ġal arm
ĠF ace
ĠK iss
aught ers
Ġinst ant
Ġdra wn
Ġbang ed
Ġcomplain ing
Ġblast ed
cra ft
ĠBab y
Ġgoof y
Ġmeth od
Â Ŀ
on ies
ĠS ol
st ances
Ġgo al
Ġde mented
ĠSt r
ĠV ince
Ġfre aked
app y
Ġmount ains
Ġval u
Ġshove l
Ġsail or
Ġcondem ned
ĠWay ne
Ġslim y
Ġungr ateful
! ...
N ow
g us
Ġt in
im ps
ĠH ol
ĠD u
ĠD oc
ĠL aw
Ġpl at
Ġsp ect
ug nant
Ġjerk ing
min ate
Ġpack ed
ĠLe o
Ġinvestig ation
Ġalt ar
d est
f unction
ou st
Ġd om
er ior
ot ton
Ġe j
Ġwas hing
ĠH ang
ell er
Ġsu its
are st
Ġch ip
Ġfat al
ost on
Ġsur render
Ġstab bing
Ġill ness
Ġshort s
Ġmass age
Ġcover ing
ĠGra ce
ĠEm ily
cha ir
Ġrobber y
Ġmart yr
ĠKn ock
a e
h or
h ib
Ġs ou
ĠI nt
as hes
Ġr oo
Ġse vere
ĠD E
Ġsp ite
ĠR at
Ġar ch
Ġcl aws
au gh
Ġopen s
ĠChrist ians
Ġrep orter
Ġrep ugnant
Ġfil ming
Ġdrop ping
Ġrob ots
Ġz one
Ġbas ed
Ġremind ed
ĠPl us
Ġcelebr ate
Ġrevol ution
ĠHon or
Ġtyr ant
Ġmur m
ynam ite
ĠIra q
b ull
r s
Ġb udd
Ġd y
Ġd ign
Ġl ud
ad o
ad der
uck ed
ĠD ennis
ess a
ive red
ĠJ ay
ĠJ ere
ĠO ver
ĠP o
Ġint ent
ĠR am
Ġass ign
unk y
Ġgay s
Ġroom s
uc er
Ġtor ment
Ġdream ed
Ġjunk ies
ĠKill er
Ġhonest ly
Ġhost ages
ura i
ĠRon nie
Ġintern et
Ġmusc les
O M
n ut
s ch
t r
z a
in ity
Ġw at
Ġb ail
Ġhe ight
Ġr az
ĠT ri
Ġher s
ĠM ajor
ĠD arn
ĠC ow
os c
Ġch ump
Ġun known
Ġmon k
Ġins ist
ĠU nder
Ġthrow s
Ġcont roll
Ġrec ru
Ġtrust ed
Ġdi arr
Ġembarrass ment
Ġenjoy ed
Ġocc ur
Ġere ct
Ġenc ou
Ġiss ue
Ġdecl ared
I n
Y es
c om
Ġt iger
Ġg ag
Ġp ra
Ġst ench
ĠD ale
Ġus es
ĠP u
Ġint ention
Ġent r
ĠAr t
Ġexec ut
Ġband its
Ġocc up
ĠJac ob
Ġhypocrit ical
Ġburgl ar
l at
Ġs issy
Ġf ans
le v
ĠT an
if ter
ĠS id
Ġse vered
ĠYou ng
Ġso ber
ab led
Ġoff ering
oy le
Ġbelie f
ĠBe ing
Ġdisg ust
Ġdumb ass
Ġhook ers
Ġland s
gy pt
Ġreport s
Ġshout ing
Ġbother ing
Ġgener ation
Ġspank ing
Ġloy al
otes que
. )
W hen
a way
p ha
u um
Ġp ompous
Ġn ap
at oes
Ġsh ield
ĠT ar
Ġfr ust
ack s
Ġman ners
ĠO k
ĠF ive
ri que
Ġint im
Ġsc reen
Ġdr um
Ġass ure
ĠV ery
les ias
Ġclean ed
Ġinf ant
ĠCl ub
Ġresp ond
Ġremind s
ĠSil ence
Ġtrail er
ĠJord an
b i
p ent
t w
it able
Ġf ashion
Ġto es
Ġin ch
Ġme chan
Ġr uthless
if ts
ĠG ross
Ġbl o
ag ne
Ġno vel
ĠP a
ĠR eg
Ġbr ush
Ġche f
Ġpre v
Ġhook ed
Ġdraw ing
ĠCla ire
Ġlean ed
Ġdisappoint ed
ĠEmp ire
ĠLeon ard
Ġgren ade
Ġbudd ies
E T
d id
m ates
Ġb ond
Ġf u
Ġn uis
us ive
Ġsh own
ĠY anke
all ing
her n
ĠH ill
Ġso re
ĠB art
ĠJ enny
Ġen rique
Ġgl ob
Ġrec omm
Ġposs ibility
Ġir re
Ġir respons
Ġexp ose
Ġdev ast
Ġkidna pping
Ġinfect ion
Ġbasket ball
Ġbehav iour
Ġrese arch
ĠMurd er
Ġig lesias
Ġsac red
m ic
Ġd aughters
or p
om ic
Ġst ream
ch ild
ĠC am
ĠJ ed
ĠE gypt
Ġbr ick
Ġen s
ian a
ĠSt ate
Ġmin ister
Ġpol icy
Ġhor r
Ġsent iment
Ġ3 00
ĠSw ed
ĠJer sey
Ġlear ning
ĠDere k
Ġvalu able
C h
j o
u ge
Ġs omeday
Ġd ed
Ġo ath
Ġe go
Ġsh oved
ĠB ond
ĠC ub
Ġar gue
oy d
ĠK laus
Ġdis respect
Ġsha ck
Ġcha p
Ġgra ce
Ġpen et
ĠBar ry
Ġsew er
A L
k ick
m ous
Ġb usting
Ġd ug
Ġc urt
Ġin ept
Ġe ld
ic an
Ġfor ty
ĠL A
ĠL iar
ĠN ik
os ing
ri but
ard on
Ġhand ed
ac on
Ġgr otesque
Ġbre ed
ĠBl ood
Ġset t
Ġpsych ic
Ġdress ing
Ġdel iber
Ġimag ined
Ġdemon str
Ġbelong ed
str ous
Ġlim b
ura lly
ĠLuc y
Ġsam ple
ĠHel p
ograph y
Ġiss ues
Ġpa ed
Ġsquir rel
Ġoppos ite
ĠPret ty
Ġnuis ance
Ġ ~
Ġc um
Ġh orm
Ġk ar
im s
ĠY OU
ĠC as
ĠP ap
Ġv ar
ne ath
Ġchan ging
Ġbeat s
Ġside walk
Ġreg ul
Ġpur se
Ġdrown ing
zz le
Ġwarri ors
Ġdecl are
Ġhipp ie
ĠId iot
Ġexperien ced
Ġbugg ers
Ġphil os
Ġconsequ ences
p ro
ĠS ix
ĠA lf
ĠM ond
ĠP ull
Ġv ap
ĠWe nd
Ġpo ke
Ġbrain w
ne ys
Ġball oon
Ġad vent
Ġpar adise
Ġdefe ated
Ġsol id
Ġstro ke
Ġdivor ced
Ġlud ic
O L
a ver
s p
er ve
et ed
ld on
Ġfuck ers
Ġbl az
Ġgood s
rain ed
Ġcar c
sh irt
Ġsha ved
Ġper cent
Ġatt ached
Ġbitch y
Ġbit ing
Ġapp et
act ion
ĠBl ue
Ġlau nd
ather ine
Ġz oo
ĠTom orrow
Ġgovern or
Ġrepl aced
ris y
Ġlim ited
yl on
ĠMuslim s
T o
U T
a ire
e ven
v o
Ġw are
Ġw ax
on a
Ġin cap
ĠT roll
Ġfor nic
ie ved
ĠA sh
ĠA gent
ĠD ri
ag ues
ĠAnd rew
Ġcom a
Ġstupid est
Ġfl ood
Ġhel met
Ġcomm ission
Ġsca nd
Ġaw ait
Ġfil ms
Ġpen ny
Ġvict ory
Ġdeep ly
Ġclub s
Ġstate ment
Ġfif ty
oster ous
ĠHal f
Ġvul gar
Ġsacrific ed
b ie
e ous
i ation
s ha
t ake
Ġd ried
Ġd ung
ing ton
Ġp ad
ĠT re
st y
ĠH i
od es
Ġshit s
pl ed
Ġgr ief
Ġmon strous
ĠSt ri
Ġwork ers
Ġatt orney
Ġad minist
Ġlie utenant
Ġgre ase
for ce
Ġbox es
Ġpleas ant
Ġshop ping
Ġpock ets
Ġdiamond s
Ġsepar ate
Ġpuss ies
Ġbart ender
c ar
g iving
Ġbe ef
Ġe lf
ic ip
ĠB oston
Ġab dom
ain ted
os is
ĠP an
ri er
Ġsp itting
Ġlet s
be y
Ġel bow
Ġmove ment
Ġworth y
Ġdet ail
Ġtroll s
Ġadm itted
Ġappear ance
Ġdip l
Ġcitiz ens
Ġmassac re
I L
b an
i xt
Ġt ons
Ġb unny
Ġf ierce
Ġc ro
Ġo l
Ġhe av
le m
ĠM iami
ĠG er
our t
ul k
ĠN ancy
ĠO ffic
os aur
Ġsp oon
Ġv oices
Ġsl ain
Ġdes cend
Ġsleep s
Ġsupp ly
Ġmar ch
anna h
Ġexpl an
cher s
Ġsy mb
Ġcat ches
Ġwin ner
yp sy
Ġspeak s
Ġband it
Ġenjoy ing
Ġsuc ceed
Ġge nder
ĠDoes n
ĠMars hall
Ġcand le
Ġwand ering
Ġmaggot s
ĠRep ublic
ĠJose ph
Ġirrespons ible
J ust
b ab
l ord
w ould
Ġd ial
ĠH ay
op sy
ind er
ĠL ife
itt ies
Ġcon qu
Ġpr int
Ġfl ip
Ġmu le
Ġsk ip
Ġneck s
Ġbro om
Ġsign s
Ġref er
Ġgent ly
Ġlock er
Ġcell s
Ġcivil ians
Ġclaim s
Ġcapt ured
Ġtyp ical
Ġmyster ious
rat ul
Ġinflu ence
b ling
k ers
l an
m aybe
Ġw ig
is ible
Ġsh red
ĠS ally
Ġgo ss
Ġhis sed
ĠM u
ĠC are
ood le
ĠL and
el ve
ĠO t
Ġdamn ation
ĠK ar
Ġmight y
Ġbeha ving
Ġdev ice
Ġarrog ance
Ġreach ing
Ġtem ple
Ġfant astic
ĠWall ace
Ġuna ble
ĠApp arently
ĠMarc us
F or
b urn
r ig
r ants
w oman
Ġt iss
er c
Ġp iano
im um
Ġsh iny
ĠT alk
st ate
Ġj ar
ĠH oney
Ġfr igging
Ġsa uce
ĠP en
Ġsp at
ĠR un
ine a
ass es
Ġfl ower
Ġche ater
ne g
Ġbus h
Ġentire ly
Ġrock et
bl ack
ific ant
Ġrab bits
Ġghost s
Ġtick ets
Ġsen ator
Ġconst antly
ĠEll iot
Ġterr ified
Ġpsychiat rist
ĠOsc ar
Ġmurm ured
Ġraz or
Ġdiarr hea
n uts
Ġf iend
Ġc am
as ing
st able
Ġde bt
ĠB ell
ĠB urt
ĠL u
Ġwor n
Ġsp illed
ĠR oss
Ġhead ing
Ġfe ared
Ġsl ammed
Ġgr ateful
Ġend ing
Ġhelp s
mor r
Ġsort s
Ġtrans fer
Ġcook ed
Ġfra g
Ġcapt ure
Ġest ate
ĠSec ret
Ġneur otic
Ġpow der
Ġesc ort
G o
e ches
Ġb itten
Ġd iss
Ġl amp
Ġbe gged
Ġr ounds
ĠA ren
Ġfr ame
ĠC ass
ak ers
ĠP art
ĠAnd re
ac ing
Ġgr umpy
ĠSo on
Ġpre y
Ġsal ad
ues day
Ġpot ential
Ġrab ble
Ġgrin ning
Ġcruc ified
Ġperf ume
Ġcitiz en
ĠLau ra
ih il
Ġweas el
ĠJere my
A M
f its
h ot
h uman
Ġp anc
or a
le g
Ġe ast
al a
ĠT ob
uck s
Ġan us
ĠC ur
ab out
ĠP ick
Ġpe an
Ġex cell
ge red
Ġen orm
ber ry
Ġfriend ly
Ġfun ction
Ġgen ital
ount ain
Ġchar lat
ĠGerman y
let on
ĠPer cy
Ġreb els
Ġach ieve
ĠFlor ida
k ind
s a
t im
u ary
Ġa venge
Ġw rest
on i
it ter
Ġg ear
ĠB oo
Ġsu icidal
ĠL ock
Ġsp ark
ĠR us
ĠR iver
Ġac id
Ġsk ank
Ġcount ing
Ġcomp ass
ĠDe v
Ġmiss ile
Ġidiot ic
Ġgre ed
Ġpur ple
ĠAt t
Ġjok er
Ġdanc er
ĠSu ch
Ġappear s
Ġident ity
Ġscoundrel s
ĠStep hen
Ġank les
Ġsaus age
Ġdepra ved
d ead
f ors
n is
o ard
Ġ &
ĠI van
Ġc her
Ġg orge
Ġhe morr
Ġst ir
ĠT uesday
ĠA c
Ġher d
ĠC yr
Ġpe as
ĠSh ot
ĠCh ild
ĠU s
Ġbit es
Ġsch muck
Ġbo ats
Ġkiss es
Ġoffic ially
Ġstud io
Ġland ed
Ġhom icidal
Ġtear ing
rit ory
Ġcommand ed
Ġer ase
Ġsuit case
Ġimm ig
Ġrecogn ized
ĠJul ian
Ġje ans
Ġnarc iss
ĠTy ler
Ġgri p
Ġtherap y
Ġancest ors
Ġlaund ry
" !
Ġf ug
Ġf anny
es ar
ay ing
Ġli zard
Ġr ig
ĠT ha
ĠT ay
Ġne ut
Ġsa le
Ġthere fore
el ing
Ġdr ill
ud ed
ĠK aren
ild o
ĠSt one
Ġunder neath
ans on
gg y
Ġfight er
Ġrap ing
Ġdevil ish
ax y
Ġra ising
Ġsuper ior
Ġgang sters
Ġla unch
Ġobs erved
Ġrecord s
ĠAnt on
Ġhypoc risy
Ġliqu id
Ġugl iest
Ġmult iple
Ġinstr ument
Ġconsid ering
A s
O T
is ions
Ġp ip
Ġn un
Ġsh ift
se xual
ĠA ra
Ġkn e
ĠD irty
ag le
ĠN ic
Ġpo ker
Ġter ms
Ġpat rol
Ġdec or
Ġ2 2
Ġinst antly
ĠAl ice
fuck er
mb ling
Ġsmok es
Ġequ ally
Ġsusp icious
Ġludic rous
fors aken
a ign
e very
g usting
s kin
Ġm ug
ha s
Ġg on
an o
Ġp ond
ad or
Ġst un
Ġst ain
Ġst ern
Ġr iot
ĠM ass
ĠD utch
ĠC ong
ĠG ord
ĠHe ad
ĠP ot
Ġlo at
Ġneed les
Ġcha ins
ĠV en
Ġschool s
Ġtou ches
ĠAl ways
Ġprot est
gr own
Ġind ust
Ġcre m
Ġhop es
Ġtre ason
Ġscr ot
ĠSte ven
Ġphot os
Ġaut omatic
Ġzomb ies
Ġcockro ach
Ġcircum stances
Ġscand al
Ġgoss ip
u ing
Ġy ank
ll ing
Ġc ities
Ġhe ter
Ġp ony
Ġh oo
Ġr ic
ĠA unt
ĠH um
ĠB eth
ĠC omp
Ġle ague
ĠF air
Ġfe ars
Ġdis cover
ĠSt ark
ĠMar ie
pr il
Ġtreat ing
Ġur ge
ĠTr ash
ĠEx cuse
Ġimm ort
Ġcamp aign
Ġwha le
Ġtour ists
Ġpier ced
Ġconcent rate
Ġpor ch
ĠViet nam
Ġagg ressive
N ot
g ly
m pt
o ir
r ator
Ġd iet
Ġto e
as ha
Ġst oned
Ġj ohn
Ġout fit
Ġcan cel
Ġwhe els
ĠC art
ĠG a
ĠL ew
we ight
Ġmin or
Ġrob bing
Ġner ves
Ġtest icle
Ġmarry ing
Ġpray ing
Ġcraz ier
ĠAN D
C H
I V
c uff
l i
m aker
Ġb unk
Ġb ount
Ġg um
et ch
ver se
ĠW el
ch ief
ĠH ook
ĠB oth
Ġno ses
ĠL o
Ġoff ended
ĠR and
Ġsc ent
Ġfe at
ud y
Ġsl am
Ġter ritory
Ġtra cks
Ġunderstand ing
Ġfour th
Ġpoison ous
Ġdeep er
Ġhom o
Ġdi ab
Ġcent uries
Ġjok ing
ĠSer iously
Ġdesper ately
Ġban ana
Ġcann ibal
Ġnin ja
Ġloy alty
Ġexplod ed
Ġchok ing
Ġwhist le
ĠMond ay
A meric
Ġt act
ha ve
ing o
is er
ir ing
Ġfor cing
ĠS un
ĠS el
ĠH allow
Ġbl adder
ak a
itt ee
ĠF el
Ġlo vers
Ġdr ow
Ġday light
Ġhapp iness
Ġbull sh
Ġcur ious
Ġpay s
ĠMar ia
Ġthreat s
Ġdist aste
Ġfle et
Ġsuspect ed
Ġspread ing
Ġtechn ology
Ġarr ive
ĠTra vis
Ġintest ines
v able
ir lfriend
ĠA pril
Ġkn ob
ĠH y
ĠH ood
Ġget tin
ĠB ollocks
ĠC her
ĠC ross
ul ance
ĠL ois
Ġle ak
ol ution
Ġbr ats
ass ed
Ġcr ushing
Ġstop s
Ġstop ping
ĠV alent
Ġimp ress
ged y
Ġinter rog
Ġcoll ar
ĠGu ard
Ġmagic ian
Ġmot ion
Ġsol ution
Ġjo ined
Ġequ al
Ġhumili ation
Ġvac uum
Ġphys ically
ĠStan ley
Ġchamp agne
ĠKen ned
ĠGodd ammit
Ġdign ity
Ġexplan ation
c ock
g han
Ġw ard
Ġb ri
Ġb ills
Ġd ys
Ġin ner
Ġth us
Ġr ice
uck er
ur i
un te
ĠB ush
ro ad
Ġv ib
Ġfl ow
ĠV imes
Ġbo om
ins on
ĠIs land
Ġcor rid
Ġhom es
Ġperver se
Ġserv ants
Ġmerc en
Ġplant ed
Ġinj ured
ĠJess ica
r un
u f
Ġw ars
Ġm op
Ġf ury
Ġh ose
ar se
ut z
ĠS ick
Ġse ize
ĠN ight
ĠN orm
ol o
Ġpl aced
Ġ- "
ĠIt s
ĠK ra
Ġkid neys
Ġunder ground
Ġho gs
Ġball oons
Ġcont est
Ġfre qu
Ġdrop s
ĠAn n
Ġinv isible
Ġdou b
Ġclot hing
Ġpack ing
Ġart ific
Ġlim bs
ĠJul ia
Ġcomb at
Ġguest s
Ġholl ow
Ġsentiment al
Ġware house
Ġabdom en
Ġexcell ent
e z
f ive
Ġthe ater
Ġp est
or ms
ve t
ĠT ara
ĠB or
ĠB as
ĠD own
ol n
Ġsc hed
ĠE ver
Ġdis play
Ġhapp ily
Ġbab e
ĠIs lam
Ġpar aly
oop ing
Ġtast ed
Ġrubb ing
Ġorgan ization
Ġcraw led
Ġsen ior
Ġsam urai
Ġstat ue
Ġliqu or
ĠMin ister
Ġbarbar ians
Ġperfor man
Ġcris is
Ġlibr ary
Ġshel ter
Ġtiss ue
ĠKenned y
I G
b ra
n ox
v ation
Ã Ń
Ġw ins
Ġb ay
ĠI N
Ġl eng
Ġin ches
et on
Ġr ash
Ġan x
ĠS illy
Ġtr ib
Ġch ips
che t
Ġhand ful
Ġsmell ing
Ġsn ob
Ġattack ing
Ġgen itals
Ġswe ater
Ġcoward ice
Ġclos ing
Ġcolle agues
ĠNor man
Ġsuspect s
Ġdefend ing
Ġsed uce
Ġcustom er
Ġscumb ags
ĠDem on
Ġjew el
Ġbatter y
ĠBon nie
Ġamate ur
Ġbureau cr
Ġenorm ous
nox ious
f ty
n ame
u v
w are
Ġd ynamite
Ġth under
ĠS ara
st one
Ġout rage
op her
ul ous
ĠL l
ĠL ight
ĠJ eez
Ġcra cked
Ġex te
ĠE st
ub ble
Ġrem ote
Ġaw ake
uth or
igg s
Ġbott les
Ġtreat s
Ġknock ing
Ġclos est
Ġrab id
Ġsuggest ed
ĠBar ney
gu ard
Ġlaug hable
ĠFin n
Ġfarm ers
Ġwheel chair
ĠOl iver
Ġvenge ance
b al
r ie
Ġm use
on ment
Ġf ists
Ġn anny
uck les
ĠS ame
ĠS oph
Ġkn uckle
ĠH aven
ĠC ole
Ġtr am
ag ement
ep end
Ġint rud
Ġhead ache
Ġcr ashed
Ġdis abled
Ġcar n
Ġbull ies
Ġstr ate
Ġcle ared
het to
Ġmist aken
Ġpass ing
Ġdel usion
Ġprep osterous
Ġpregn ancy
Ġnigg as
Ġpupp ies
Ġ8 0
Ġamb ulance
Ġhood l
Ġtyp es
Ġvol unte
Ġstret ch
Ġchamp ion
Ġoccasion ally
1 00
M an
W here
a ith
p her
Ġ eth
Ġb un
Ġb ud
Ġb olt
Ġd udes
Ġl n
Ġn ic
Ġn oose
en c
om ination
Ġk l
Ġr av
ic able
ĠH o
ĠB ible
ĠC row
ĠG ib
Ġfe ast
ĠK ong
Ġhang s
Ġdra gging
ĠAl i
ĠAl though
Ġreg ard
Ġart icle
Ġtrans port
Ġtrick ed
Ġscr ub
Ġcas ino
Ġbon er
ĠWil son
Ġsusp ic
Ġsorce rer
Ġgor illa
Ġcheerlead er
Ġmos qu
Ġbount y
ĠHallow een
- "
b ot
r ict
t ra
Ġd ated
Ġf ishing
Ġc otton
Ġn ag
Ġn odd
ot ing
Ġwe al
Ġst omp
Ġwith dra
Ġre ly
Ġse ats
ĠH oll
ent ric
ĠD amon
ab eth
Ġex erc
Ġcl an
iss a
ĠK now
Ġun us
Ġqu al
ĠSt and
ail able
umb o
ĠHow ever
Ġfight ers
ps on
Ġhor rend
ĠMar ine
Ġtor ch
Ġchar m
Ġadd ition
Ġmed al
Ġsense less
Ġrub bed
wh ite
Ġmention ed
Ġfaith ful
heart ed
Ġtoss ed
Ġharm less
ĠGrand ma
ĠNat han
Ġox y
Ġconspir acy
ĠTay lor
Ġscrot um
Ġnodd ed
Y eah
b ird
f ree
p ting
r idge
y a
Ġ x
Ġt ang
ĠY et
ch o
ell s
ĠC ooper
Ġhere t
ĠL ucky
ĠO F
ĠF ord
ri ly
Ġen vir
ĠSt ra
Ġwr ites
Ġres ent
Ġhus h
Ġfact s
Ġsing er
Ġdream ing
Ġele ction
Ġstri ppers
Ġref uge
ugg ing
ific ation
Ġhun ters
ĠEl ena
vent ion
Ġmot ive
Ġsens es
Ġapolog y
Ġremain ing
ĠSec ond
ĠEs pecially
hus i
Ġdeliber ately
Ġperforman ce
k now
m ony
Ã ±
Ġt ires
Ġthe ft
it i
Ġf uel
ot ect
us ions
Ġk itten
ad ian
Ġr ump
ĠH im
ĠB ear
ĠL as
ĠF ree
ĠR en
Ġfe ver
Ġch oo
Ġhand cuff
Ġover w
Ġatt end
ĠBe ast
Ġmess y
Ġmar bles
Ġap es
Ġset ting
Ġpsych ological
Ġinf erior
ĠAn ne
Ġchar ges
Ġposs ess
Ġpri ze
Ġtest s
ĠHar old
ĠQu inn
Ġskull s
Ġdesp air
Ġaccept ed
Ġhumili ating
Ġcas ual
Ġuniver sity
Ġintern al
Ġscient ists
wor thy
Ġfol k
Ġshad ows
ĠGrand pa
Ġunfortun ate
ĠMill er
Ġdistur bed
Ġincap able
Ġhorrend ous
l ar
Ġb ore
Ġb urd
Ġb oun
Ġg ap
Ġp itch
Ġp atch
Ġr ipping
Ġde fect
ĠB reak
Ġab oard
ĠC oun
ink ing
ig e
our ney
ist ry
el ed
ĠE vil
Ġass umed
Ġcl iff
ac o
Ġcar go
Ġper pet
Ġact ions
Ġchan ges
Ġtra ce
Ġad op
Ġph ony
Ġhold s
Ġfoolish ly
Ġeye b
Ġorg y
Ġpack age
Ġmut t
Ġassass inate
Ġdraw er
Ġpos itive
Ġdise ases
ĠCon nor
Ġarr anged
Ġmagaz ines
Ġdism iss
Ġpoet ry
Ġdegen erate
Ġturt le
ĠSwe et
Ġgorge ous
d in
n i
r im
w ord
Ġw ien
Ġc ub
Ġg eez
Ġl ure
ĠA v
ro v
Ġman ner
um a
ĠL ex
ĠP sych
ĠF ra
Ġcom ic
Ġcom mer
Ġcl o
em ploy
Ġpro ved
ave s
ĠTh ought
ia h
Ġgodd ess
ps ies
Ġdec ides
Ġste pping
Ġreason able
ĠZ e
Ġtong ues
ĠAf ghan
Ġdi apers
Ġtrans l
Ġlay ing
Ġstrang ling
Ġlab or
Ġclim bing
Ġpal m
ĠComm ander
Ġcomb ination
Ġfac ing
Ġhesit ate
Ġsymp athy
Ġcarc ass
ĠOffic er
. âĢĻ
b ags
g irlfriend
l ie
w ick
Ġf aint
Ġp ha
Ġh unk
Ġr ate
ĠW ed
ĠW oman
st al
ĠA ud
ĠB re
Ġfr icking
Ġne arest
ĠG un
ĠL iz
Ġgu ll
Ġv ic
Ġar mor
Ġsupp l
Ġob noxious
Ġtou g
Ġent husi
Ġexc uses
Ġconf ession
igg y
Ġstri pped
Ġdep ths
ĠInd ia
not hing
ĠPr incess
Ġdin osaur
Ġcook ie
ĠAd m
Ġpin ch
Ġsne aking
Ġclim bed
Ġintern ational
Ġneg ative
Ġunb elie
Ġgobl in
Ġdishon est
Ġdict ator
Ġfee ble
Ġwrink led
Ġbullsh itting
t ray
in ous
Ġthe ories
Ġd omin
Ġl an
om ber
Ġk ung
ĠM ind
ĠD ump
ĠN ational
ĠP ak
Ġv ice
Ġ' '
ĠE h
Ġtw in
Ġsl ide
au c
Ġac qu
Ġpre acher
Ġbu ys
Ġpun y
Ġinter rupted
Ġlad s
Ġtail s
ĠBar on
Ġcraz ed
Ġlip stick
ĠCast le
Ġenvir onment
d a
e em
m outh
m ade
u ate
v ate
Ġw imp
Ġm afia
on se
Ġc ob
Ġhe ars
Ġp ension
Ġme as
ly mp
ĠB uck
ist ent
ĠN ate
el ine
ĠP re
Ġsp oken
Ġv alley
up t
Ġpro ced
Ġco inc
Ġun stable
Ġgr as
Ġend less
Ġsur f
Ġsn ot
Ġapp eal
Ġrel ief
Ġrob e
Ġfell a
Ġdel ivered
Ġgrow s
Ġsat ell
Ġgod forsaken
Ġshame ful
ĠSam my
Ġassass ination
Ġrequ est
Ġda ily
Ġtun nel
Ġflo ating
Ġglo ves
Ġdeg ree
bull shit
ĠJed i
Ġw aking
Ġd iver
ing ing
Ġl amb
ic ation
ĠS ister
Ġso il
ĠM i
ĠB udd
od ge
ĠF ort
Ġsc aring
ĠE aster
Ġeven ts
Ġgun shot
Ġcha os
ne ver
ĠV inc
Ġsk unk
Ġbot hered
Ġimp ression
Ġmag ical
ony mous
Ġgrand pa
ĠSc ot
Ġpoison ing
Ġcal cul
Ġattempt s
ĠCol omb
ĠAm anda
Ġclaim ed
Ġpsychopath s
Ġspo il
ĠHel en
Ġda ft
Ġresult s
Ġexcl aimed
Ġmutil ated
Ġprinc ip
L A
g le
g ay
v ity
Ġm ax
Ġre ct
ight y
ĠC ind
um ing
Ġsome what
Ġle cture
ĠR el
Ġcom ment
Ġfat ty
Ġsw itched
Ġplan es
Ġimp r
Ġimp rove
Ġcomp are
Ġrec all
Ġinf idel
Ġsell s
ik a
ĠHar vey
Ġconv ict
zz t
Ġdrain ed
Ġtool s
Ġbuff oon
Ġash tray
Ġblank et
Ġconfir med
L ook
p o
r ome
Ġt ag
Ġm ister
or ough
ĠA ir
Ġher oes
ent ially
ĠB ol
ĠD oyle
Ġhell hole
um per
ĠHe aven
ĠF ed
Ġdec isions
Ġste als
Ġpick s
Ġrel ative
Ġjump s
Ġann ihil
ĠWill ie
Ġfill ing
Ġconc ert
ĠMom my
ĠCra ig
Ġcivil ization
Ġcraz ies
Ġ9 0
Ġconnect ed
ĠPol ice
Ġhig hest
Ġpers u
Ġactiv ity
ĠAust ral
haw k
Ġpige on
ĠWes tern
A n
R O
Ġ vent
Ġd ildo
Ġc able
Ġg am
or ia
Ġr app
ĠS eth
Ġre neg
Ġj elly
ĠM olly
Ġno str
Ġcra b
ĠP enny
Ġ- ...
Ġsc orn
Ġcl aw
Ġgr ou
ne ck
Ġsec ure
Ġpat ron
Ġ2 1
Ġmiss iles
Ġaw fully
Ġfreak y
Ġbar bec
Ġposs essed
Ġexp ress
Ġris king
Ġpop ulation
Ġmark ed
Ġtoil ets
Ġscratch ing
ĠSon ny
ĠLa ure
Ġodd s
Ġfirm ly
keep er
Ġtoler ate
ĠfiancÃ© e
Ġcyn ic
adem y
Ġrecomm end
ĠDri zzt
o ving
s k
Ġt itties
Ġw oe
Ġm ong
Ġto ad
Ġp awn
Ġbe e
id d
out hern
Ġj ourney
ĠA cc
ĠM et
ĠB est
ĠL em
ĠN ad
ol and
Ġback ward
ear ing
Ġfl ed
ank y
Ġper v
ĠU gly
Ġcont r
Ġheart less
anc ing
Ġsca res
ĠBr uce
ĠAl bert
Ġchar ged
ĠGo vern
Ġdef ormed
bl oody
Ġsecret ly
ĠAt l
Ġve h
Ġobs ession
Ġpretend ed
Ġvag inal
Ġcolle ague
Ġhomosexual s
Ġremain ed
Ġswim ming
Ġprov ide
Ġfif th
ĠAngel es
ĠBer lin
Ġecon omy
Ġsan ct
Ġartific ial
p ack
in ch
Ġf er
Ġto mb
Ġg ates
ed uc
Ġp uff
Ġin ev
Ġr usty
Ġre in
ĠH ung
il ton
ĠC om
ab s
ĠL ake
han ts
ĠR ab
Ġcom r
ĠE at
Ġfl aw
og rap
oc r
Ġimp ressed
Ġacc omp
ok es
ĠAl so
Ġcock s
Ġcatch ing
ĠSp ar
Ġinterest s
ĠFrank en
Ġscr atched
ĠCon f
Ġteacher s
Ġmain t
Ġsin ner
Ġdwar ves
Ġemotion ally
Ġsatisf ied
ĠCarol ine
Ġgal axy
Ġgamb ling
ĠCa esar
Ġsymb ol
3 0
U S
g al
m aid
p oint
s ized
z an
Ġb att
it ated
Ġg n
an ed
Ġh ilar
en ess
Ġk il
Ġsh ore
Ġr ank
am as
ĠW ild
ĠM all
ĠC ard
ĠC ourt
our s
ĠP am
Ġbr u
Ġch imp
Ġtw ins
Ġwork er
Ġmust ache
Ġper man
Ġpat ience
Ġph ones
Ġfin anc
Ġapp oint
Ġnice ly
Ġinter rupt
Ġreg arded
Ġmor ons
Ġshall ow
Ġten nis
Ġexcept ion
iter ate
Ġdise ased
Ġconst ant
Ġsatisf action
ĠEurope an
Ġslop py
Ġharass ment
Ġarg ument
Ġfantas ies
ĠCase y
Ġej acul
Ġgrou ps
. !
m ble
u ine
w ing
re es
Ġo k
Ġp oured
Ġh ind
om a
ar re
ĠS end
ĠW ade
ĠA ah
ĠH orn
ĠH ark
Ġab omination
Ġat h
ĠG or
Ġshe et
est ic
ĠP oint
ol ar
Ġsp ill
Ġcom edy
Ġch ubby
Ġtw elve
ĠK ay
Ġpr ank
Ġpo ked
Ġsl id
ĠTh urs
Ġam mo
Ġho ck
Ġmess ages
arb y
Ġdick head
ĠBr ook
Ġinc ident
Ġhigh way
Ġtest ify
Ġsurpr ising
Ġpot ato
Ġdesp icable
Ġrelationship s
ĠDav is
ĠAng ela
Ġfle e
Ġcorrupt ion
Ġteen agers
ĠComm un
ĠTed dy
Ġobsc ene
tw o
Ġoxy gen
Ġoverw hel
R E
f a
f ool
l ow
r ating
w ind
Ġt ire
Ġc ert
Ġl aser
ot ions
Ġst itch
Ġsh ine
ĠS ad
ĠS ur
ĠS ab
ĠM ort
ĠD ear
Ġshe ets
ick en
Ġno on
ri x
ĠR ub
Ġar gu
ĠE nd
Ġsm ug
Ġsl ime
wn y
Ġmad men
ac les
ĠSt ew
Ġown s
Ġtra gedy
Ġimp ot
Ġdrunk s
ĠâĢ ¦
oid s
Ġstar ved
Ġmed ioc
Ġserv ices
Ġcost s
boy friend
ĠChe ck
Ġemploy ee
Ġemploy ees
Ġmasturb ating
Ġbal ance
Ġshell s
Ġstrugg ling
Ġwis dom
ĠPri vate
nat ural
Ġsar c
Ġpeas ants
pher d
n on
p iece
r ational
Ġo d
Ġo bey
Ġg ou
Ġg hetto
ot te
am an
Ġas yl
Ġout law
ĠB oss
ak s
ag ine
ul ting
ĠN a
ĠJ unior
ĠO lymp
Ġle nd
Ġal ert
ĠF le
Ġsp awn
ĠR ad
Ġsomet ime
Ġsw orn
ĠSh h
pect ed
ĠJust in
ĠMar ines
ah l
Ġmil it
Ġdel icious
Ġtort uring
Ġpop ped
Ġcig ar
Ġcri es
Ġaddict ed
Ġrece ive
Ġrece ived
ĠDra gon
Ġow es
ĠSup er
Ġclin ic
Ġunre ason
ĠLew is
N e
r ough
Ġg a
Ġg igg
ut t
Ġr anc
ĠS ue
ĠS yl
ĠH ush
un a
ĠD umb
Ġbl essed
ĠL yn
ĠN ed
ĠP ho
Ġback wards
qu es
Ġch uck
ĠWh it
ĠSt art
Ġins ign
the w
iv ia
Ġhusband s
ph ilis
ĠAr m
Ġconf using
af ter
Ġir rational
Ġpop s
ĠAny thing
ĠLuc as
ĠItal ians
Ġlit ter
Ġfasc ist
Ġhump ing
Ġcere mony
Ġintellect ual
Ġhyster ical
Ġdistaste ful
Ġcommer cial
b ell
w l
Ġm ice
Ġf urn
Ġf ren
is ha
Ġp y
Ġha mb
le ans
ut her
Ġme asure
Ġe c
Ġli ce
Ġr ings
ĠA ven
ĠH ong
ĠB ang
ĠB ert
ĠB arn
Ġsu cc
Ġlook in
ĠP il
ous ed
ĠE v
Ġag ony
ave l
be fore
Ġqu ality
Ġdis ob
Ġfun n
Ġser ving
Ġhot ter
Ġob st
ĠOr leans
Ġsqu eal
Ġill usion
Ġprop het
Ġprotect ed
Ġcrook s
Ġtrick ster
Ġcook ies
ĠAny body
Ġpot atoes
Ġmaster s
Ġprod uce
Ġhall way
Ġcoun cil
ĠCo ast
cra zy
Ġfif teen
Ġchew ing
Ġstret ched
Ġreck on
Ġpolitic ian
ĠBarb ara
Ġarmp its
Ġmush room
Ġpaed ophile
Ġcompass ion
? ...
O ne
c ony
l ong
s en
u its
Ġs ang
re ne
ll a
Ġl ux
Ġp add
am i
ra ged
ĠB rend
Ġfr own
Ġfr idge
ĠD i
od ka
Ġle ech
ol ine
ĠR y
Ġpr on
pt on
igh s
Ġru ins
Ġconf idence
Ġconf usion
Ġdress es
Ġang rily
Ġsat anic
Ġreturn ing
Ġsuper stit
Ġsal iva
ĠEl iz
Ġtour ist
Ġhypoc rite
Ġrag ged
Ġinj ury
Be cause
Ġdevelop ed
Ġcrit ic
Ġinsect s
ĠRom ans
ĠDun can
Ġdun geon
ĠGord on
Ġhamb ur
A r
i ator
t est
Ġm uck
Ġm att
on ic
Ġf ert
Ġh ust
en gers
Ġbe ans
Ġe cc
Ġst ress
ĠT onight
ĠT odd
ĠS T
ĠW icked
Ġ" '
st ar
ĠA ar
ĠA dd
Ġse ction
ĠB all
ĠB ud
ĠB ugger
ĠD ol
um ble
ĠJ oy
ĠHe ctor
Ġpe asant
ĠR ain
ĠR ita
th irsty
Ġco ast
Ġwr it
Ġwr ath
ĠV ol
Ġcle ans
Ġbreak down
Ġbo il
Ġapp l
ner able
Ġdeal t
Ġposs ession
Ġpen cil
Ġfinger na
Ġris ing
ĠGr anny
Ġwha cked
Ġcomput ers
Ġcivil ian
Ġhall uc
Ġcheer ful
Ġrequ ired
Ġeffect ive
ĠMat thew
Ġdefense less
Ġmagn et
Ġschizophren ic
ĠWend y
ĠAra bs
ĠVinc ent
Ġhilar ious
5 00
O r
Ã ¼
Ġc ore
Ġo v
Ġl oop
Ġp up
or ters
le en
Ġr ags
se c
ĠT em
ĠB an
ĠB ook
ĠB and
ĠD al
ĠC orn
ag g
ag u
Ġshit load
ĠL ance
Ġal tern
ol ved
ri a
Ġint ended
Ġsee king
Ġun employ
Ġblood ied
ĠTh ough
Ġown ed
Ġbelie ving
oc al
Ġtra gic
anc er
Ġinc iner
Ġrel atives
Ġgen uine
ĠFor ce
Ġstra p
Ġchar ity
ĠAr nie
Ġorg ies
Ġdisc ip
ĠGra b
Ġav ailable
Ġpump kin
Ġtattoo ed
Ġdisappoint ment
Ġreveal ed
ĠVictor ia
Ġemer gency
ĠGray son
Ġcooper ate
Ġheter osexual
Ġt ips
Ġs or
Ġb iz
it an
it ure
it imate
Ġf aced
Ġc em
Ġst im
Ġj an
op ard
il ize
ĠC ad
ĠL ester
Ġgu inea
Ġpo ll
Ġpo ster
Ġsomet hin
Ġsl ashed
Ġsw ift
ĠShe ldon
Ġsha ving
Ġdest iny
Ġmom my
Ġstr ay
Ġres our
Ġcount ries
ĠIn s
Ġret ire
Ġcons cious
igg ers
Ġsy mpt
Ġdel i
Ġdep ressing
damn ed
Ġfinger pr
Ġcol umn
mb led
Ġvill ains
ĠTr ust
Ġdanc ed
Ġmaniac s
Ġslight est
ĠBel ieve
Ġmasturb ate
Ġsorce ress
stand ing
Ġroo ster
Ġappet ite
Ġburd en
Ġwien er
Ġasyl um
ĠEliz abeth
A D
D e
K ill
d ick
m ighty
p ool
r oph
Ã ¶
Ġ )
Ġs unk
Ġs ins
re g
Ġy og
Ġhe el
Ġp aws
ot ine
se e
Ġnot es
Ġnot ion
ĠD am
Ġab d
ĠG ent
Ġtr ophy
our ne
ĠL inc
ist ics
ĠR h
Ġv odka
Ġgr at
Ġsick ness
ĠV ag
Ġfather s
Ġscrew s
Ġhar lot
Ġem otions
Ġdisg uise
Ġclean er
Ġadv ance
Ġpaper work
ĠBoy d
ĠBoy s
Ġnat urally
Ġmal es
Ġarrow s
Ġthumb s
Ġpred ator
Ġdisp osal
Ġbegg ars
Ġcompan ies
Ġstrugg le
Ġwag on
Ġvap or
Ġfrag ile
C ome
b rain
c row
c oon
h op
w itted
Ġ [
Ġ ves
Ġm ache
Ġc uck
Ġbe ars
Ġst ew
Ġwh im
ra cy
ĠH unt
ĠM osc
Ġab er
ĠG us
ag a
el and
ĠF ro
Ġch ill
Ġpro ves
ĠK l
Ġun ex
ac ity
iv ity
Ġexc iting
Ġrob bers
ph one
Ġless ons
ĠCl own
ĠCl ose
Ġsad istic
ĠRe al
Ġris ked
ĠSha d
Ġresp onse
Ġbow ling
Ġboot h
Ġphot ograph
Ġgut ter
Ġincompet ence
Ġloud ly
Ġcart el
ĠThanks giving
Ġbal cony
Ġboob ies
ĠMcC l
Ġdoc ument
Ġwis hes
ĠCarr ie
Ġfavour ite
ĠPap a
Ġbrainw ashed
ĠLl oyd
Ġdelusion al
ĠCoun cil
Ġhock ey
Ġecc entric
ĠMosc ow
W h
d ri
g age
h mm
p arent
Ġt art
Ġb ench
Ġc ine
Ġp yr
Ġst ates
if ically
ĠS aw
Ġre aches
Ġso dom
ĠD ur
ĠG osh
ick ers
ast ed
ĠO s
Ġv ult
qu is
Ġfe ces
Ġdr ool
Ġco al
ren al
Ġchan nel
Ġmess enger
oll ey
Ġsend s
Ġswe ating
Ġcock sucker
Ġair pl
Ġdel icate
Ġdri pping
Ġind iffe
for med
Ġbank s
Ġshr imp
ĠPl ay
Ġ7 0
Ġuns ub
ĠDis gusting
Ġinstinct s
Ġmotor cy
ĠRich ie
ĠBat man
ĠWalk er
Ġslipp ery
Ġcorrid or
Ġproced ure
Ġargu ing
I s
U CK
i kes
r ical
t alk
Ġ Î
Ġd ice
Ġf og
an ie
Ġh oot
Ġha mm
Ġme ets
Ġst ool
ir o
ra h
ĠS ca
ĠD om
est ly
ĠL en
ĠL eg
Ġoff ensive
ry ing
Ġch unk
Ġco in
Ġblood thirsty
Ġins olent
Ġcomm itting
ĠFr an
unt il
ĠMar g
ĠUn ion
Ġ4 5
Ġworry ing
Ġshar ks
ĠEl vis
ĠCharl otte
Ġpriv ile
ĠMad am
ĠEm ma
fortun ately
Ġattract ed
Ġsla very
Ġforeign ers
ĠMag gie
Ġcand idate
Ġsurr ound
Ġped ophile
ĠShan e
Ġank le
Ġcav al
Ġinher it
ratul ations
ĠFranken stein
Ġinsign ificant
Ġmatt ress
Ġves sel
b ac
m aster
t urn
y o
Ġs ire
is hes
or al
ot ics
ir a
ĠS add
un ting
Ġne cess
el ia
Ġle mon
ĠP ic
ĠE llen
Ġag ency
Ġover grown
Ġrun t
Ġpat ri
Ġcount less
Ġsqu e
Ġconf ront
ubb ish
ĠUn iver
Ġbas ic
Ġdep ression
Ġbra ce
ĠHar v
Ġdist ant
ĠQu ick
Ġtap es
ĠMc G
Ġvag rant
ĠGra ham
nes day
Ġbetray al
Ġprefer red
ĠItal y
cent ered
Ġrom ance
Ġgy psies
Ġdescri bed
Ġdent ist
ĠAlf red
ĠValent ine
A P
l ets
m un
Ġt on
Ġd art
Ġf ab
Ġh i
id ers
Ġr ust
ĠT roy
ir c
op ed
ĠM itch
ĠC amer
ĠG ina
ink s
ag on
ĠN umber
ĠJ uan
ĠP ear
ĠP ierce
Ġsp lin
Ġv ast
qu arters
Ġsc he
pl ant
Ġreal ised
ĠBe nder
Ġhate ful
oc racy
Ġapp ropriate
Ġste am
Ġmet aph
Ġgod less
Ġhorn s
ĠSe ven
ĠSer v
ĠAb by
ĠPh ill
ĠJul ie
Ġslaughter house
Ġadm ire
Ġsed uced
Ġreb ell
Ġsen ile
Ġsearch ing
Ġmedic ation
Ġdece it
Ġscra wny
Ġlob by
Ġprev ious
Ġcharlat an
Ġleng th
educ ated
Ġunreason able
c ake
m ph
Ġ ze
Ġb ol
Ġb acon
ĠI mp
Ġl oos
ot a
as ms
at hered
Ġon line
ĠT ot
ĠT ower
ĠT yr
Ġwh ine
ra ction
ĠS in
ĠS um
ĠS lo
ĠM oon
ĠB ow
ĠD V
ĠC ru
Ġor al
Ġbl ed
ĠJ enn
ĠR ats
Ġv olley
Ġsc iss
Ġdr ama
Ġco con
Ġsha ft
ĠCh i
Ġins p
Ġins ides
Ġact ual
Ġph r
ert o
Ġgl and
Ġcomp rom
ĠDe x
Ġexc ite
Ġprom ises
Ġcock tail
Ġinv itation
Ġporn ography
Ġdi agn
Ġemp ire
Ġelect ronic
ĠGre y
ĠPig s
Ġbarb arian
ĠPal mer
Ġtalent ed
ĠTry ing
Ġvul nerable
Ġcompan ion
Ġnet work
Ġwhisper ing
Ġrout ine
Ġadvent ure
Ġneut ral
Americ an
Ġcoinc idence
ĠBrook lyn
Ġfurn iture
E L
d ep
f an
i ating
j i
n els
p ower
r as
t or
Ġt al
Ġt anks
Ġw akes
Ġin app
et ery
ad er
ic ides
Ġj ab
ĠB uddy
ĠC D
ĠG onna
ĠL ang
ĠR oland
Ġcom ical
oy a
Ġpro spect
Ġgr ind
Ġhat s
Ġche ats
ond er
Ġel ves
ĠGet ting
ek s
Ġelse where
Ġrep air
Ġexpl o
Ġfil es
ĠQu it
Ġprof it
ĠBen ny
esh it
Ġhost ile
Ġsuggest ing
Ġcomplain ed
Ġscient ific
Ġwip ing
Ġdemand ed
Ġlif et
Ġcough ing
Ġintrod uce
ĠLind a
bab y
Ġindust ry
Ġimmort al
Ġeyeb rows
Ġsatell ite
ĠAar on
Ġdeli very
s pring
u ish
u ana
z el
Ġw ench
Ġm amm
Ġm oust
Ġd ime
Ġf est
Ġk inky
id ious
im a
ĠS ing
st a
ĠH art
Ġbl ud
Ġbl amed
ĠO R
ĠF anny
ĠF reak
ĠR oll
ĠAnd erson
Ġsc an
Ġsc am
oot er
ĠE ri
Ġsl apping
Ġam use
ret e
Ġunder cover
ict able
Ġhum ble
Ġpre m
Ġad renal
az ar
Ġem pt
Ġacc use
Ġdisg usted
Ġbur ial
Ġrel ations
Ġcol our
hell e
Ġaddict s
Ġdouche bag
Ġbene fit
Ġdope y
ĠHu gh
Ġenc oun
Ġcruc if
Ġelectric ity
ĠWilliam s
erv ation
ĠLos er
Ġske leton
Ġmock ing
Ġinstruct ions
ĠRid iculous
Ġmuse um
ĠSoph ie
ĠWed nesday
ĠAdm iral
Ġnostr ils
f our
n ew
r ich
t an
Ġt an
Ġt ables
Ġs ank
Ġs akes
on n
Ġc af
es y
Ġin ex
en ched
Ġbe headed
Ġwe ep
if ted
ĠS andy
Ġout s
ĠH ob
ĠM ason
ĠD rac
ĠD omin
Ġshit e
our ge
ĠN onsense
ĠP itt
ry an
Ġar tery
Ġpro state
ĠK arl
ĠK itty
Ġpo em
Ġun ion
Ġdis hes
Ġrid ic
Ġcare ss
Ġsick ening
Ġide al
Ġhair s
Ġapp lic
Ġrap id
ĠAs sh
Ġscream s
Ġgrand son
Ġansw ering
Ġtrash y
Ġblind ed
cl ock
Ġcross es
ĠSha ft
Ġuncle an
ĠGl oria
Ġaim ed
Ġinsult ed
ĠPark er
Ġincre ase
ĠThurs day
2 1
g ies
l ad
l ace
n ies
s ay
Ġt arn
Ġa h
Ġb ake
Ġd ata
Ġh ub
Ġn ud
Ġn iece
ar ms
al ed
Ġr amp
ĠT H
ĠM ight
Ġcan e
ĠB omb
ro id
ct op
ood oo
ĠJ ules
Ġlo gic
Ġfe min
ass y
Ġdis co
ret t
ĠV in
ok ing
Ġcur sing
ĠAr cher
Ġsy philis
Ġclot h
Ġswear ing
ĠSp art
Ġsad dle
Ġdev our
Ġelect roc
Ġforgive ness
Ġorgan ized
Ġirrit ating
ĠIm agine
Ġcloud s
Ġmol ested
Ġeld er
Ġhorm ones
ĠWel come
Ġjewel ry
Ġintrud er
Ġcem etery
Ġsciss ors
i ag
m id
m oon
o om
r ity
w en
w ater
ll e
Ġc ul
er a
is ons
Ġg ifts
Ġg ypsy
Ġp od
le gged
Ġst unt
Ġr uff
ĠT imes
Ġj ester
Ġout er
Ġher pes
Ġor c
ig ans
ĠN ina
Ġle eches
ĠF al
ĠK a
Ġun armed
Ġcare less
ĠV ik
ater n
Ġmin i
Ġfin est
Ġ2 3
Ġbed s
Ġtest ing
Ġann ounce
ĠKe ith
Ġtre mbling
Ġdi ary
Ġsurv iv
Ġmain ly
Ġdust y
Ġcheek y
Ġextra ord
Ġunif orms
Ġcondom s
Ġliber al
Ġstalk er
Ġfeather s
Ġscalp el
ĠAven ue
ĠLinc oln
Ġmotorcy cle
, ,
b by
c ross
m ons
s pe
Ġ :
Ġw al
Ġs oph
Ġm ild
Ġc ents
Ġg le
Ġh int
as phe
Ġbe am
id o
oo ke
ĠT own
ĠS ud
Ġre hab
Ġkn ot
ĠH ome
Ġnot orious
Ġso fa
ight ed
ĠM mm
ĠB ed
ul ate
ĠHe ar
Ġpe ep
Ġsp ong
Ġv ault
th roat
Ġold est
Ġcou ples
ump h
Ġtra ff
Ġstand ard
Ġsn atch
uc ing
Ġrec over
Ġpass es
ĠCl int
Ġign ored
Ġstri kes
ĠUn fortunately
Ġorder ing
Ġann ounced
ĠGr ant
Ġlar ger
ov a
ĠMon ica
Ġeng aged
Ġelim inated
Ġexecution er
Ġtechn ique
ĠMars hal
Ġswing ing
hus band
ĠCent ral
Ġsqueez ed
Ġdys function
Ġexerc ise
Ġbarbec ue
ĠDV D
T H
b one
c oming
f ly
f all
k iss
m ill
p re
t ies
in qu
Ġb og
Ġb achel
er os
is k
Ġhe ir
Ġp ic
im al
Ġsh irts
ĠT am
ver ly
ĠH uman
ĠM as
ĠB rain
il ess
ĠD ee
ĠC ons
ig s
os ition
Ġgu ide
ĠR ey
Ġcon ven
Ġam bit
Ġhat ing
ord s
Ġins isted
ĠDon ald
Ġhar p
Ġgl ove
old s
Ġsy nd
Ġdri vers
Ġboss es
Ġland ing
Ġpark ed
Ġfur ry
Ġimmedi ate
Ġaut opsy
ĠWar ren
ĠPol ish
Ġsatisf y
bec ca
Ġlat est
Ġfanatic s
Ġwat ches
Ġexcite ment
2 00
c ont
m el
u pp
in as
Ġd ive
Ġf uss
er able
Ġl am
Ġh ool
Ġin ha
Ġha unted
im ey
Ġsh uff
ic als
st orm
Ġj et
ĠA le
ĠA ug
Ġde cap
ĠM ack
ĠM em
Ġne at
ore n
Ġhell ish
os er
ĠE le
Ġsl ack
Ġkind ly
Ġsk ill
Ġte nder
Ġcomm ittee
Ġbo ar
Ġhair cut
Ġred uced
Ġpen gu
ĠCl iff
Ġang le
Ġra ving
Ġsub way
Ġstud ied
Ġcross ing
Ġhom icide
Ġcond itions
Ġpub l
Ġdin ing
Ġadv ise
Ġgas oline
ĠMic helle
Ġinject ed
Ġspirit ual
Ġhomosexual ity
Ġcraz iest
Ġcharac ters
Ġaffect ion
ĠIm per
ĠJones y
ĠJen na
ĠVirgin ia
ĠLad ies
Ġfel on
ĠMid dle
ĠPu erto
Ġentr ance
ĠSadd am
M r
O n
b ows
c ca
p ants
r ine
r uc
z i
Ġs ill
Ġs ets
Ġd ing
Ġd il
Ġd ared
ll ed
it ate
Ġc aut
Ġg aze
Ġl y
Ġl act
Ġp oof
Ġp ardon
Ġh mm
Ġn uns
Ġbe an
Ġha cked
Ġk ings
im ony
Ġmy th
ĠT O
ĠT hing
ĠS av
ĠS kin
ĠM um
ĠB ishop
Ġshe er
Ġbl uff
ul sion
Ġsu p
ĠO p
Ġgu ill
Ġar ts
Ġtw e
Ġtw at
ĠK urt
ĠK atherine
Ġcr us
ĠTh or
ĠBut cher
Ġsle e
ĠCh in
pe e
Ġbaby sit
ix on
Ġcount y
ale m
Ġguess ing
Ġcock y
Ġpolice man
Ġfig ures
ĠHar per
ĠEx ec
yl an
Ġaddict ion
Ġprod uction
sc rew
ĠWal t
Ġamb ush
Ġunf air
Ġgall ows
Ġhipp ies
Ġintrod uced
Ġgobl ins
Ġlog ical
Ġtempt ed
sch ool
Ġdevast ated
Ġsuperstit ious
Ġcaval ry
Ġlifet ime
d oes
f at
t ub
w an
Ġb ats
Ġn avel
Ġwe b
ic ia
Ġdo om
Ġan onymous
ly de
ĠS ave
Ġj ock
ĠA x
ĠH urry
ĠM ess
ĠB unch
ĠC H
ig hed
Ġno sy
ĠL iam
Ġwor sh
ĠN ap
ĠO z
Ġpl ates
Ġpe cul
Ġ... "
Ġpro b
ĠGod s
Ġsl ick
ĠTh ird
Ġhapp ier
ump ing
Ġins pect
pe nded
het ti
pr oof
Ġ3 5
Ġspend s
Ġimag inary
Ġthreat ens
Ġran ch
Ġcross bow
ĠLe ague
Ġsal ary
Ġfart ed
Ġcorp orate
Ġfail s
ĠMor ris
oman iac
ĠMart ha
Ġspot ted
Ġprod ucer
Ġfield s
Ġopport un
Ġfort un
Ġtechn ically
Ġcart oon
Ġbon us
Ġbroad cast
Ġmasturb ation
Ġshock ed
Ġdescri be
Ġdescri ption
Ġep is
ios ity
Ġgig antic
Ġrack et
Ġgamb ler
Ġaccompl ice
ĠKore an
Ġcontroll ed
ĠCart man
ĠAud rey
d ad
j ud
n et
Ġb ubble
Ġf aking
Ġp ages
Ġth orough
Ġbe et
im ately
Ġli ons
ĠS ty
Ġse iz
ĠM akes
ĠD w
Ġbl ades
Ġtr ump
Ġoff spring
ĠN anny
Ġv oodoo
Ġcom ed
Ġsc attered
Ġpr ime
Ġun ique
Ġam put
ĠSt ick
Ġmust n
Ġsick ly
og ged
ĠBe verly
ens itive
Ġapp alling
ĠBl ake
Ġinf ern
ĠZ oe
ĠRe ve
Ġcond uct
Ġla un
Ġdrag ons
ĠSha wn
Ġrecord ed
Ġvag ue
ĠBrit ain
Ġident ify
Ġexplos ives
Ġtax i
Ġmel ted
ĠRo ad
Ġofficial s
Ġloc ation
Ġleaders hip
Ġcyn ical
ĠMeg an
org ia
Ġprose cut
Ġglob al
Ġdipl om
Ġstrate gy
Ġkl utz
Ġhandcuff s
Ġinapp ropriate
m aking
v ia
v iously
it che
Ġp ope
or c
Ġbe ers
Ġbe arded
Ġha y
im m
ĠW iz
ch y
Ġgo on
Ġse eds
ur g
ĠM ister
ĠM AN
ĠC ont
ĠG il
Ġbl oke
Ġbl ocks
Ġbl asphe
ag hetti
ĠL uther
Ġoff ers
ĠN igger
ĠJ ill
Ġal oud
ol ation
Ġpl ump
Ġex ting
ace y
Ġdown town
Ġtw er
Ġun educated
Ġqu ote
Ġam mun
orn e
Ġins idious
Ġres ident
ĠChrist ine
Ġbusiness man
Ġpun cture
Ġele g
Ġhook s
Ġreg ister
ĠCan adian
rog en
Ġrip e
ĠLe v
Ġdi aper
Ġve ter
Ġprep aring
Ġlick s
ĠWould n
Ġscare crow
ĠBet ty
Ġjeal ousy
Ġcust ody
Ġwiz ards
ĠFin ally
Ġident ified
ĠJud ge
Ġterr ifying
Ġeffort s
Ġmart ial
Ġpul se
ĠSen ator
Ġchem ical
Ġflu id
Ġsales man
Ġcollap sed
Ġarch ite
Ġdy ke
ĠRus sell
Ġfinanc ial
Ġammun ition
h i
r iss
Ġ vel
Ġt ack
ll ip
Ġf ulf
Ġp imps
Ġin it
Ġth read
le ction
Ġsh ining
ĠM ot
Ġfr at
ak in
ĠL am
ĠJ ama
ĠR oyal
Ġcl enched
Ġsm iles
ĠK or
ĠK ent
ĠK ey
Ġpr ints
Ġcr ude
Ġim mor
Ġafter wards
Ġhome work
hen s
Ġtry in
gg ie
att s
Ġpass enger
Ġpass engers
Ġpen ises
olog ically
Ġlaugh s
ĠSp ider
ĠRe becca
Ġgirlfriend s
co at
Ġbeg ins
cr im
Ġcheck ing
Ġtruck s
Ġroad s
Ġshr ie
Ġcous ins
Ġsin ners
ĠSay s
suck ing
ĠCle an
Ġarr ange
ruct ive
Ġdemand s
Ġstat us
Ġlean ing
Ġrum or
Ġsniff ing
ĠKat ie
Ġbarbar ic
Ġjournal ists
Ġobl ig
Ġexha usted
Ġvar ious
Ġheav ily
Ġoutrage ous
Ġwithdra w
Ġbiz arre
1 1
b el
f ense
n an
p ound
r ill
y er
Ġb attered
Ġm asc
ĠI Q
Ġc roc
Ġl yn
Ġp agan
ck ing
Ġha l
ĠW y
ant le
ĠA z
ĠH ur
ĠH ug
ĠH appy
il ian
Ġsa fer
ĠP ers
ĠF ox
fe ed
Ġcl erk
Ġpo king
Ġun pr
Ġsw ung
Ġsha gging
Ġthrough out
ho ly
ĠBr itt
Ġpun ches
ys is
Ġpass port
ĠAs k
Ġorg asms
ĠMan y
Ġind epend
Ġcontrol s
ĠGe or
Ġannoy s
Ġfut ile
Ġdesp ised
ĠSe ems
Ġoper a
ĠMor g
Ġca uses
suck ers
ĠFred die
Ġsam ples
Ġspray ed
Ġbark ing
ĠMur phy
Ġtradition al
Ġgather ing
Ġgest ure
lev ant
Ġfrust rated
ĠSwed ish
Ġsett led
Ġkne el
Ġfeat ures
Ġparaly zed
Ġfingerpr ints
ĠGent le
Ġpyr am
Ġpecul iar
! ?
n osed
r in
Ã ³
Ġt ush
ed e
es c
es us
Ġn y
et ing
oo ped
ĠT a
if ting
ĠW on
Ġgo ons
op ping
ĠM ade
ĠD ylan
ĠC ock
ĠG ret
ul ated
ĠL og
ĠL aur
Ġex agger
Ġcl ay
Ġdis pose
pt ic
Ġter min
Ġridiculous ly
Ġcount s
ĠIn spect
Ġimp ost
Ġapp ly
ok ed
Ġhor rid
Ġfil med
gin a
ph ine
Ġconf ident
gr ade
Ġind ul
Ġ4 8
osp here
Ġobs ess
amb o
Ġpleas ed
ĠIr an
Damn ed
Ġtarget s
ĠSu icide
ĠGot ham
Ġamb ition
Ġappro ached
ĠEll ie
Ġtax es
Ġbuff alo
ĠOw en
Ġprinc iple
Ġfo am
Ġpud ding
Ġconqu er
Ġabd uct
ĠJenn ifer
8 0
l oe
Ġt ig
Ġb aked
ll ess
ing ly
Ġl ou
or r
or ous
Ġin e
om i
at ers
ill ery
ay er
Ġst up
al i
Ġre verse
st ock
ĠA gain
ur se
ĠD iv
ĠC and
ore t
Ġwor ries
Ġal right
ĠP rep
ĠF ight
Ġsp ying
Ġback st
qu et
sh oot
Ġsn ive
har m
Ġdrunk ard
Ġfell as
Ġquick er
Ġsuff icient
Ġstud ying
Ġbath tub
uel ess
stit ution
Ġsuper her
Ġve in
oph ob
und y
Ġexplain s
ĠGr iff
ĠMc K
Ġhyp not
uct ive
Ġtem por
ĠAnt h
Ġexplos ive
Ġugl ier
Ġcommission er
Ġcam el
ĠPart y
Ġunus ual
ĠAcc ording
ĠSpar hawk
Ġec st
Ġjan itor
Ġbrace let
Ġencoun ter
Ġcrucif ix
ĠDrac ula
ĠInspect or
E X
M aybe
S c
ä ¸
Ġs ane
Ġb im
Ġb ubb
ĠI ron
Ġf ame
Ġc oy
Ġto bac
Ġg athered
Ġh ound
at hetic
Ġr asc
uck ing
ra g
Ġkill in
Ġbut ch
ĠM ob
ĠB ite
ĠB ird
ack ed
ess ert
na ked
Ġbl ah
ĠL in
ol i
Ġsp ots
Ġv ig
Ġex isted
Ġex hib
ĠE ight
Ġpro ven
th ose
th row
ther n
Ġfl ashed
Ġstr ict
ĠAll ah
Ġsur ve
Ġid le
Ġunderstand s
Ġexc ruc
iver s
Ġconf essed
mb les
Ġgang s
Ġvide os
Ġer ad
Ġrecord ing
Ġfair ly
ĠMad ame
Ġhy br
Ġfem ales
ĠJul iet
Ġest abl
wor th
ĠTurn s
Ġfoc used
Ġquarter back
ĠSy d
ĠHaw ai
Ġrul er
ĠSqu are
Ġpige ons
Ġrhy th
ĠBrand on
Ġsou lless
Ġresour ces
Ġridic ule
Ġexcruc iating
T ake
d ed
h ol
Â Ĵ
Ġw uss
Ġb ony
Ġd u
Ġl ur
Ġp aw
Ġn arr
Ġth irst
Ġha bits
Ġst ank
Ġwas t
ĠT op
ĠS na
ĠS aint
ĠS pring
ĠH arl
ent al
ro e
Ġall er
ood les
pp el
Ġsu bs
ĠL or
ĠJ une
ĠF ull
ol ve
ard o
are r
Ġsc atter
Ġch ur
Ġpro g
ĠK el
ĠK ids
Ġcr ick
Ġblack ness
Ġfl irt
Ġwait er
Ġstr ings
Ġcont ent
Ġcomp ar
Ġpar rot
Ġbomb ing
Ġconf use
Ġprop he
ĠPr ime
Ġlow est
Ġrespect ed
Ġjud ging
Ġcorn ers
Ġcrack ing
Ġaff airs
Ġsoft ly
ĠMe an
ĠRic o
Ġdonkey s
Ġbother s
ĠRichard s
Ġsoc cer
ĠCo ach
ĠSu pp
Ġcrowd ed
Ġaffect ed
Ġmas ks
Ġhob o
Ġnick name
Ġblo ated
ĠPot ter
Ġloat he
ĠRand all
enc ies
Ġsuspic ion
Ġimpr ison
Ġunex pected
ĠHarv ard
C on
b or
b reak
g re
j erk
re c
on ly
Ġd up
Ġd essert
it ating
nd ing
ing e
Ġo af
Ġg inger
or ical
Ġbe ak
Ġr oses
ĠS pen
ĠH ap
ĠH ulk
ro it
ĠD re
ell ig
ĠC ob
ĠC lyde
Ġman kind
Ġint ense
Ġby e
Ġcl ip
Ġpro ceed
Ġro ared
Ġneck lace
Ġdec ency
Ġacc us
ĠChrist opher
ĠMar sh
Ġred head
ys on
Ġgrand child
Ġill iterate
els on
Ġreg ist
Ġcol on
Ġdoll s
Ġbuild ings
Ġsweet ie
Ġjud ges
Sh oot
Ġdiv ision
ham mer
Ġlim it
Ġpray er
hant om
Ġrequ ires
ĠCould n
ĠDis ney
Ġcommun ist
Ġflash light
Ġconfir m
Ġrepeated ly
Ġven om
ĠJam ie
ĠAnton io
Ġtram pled
Ġweal th
Ġreneg ade
Ġaccomp an
Ġguill otine
U N
d ale
p it
u ght
u ated
y on
Ġa ck
Ġb ob
Ġg oo
Ġp ose
or able
Ġe ffe
Ġe agle
out ed
Ġst ale
ir k
ĠH ate
ĠH og
ĠC ec
Ġno ises
ĠP unch
ĠP iggy
ĠF ion
ĠF bl
Ġpl ung
Ġpe cker
Ġsp aghetti
ĠR ing
ĠR ot
Ġlo ath
Ġch im
dd ing
Ġche ss
Ġcha l
Ġsuck y
ĠV iol
Ġgra ves
Ġcompl iment
Ġacc ur
av an
Ġaw ard
cher y
ames e
Ġdel ete
Ġdemon ic
stit ute
Ġmer ry
Ġconc rete
Ġamong st
ĠJap s
Ġinvol ve
ĠQue ens
Ġgener ally
hel p
ĠComm ission
Ġobject s
wor ks
ĠCla us
Ġcompan ions
Ġjournal ist
Ġprec ise
Ġforbid den
Ġult imate
Ġdom estic
ĠStew art
Ġrasc als
G B
I LL
O W
R I
re land
ĠI I
Ġf are
or se
Ġn av
im ents
Ġst all
ic ations
Ġfor med
st ep
Ġare na
Ġfr ies
Ġman hood
Ġsa p
ĠN ah
ĠF itz
Ġpl atter
Ġsc ars
Ġcon ference
Ġtheir s
ĠK ind
ĠK ling
Ġover d
Ġover board
Ġgood ness
Ġun rel
Ġdis ag
ug ged
Ġfl ick
Ġfl av
Ġbody guard
Ġad just
ush i
Ġlight ing
Ġstra pped
Ġread s
Ġdel inqu
Ġdep art
Ġlad der
Ġmut ant
Ġdraw ers
Ġce ase
vest ite
Ġsens ible
ĠPaul ie
Ġbreat hed
Ġcollect ing
Ġaccount ant
Ġcand les
ĠBea ch
Ġcruc ify
Ġwave s
ĠHon estly
ĠChan g
uz a
Ġborrow ed
Ġmusc ular
ĠWhe ther
Ġassoci ated
Ġintim id
Ġcher ry
Ġhemorr ha
Ġcrem ated
Ġveh icle
Ġunemploy ed
ĠAssh ole
. ?
A l
T ER
b et
c onscious
d am
p an
u j
u ld
w rit
Ġt ucked
Ġa uthor
in ty
Ġb omber
Ġm aimed
on ica
Ġf ier
Ġg in
Ġl as
Ġhe inous
ed ient
Ġp lead
Ġn ause
ic ian
Ġfor ms
ver ty
ĠW r
ĠW ard
Ġj unior
Ġse ar
ĠD ang
ĠC op
ĠC urt
ĠL i
ĠP ac
ĠR uth
Ġback pack
Ġbr ass
Ġbr anch
Ġtw itch
ĠWe b
Ġpo verty
Ġmo ld
Ġun l
Ġsha bby
ĠV ar
Ġmom s
int o
Ġtra uma
Ġmin es
Ġstand ards
ok er
ĠFr iend
Ġsca le
ĠBl ond
Ġrep rod
Ġside kick
Ġweird os
Ġforget ting
but t
Ġbra ke
Ġmor phine
Ġlow ered
ĠGu ess
Ġcell ar
ĠSm ells
Ġcreep s
Ġrad iation
Ġpriv acy
Ġpin ned
Ġhonor able
Ġhoney moon
Ġgener ations
Ġ* **
Ġblock ed
Ġcoun sel
Ġfresh man
Ġnur ses
Ġtechn ical
ĠFred dy
Ġmob ile
Ġinse c
Ġeduc ated
Ġfet ish
Ġmassac red
Ġnick el
ĠHarr ington
Ġchok ed
Ġpound ing
Ġrout e
Ġrul ed
Ġdiab ol
aith ful
Ġmedioc re
Ġphr ase
ctop us
Ġtwer p
Ġeffe minate
! )
, âĢĻ
O D
R e
f ig
g or
Ġ Ã
Ġt ed
Ġw es
Ġm ummy
Ġd ub
Ġd uel
ĠI l
Ġf isher
Ġg h
im o
am ous
am ily
ĠS ke
ĠY ank
st ance
Ġas se
Ġso le
ĠM itche
Ġall eg
ion e
ĠD iana
Ġab omin
ĠL ana
itt in
ĠHe nd
Ġcra ft
han k
ĠF unny
Ġint imate
ĠR udy
Ġcr ate
ac c
Ġsw ept
Ġfl ushed
Ġmen ace
Ġpart icip
Ġsk irts
ren ched
Ġact ive
Ġstr ung
oll ar
Ġpat tern
Ġgl anced
Ġstuff ing
Ġob t
act ly
Ġret reat
ĠAl pha
Ġsexual ity
Ġmeet ings
Ġnut ty
Ġpub ic
Ġbum mer
Ġbow els
ĠJo an
Ġheaven s
ĠMother fucker
Ġju ven
Ġju icy
Ġextermin ated
Ġbrut ally
Ġtrack ing
ĠSec urity
ĠRos ie
ĠSen ate
Ġfund ament
Ġopt ions
Ġsimpl eton
ĠTurk ish
ĠStri ke
ĠAfghan istan
Ġga unt
Ġmache te
ĠCamer on
Ġmoust ache
ĠImper ial
Ġtobac co
Ġt amp
Ġb er
Ġd ot
Ġd um
Ġl t
an or
Ġn od
Ġn avy
Ġth orn
Ġr ival
Ġu mb
Ġan ts
st yle
ĠA R
ĠA gn
ĠH annah
op ing
ĠM oo
ĠC amp
na ge
ĠL es
ĠP ir
Ġpe el
ĠR ex
ĠK night
Ġsl iding
Ġsl edge
Ġfl ock
Ġim bec
Ġbrain less
ĠCh loe
iv an
Ġinf ormed
Ġpen ile
Ġfollow ers
ĠGo ing
Ġsix th
Ġsil k
ĠPr om
Ġbell s
Ġtrans plant
Ġcool est
Ġpos itions
ĠSm all
Ġsol itary
Ġcruel ty
Ġpublic ly
ĠSl oth
Ġphot ograp
Ġgut ted
Ġvom iting
Ġspank ed
Ġscen ar
Ġremem bers
ĠFB l
Ġchat ter
Ġresist ance
ĠAust in
Ġobl iv
ĠHarr is
Ġmol est
Ġtrave ling
Ġcontain er
Ġnegoti ate
Ġalb um
ĠHand s
ĠDep artment
Ġoccur red
ĠYanke es
Ġfornic ation
Ġsched ule
Ġclo ak
Ġmushroom s
Ġcine ma
Ġestabl ished
Ġack now
O S
b in
b ath
e ating
r iel
t ell
in os
Ġw ail
Ġs ow
ha st
it ic
is le
Ġp ine
Ġn uke
ot hy
en er
Ġsh orter
ir m
ra ine
Ġan aly
ĠS i
ĠS ky
ie ur
Ġse lected
ĠH urt
ĠH aving
ĠH amm
Ġso ot
ĠB le
Ġne cr
Ġat m
Ġshe pherd
ig o
Ġman agement
ĠN ar
ĠP ink
ol as
Ġex otic
ĠE w
Ġsex ist
res a
Ġsl uts
ree k
Ġsw elling
Ġmu ff
Ġball et
Ġatt ach
Ġres ign
Ġad vert
Ġrest rain
the se
Ġinst ance
ale y
Ġinc on
ĠIs ab
Ġstick y
Ġpsych os
Ġfree zer
Ġinter fe
Ġimag es
Ġsix ty
Ġdep uty
Ġsad ist
Ġignor ing
Ġallow ing
Ġtrans vestite
Ġvill agers
Ġcap s
ĠSha ll
go ing
Ġbank rupt
ĠNe il
inc ing
Ġcent re
Ġgas ped
Ġreb el
Ġinclud ed
wor ld
ĠTur ks
ĠFranc o
ĠBro dy
Ġexplod es
ĠGodd am
Ġrod ent
Ġ` `
ĠKir k
ĠBeck y
Ġsevere ly
ĠYanke e
Ġkar ate
ĠBurt on
Ġpean ut
Ġgull ible
Ġairpl ane
iag ra
ĠReve rend
ĠAnth ony
Ġloath some
I R
U R
b ro
e b
i i
j u
p art
v or
w y
w he
Ġt ension
Ġw ishing
ĠI D
Ġc ad
Ġc ush
or ks
Ġst ag
Ġst ove
Ġr am
ĠT ok
ĠS ea
Ġj azz
ĠH ud
Ġher mit
ĠM ong
ĠM aur
Ġab hor
ĠC e
ak y
ak uza
Ġsome place
ĠL ar
ĠL ost
ĠL enny
Ġsp ike
ĠE ach
Ġcl ueless
che red
Ġqu arters
Ġfl ir
Ġrat t
og ue
Ġact ors
Ġatt ic
Ġmess es
Ġbutt ons
Ġgl ance
Ġpol ish
av in
act ive
Ġrap es
Ġbar gain
Ġpres cri
Ġsign ing
Ġprop ag
ĠSp ain
Ġir ony
Ġmor ality
Ġ4 00
Ġext inct
Ġbeg un
ĠâĻ «
Ġcontin ues
ĠCha se
Ġcalm ly
ĠRay mond
Ġparan o
rib ute
izz ie
Ġpupp ets
right eous
Ġspec ifically
ĠLuc ifer
itz er
Ġsepar ated
ĠGar ion
Ġgig aw
bb ie
Ġcondem n
ĠWin ston
Ġdepend ing
Ġtemper ature
Ġmanipul ative
ĠDie go
Ġvirt ue
ĠHom er
ĠFrancis co
Ġkar ma
Ġblaz es
Ġdescend ants
Ġgou ge
Ġlux ury
Ġvult ures
ĠAug ust
Ġecst asy
' ...
C an
n orm
p ret
z ie
z ens
Ġa id
Ġb ounce
on ing
ĠI ce
Ġh ills
Ġbe head
us a
Ġha unt
ill on
ill ance
Ġr aces
Ġu l
ĠW ork
Ġj ammed
Ġdon t
ĠH at
ĠH ills
op es
ĠB ury
Ġbl under
Ġno isy
Ġsu icides
ĠP ack
ĠR u
Ġlo ot
Ġlo llip
Ġch rist
ud ing
ĠK le
Ġmo ist
Ġsl iced
Ġgr unt
ug u
Ġfa ec
man n
ĠV amp
ars on
Ġpig sty
Ġhor ribly
ĠDe ce
Ġrep orters
Ġret ired
ĠAl mighty
Ġlight ly
ik er
Ġnut ter
Ġref lex
Ġart illery
ĠPr ot
Ġrespect able
Ġvide ot
Ġpress ing
Ġchair s
ĠShoot ing
Ġfed s
ĠNick y
Ġcapt ive
ĠSex ual
Ġprov oc
Ġdeb ate
Ġdeb au
Ġdork y
sm elling
ij uana
Ġpassion ate
Ġhill b
Ġpour ing
Ġwank er
Ġpud dle
Ġshat tered
ĠHol mes
Ġheret ic
Ġmong rel
Ġcomr ades
Ġfingerna ils
Ġadrenal ine
Ġextraord inary
ĠLaur ie
Ġchur ches
Ġdiabol ical
g od
h uh
p aid
t ails
in als
Ġs ought
Ġm ac
Ġm ars
Ġm oles
Ġo o
Ġg ained
Ġr ans
ĠT ill
ĠS outhern
ĠW anna
ant a
Ġj aws
ĠA bs
ĠM and
ĠB aker
ĠG ene
ig el
um pt
ĠL il
Ġoff ender
ĠF ry
Ġint eg
Ġlo af
Ġv on
Ġhow ling
nt h
Ġag es
ud dle
Ġmo an
ac ious
sh irts
ĠOh h
Ġown ers
Ġins ensitive
ren ces
ĠU l
Ġwait s
Ġpre ach
Ġres ur
Ġsch olar
Ġgl ue
ĠIn c
Ġimp at
ey e
Ġrec ent
Ġbur ger
Ġcur led
Ġcur iosity
ĠAl most
Ġpar ole
Ġbell owed
Ġarm ies
Ġshar ing
ĠNe ed
ĠSte fan
Ġshr ive
Ġwret ches
Ġkidna pper
Ġcirc les
Ġpin ched
ĠMon roe
Ġpray ed
Ġrif les
Ġ19 7
Ġinsult s
ĠVer a
ĠVan essa
Ġentertain ment
Ġveget able
Ġwack y
Ġsem i
Ġplat oon
Ġfren zy
Ġvapor ized
mid t
Ġspong e
Ġcroc od
Ġfaec es
1 5
G H
I CK
b ad
b ul
e ged
s omet
v as
Ġ Ãī
Ġt ies
ou b
Ġd amp
it is
ĠI S
Ġc od
er ick
Ġo y
Ġl az
Ġl oner
Ġp anda
or age
Ġn ative
ar led
im me
Ġst ump
Ġdo ppel
ĠT ina
ĠT iger
ĠW ake
ĠA na
Ġbut chered
ĠB arr
ro be
ell ow
ĠG rol
na ble
Ġbl ouse
ab or
ĠL ib
ĠN elson
ri ans
ĠR ec
ĠR ipper
Ġlo ony
Ġback ed
Ġback yard
ĠE van
ob s
Ġmean est
Ġun worthy
Ġen vel
ac er
Ġdis se
Ġgr ill
Ġgr anny
Ġbull ied
Ġey el
Ġend ure
ans as
-- -
Ġpret t
Ġcop per
Ġpre jud
Ġmar row
Ġem peror
Ġid ol
Ġdec ades
Ġapp rove
ĠBr on
Ġent ers
Ġcor rupted
Ġexc ess
ĠAr k
Ġcreat ing
Ġcreat ive
Ġdump ing
Ġdef in
Ġbas is
bl ower
Ġdist rict
cer y
Ġallow s
Ġtrans form
Ġris ks
Ġtrick y
Ġelect ed
ĠPl an
Ġwilling ly
ett i
Ġgener ous
ĠTra cy
Ġrum ors
Ġdece ive
ĠSpe cial
Ġspin ning
ĠFer r
ĠFer gus
Ġconcent ration
Ġdepend s
Ġbatter ies
ĠHom icide
ĠDa isy
ĠStu art
Ġintent ions
ĠTroll s
Ġhoodl ums
otect ed
Ġinev itable
ĠBarn es
Ġappl ied
Ġambit ious
ĠWiz ard
ĠSpen cer
Ġenvel ope
I M
P S
b out
d aughter
m urd
n ik
x A
Ġw oo
Ġc ess
Ġn u
Ġsh rew
Ġr ookie
Ġdo l
Ġan arch
ĠH ans
Ġde br
Ġso b
ĠB og
Ġfr atern
ell o
Ġab using
Ġtr ink
ĠL ip
ĠF isher
Ġsp ook
Ġcom in
Ġdr am
Ġam p
Ġam used
Ġdis l
Ġgr ant
Ġgr unted
Ġfl are
Ġshut ting
ord e
Ġgra vity
Ġpre vented
Ġad oles
Ġsn ort
ĠBl air
Ġrel ieved
Ġattack er
Ġdem ocracy
land s
Ġabs or
Ġsub mar
Ġviol ated
Ġve t
Ġer rand
Ġmot iv
rib es
ĠCr im
ĠComm and
Ġcelebr ating
Ġrag ing
Ġdip shit
Ġow ed
Ġtrou bled
ĠVer onica
ĠRa ist
mark et
Ġtherap ist
Ġfold ed
ĠGab riel
Ġassign ment
Ġrecru it
ixt ure
ĠNic ole
Ġgras p
Ġhambur ger
Ġaltern ative
ĠPhill ip
Ġamuse ment
ĠShaft oe
ĠDw ight
ĠFion a
Ġatm osphere
Ġgigaw atts
6 0
K e
o qu
Ġt ainted
Ġa ston
Ġd re
Ġp ace
Ġh unch
Ġof the
et ta
im ated
Ġr amb
ĠY ep
Ġj ug
ĠH ind
ĠM ia
ĠM afia
ĠD er
ick er
ag en
ul king
ĠJ a
ĠJ in
ĠP as
ĠP ay
ĠF ound
ĠF eds
ol k
Ġsp aces
ĠR ap
Ġv ind
Ġback up
Ġright eous
be an
ord ers
Ġcha ined
here nt
Ġtra ps
ete or
Ġimp ressive
Ġrec on
Ġbur ying
Ġhope fully
land er
Ġdumb est
Ġeye balls
arl ic
Ġind ign
Ġtest imony
Ġstar ters
Ġdist urb
Ġsub tle
Ġext rem
Ġbell ies
Ġmagic ians
ĠEnglish man
Ġoper ate
Ġpeace ful
Ġeng age
Ġbattle field
Ġsum mon
Ġban ned
Ġduck s
Ġspec ific
ĠSil as
ĠBu y
Ġmat hem
Ġnewsp apers
Ġcong ress
Ġprec inct
Ġsod a
col m
Ġmosqu ito
Ġmaint ain
Ġcuck oo
ĠMarg aret
Ġseiz ure
Ġunpr otected
Ġsurve illance
G ive
O B
b oo
b ang
e xt
g ian
h our
l ined
r um
t ie
Ġt urb
Ġt itty
in ter
Ġb ind
Ġb ree
Ġb ash
ĠI reland
Ġc odes
Ġto pp
Ġg rain
Ġl umber
Ġhe d
id ges
ill ion
ke l
Ġwe aken
Ġst rain
Ġdo zens
Ġan ch
ĠW oody
st ro
Ġj ur
ĠM ountain
ter m
ĠC ost
um ption
Ġsa bot
ul se
ĠL esb
ĠL iber
ĠL izzie
ĠP ad
ĠR ip
Ġv ine
Ġex orc
Ġcon cept
che z
Ġover night
Ġhat ch
Ġins ert
Ġte ase
pe ople
Ġstr uct
Ġcont am
Ġcont ra
ib i
ĠIs a
ĠAl right
Ġfar ce
Ġfollow s
bl ock
Ġcol ors
Ġexp ense
Ġinnoc ence
Ġcheck s
Ġsurv ival
Ġdev iant
Ġvis ited
str ich
ĠCol in
ĠCon nie
ĠAb ra
Ġchop per
Ġden ied
Ġnightmare s
Ġscar f
Ġreveal ing
sl aughter
ĠDem ons
Ġmic ro
walk er
Ġcowboy s
Ġmagn ific
Ġflo at
Ġlaws uit
ĠCount y
Ġcuff s
Ġreject ed
Ġcav ity
Ġdegen er
Ġdistract ed
ĠOb viously
Ġarmp it
Ġconcl usion
ĠTob y
ĠUs ually
Ġnic er
ĠLaure n
Ġperman ent
ĠHark onn
ĠMitche ll
ĠSloth rop
E P
e er
g anger
h r
h ound
m od
p oor
z es
Ã ¯
Ġw ander
on ia
ha lf
it us
ĠI ll
Ġc ate
Ġp ounded
Ġh ick
Ġh os
Ġin k
Ġin human
Ġha w
Ġe g
Ġst ung
ic hes
ĠT old
ant ha
ĠA ld
ĠH ou
ĠM aine
ĠC re
ĠC ro
ĠG i
ĠG wen
ĠP erson
Ġpl ants
Ġpe arl
ear s
ĠK o
ip ers
Ġen gin
ian e
iz zy
sh ield
Ġbull s
Ġfire place
we re
ple ase
Ġad ul
Ġcur ve
Ġrap ists
end ous
Ġgen etic
Ġprom otion
Ġpass word
Ġbar on
igg a
ĠSc out
ĠCan ada
Ġland lord
ĠRe ady
Ġemb race
ĠPr op
ĠGu ards
Ġannoy ed
ĠCar amon
Ġcost umes
ĠChe l
Ġhy d
Ġprov ided
Ġwre cked
Ġtrad ed
ĠCle ve
ĠMag n
Ġgrin ned
Ġhors eshit
ĠJud as
Ġadult s
Ġinj uries
ĠSure ly
Ġdeg rees
Ġdetect ives
ribut ion
Ġpip es
Ġmercen ary
ĠServ ice
Ġelder ly
Ġepis ode
Ġimpost or
Ġsnive ling
Ġrhyth m
Ġfier y
ĠRaist lin
Ġengin es
H oly
c orn
g el
l ene
p ol
t ight
v ar
Ġa ce
Ġs ly
Ġd ome
it ives
Ġo t
Ġo strich
Ġl ured
or ic
as per
ay a
ad ers
Ġst em
al id
Ġr ammed
am us
ic he
ĠW ater
ĠW onder
Ġre ass
st upid
ĠD uck
ĠD ire
ĠC ab
ĠG all
ĠG em
el o
ĠHe ck
Ġsp inal
ĠR es
ge y
ĠE ld
Ġcl one
Ġsm ashing
Ġover weight
Ġcr u
Ġam er
Ġam using
ang ar
ret ched
ĠShe l
Ġrid icul
Ġunder dog
per ing
ĠV ern
ĠV iagra
Ġsk i
Ġmouth ful
Ġhelp ful
Ġpoor ly
Ġgl ow
Ġcomp ete
Ġrec y
ipp in
Ġmid st
Ġpun ct
Ġred neck
Ġweird est
arr ing
Ġlight er
Ġrob es
Ġpass age
ĠAn ita
Ġhon our
Ġsmart est
ĠGo a
ĠDr unk
Ġgrab bing
Ġmed ium
Ġdist inct
Ġsub d
br other
Ġscr amb
ĠGe orgia
Ġshar pen
Ġjud ged
zz ie
Ġev ident
ĠTr ans
Ġed itor
Ġring ing
Ġimm une
Ġoper ations
Ġthie ving
ĠSl ow
bo at
Ġreport ed
ett le
Ġavoid ing
Ġcraz iness
Ġop ium
ĠPhil ip
Ġconst ruction
Ġagre ement
Ġfright ening
Ġunf aithful
Ġsuffoc ated
ĠDet roit
ĠSpe aking
ĠBrother s
Ġpsychiat ric
ĠArch ie
Ġencou rage
ĠTar zan
Ġregul arly
Ġfug itive
ĠColomb ian
Ġmax imum
Ġdiscip line
Ġcocon ut
Ġpengu in
Ġprosecut or
Ġeleg ant
Ġarchite ct
Ġprophe cy
Ġinterfe re
nth ia
D id
I E
L ike
d led
d eg
g one
r ina
w on
Ġt ales
Ġthe at
Ġb en
Ġf ountain
ing le
Ġc oo
Ġc akes
Ġto x
Ġg room
Ġg oner
an es
Ġp el
Ġbe es
ut iful
ill as
im on
Ġwe igh
ad ium
ĠT ea
ver ted
if ully
ĠS om
ĠW u
ĠH us
ĠM antic
ĠB ren
Ġfr ying
ack ing
ĠD rew
ĠD odge
Ġne arby
ĠC ry
ĠG arden
Ġman slaughter
Ġtr iv
Ġno b
ol ics
Ġlo an
Ġv ital
Ġhand led
Ġmo cked
Ġcr ad
Ġcr umb
az i
Ġgl owing
Ġgl orious
ĠIn ter
av a
Ġob ese
ĠDe ep
Ġrel ated
ĠMay or
Ġtor so
Ġinv ade
Ġmach o
Ġconv incing
ĠLe ft
Ġlow life
Ġcal f
Ġev ac
Ġsafe ly
ĠEd gar
ĠWas n
Ġpract ical
Ġpee ing
Ġjo ining
Ġprod uced
Ġcivil ized
ĠCal m
ĠMal colm
Ġmerc iless
ĠSch midt
Ġfro ze
Ġtub es
Ġfac ility
Ġpainting s
Ġhen ch
Ġloc als
Ġmock ery
Ġach ieved
ĠBern ie
bur g
Ġcurrent ly
Bl ack
Ġspr ink
ĠColl ins
ĠCy nthia
Ġbik er
ĠLad en
Ġcurt ain
Ġshred s
Ġpean uts
ĠAtl antic
Ġimpot ent
ĠSyl via
Ġfunn iest
Ġaber ration
Ġinex per
ĠNap ole
Ġsuperher o
Ġinsec ure
ugu ese
Ġdram atic
Ġtriv ial
b ble
b ury
c ised
f old
h ist
w ait
w its
w ives
he im
Ġb az
Ġb uns
Ġm aze
Ġc ured
Ġp ets
Ġn ations
en ix
Ġe ject
Ġst akes
Ġde gr
ĠB ank
Ġwho a
ĠD ew
ĠD aw
ĠD ante
Ġat omic
ĠC ody
ĠL uck
ĠN eal
Ġle per
ĠP ier
ri al
ĠR ubbish
Ġv as
Ġch oices
ĠK it
ĠK GB
ea u
Ġcr ummy
Ġstart led
ĠV alley
Ġsk etch
oc ol
Ġsn ooping
Ġdisg u
Ġmis under
Ġdark est
pr ise
ĠAs ia
Ġdrive way
Ġele ven
Ġele ment
erer s
Ġstraight en
Ġbra wl
Ġref lect
ĠRe ggie
ĠHer m
Ġsuper natural
Ġprof ile
Ġris es
Ġclass es
Ġev olution
ĠSm oke
Ġstrange ly
Ġrac ial
Ġund erest
Ġval ues
Ġcup s
ann ister
Ġmort gage
Ġpump ed
ĠFin ch
ĠBurn ing
Ġlevel s
Ġengine er
Ġpier cing
ĠOl ivia
kill er
Ġfasc inating
Ġassault ed
Ġfrog s
Ġcunt s
Ġbugg ing
Ġunlike ly
ĠBern ard
Ġcollap se
Ġdisrespect ful
Ġadminist ration
ĠCong ress
Ġexte nded
Ġnecess arily
ĠPic ard
ĠUniver sity
Ġprog ress
Ġcompar ison
Ġjuven ile
hast ly
Ġlollip op
Ġdoppel ganger
B y
a a
b u
f u
f ried
l ist
r ors
w ash
Ġa isle
Ġb ishop
Ġm ourn
Ġm eteor
Ġd arts
nd el
Ġg arlic
Ġl air
an as
Ġh itch
Ġh ides
Ġbe ep
im mer
ay e
ad el
al in
ĠT ucker
if le
ĠS now
ĠW ash
Ġre he
Ġse ized
ĠB os
ĠB ene
Ġall ig
ĠG and
Ġor ang
Ġor bit
ĠThe m
Ġman e
od a
ag got
ĠL ion
ĠN in
ĠN asty
ĠJ u
ĠO x
Ġle cher
ĠP ost
ĠR ow
ĠR et
ĠR iley
Ġv oid
Ġv oted
Ġex ists
Ġsay in
ĠE than
Ġcl er
ass ador
be e
Ġun int
Ġcar ve
sh op
ĠSt ab
Ġcou p
Ġrat ted
Ġhouse hold
Ġdes ires
Ġcle aring
Ġbu nd
Ġwar ming
Ġres ort
az ed
Ġhard est
Ġsn atched
ĠLook ing
Ġsca pe
ĠBr im
ĠBr un
ced es
Ġside ways
Ġtor ped
Ġwind shield
Ġner dy
Ġcol ony
Ġmor ally
Ġmor bid
Ġadv anced
Ġer ror
Ġseven th
ĠAm az
Ġmod els
gu ided
ĠRem ove
Ġhall s
can o
Ġbene fits
Ġvac c
ĠSim pson
Ġtrip le
Ġbored om
Ġflat ten
Ġpil ots
Ġinvestig ator
uis er
ĠCla ud
Ġcommun ists
Ġmic row
ĠSuck s
St op
cell or
Ġlob ster
Ġsmugg ling
Ġrail road
Ġseal ed
Ġtom ato
ĠLaw rence
Ġassign ed
ĠPa ige
Ġtrib es
ĠMi key
Ġrect um
Ġwoe ful
Ġflaw ed
ĠMall ory
ĠBrend a
ĠShad ow
dri ver
ourge ois
Ġvel vet
Ġimmor al
Ġparano ia
Ġdol ph
ĠHou ston
J ew
c s
e at
f ar
m ong
Ġt el
Ġt ummy
in ates
Ġm ig
Ġm ates
ll ie
Ġo oh
Ġl id
an us
Ġp harm
or an
Ġin ability
om er
at han
Ġha ird
Ġst ained
Ġr uddy
se a
ic o
ĠT ap
ĠT ai
ĠS et
Ġre nd
Ġre pt
ch i
Ġout cast
ĠH E
Ġde als
Ġso aked
ĠB ug
Ġall eged
ĠD in
ĠD ud
ick y
ab ond
ĠJ erk
ĠJ uly
ĠO mar
ri et
Ġtim ing
ĠE in
ob ile
Ġhand ing
Ġen vy
Ġfl owing
Ġunder age
Ġreal izes
og s
pen s
Ġbab oon
ĠAll en
ens es
ĠBl ast
har t
Ġdamned est
Ġwanna be
ĠMar ch
Ġinf ilt
igg le
ĠMan ny
Ġref uses
Ġext ract
Ġspeak er
Ġinnoc ents
ien ced
go at
ĠFrench man
ĠNe ither
Ã© s
Ġpriv ates
Ġsight s
istic ated
Ġund ead
Ġtele phone
Ġspl ash
ĠSw iss
Ġ9 9
Ġblock ing
Ġfort ress
Ġaccount s
Ġrequ ire
ĠSan chez
ĠPal ace
Ġmajor ity
Ġopin ions
ĠAss ass
Ġchew ed
Ġsail ors
ompl ete
ĠGree ks
Ġsandw iches
ĠHam ilton
Ġdevelop ment
Ġaccompl ish
Ġassoci ate
Ġpurs uit
ĠPort uguese
Ġvenge ful
Ġveget ables
Ġdang ling
Ġirre levant
ĠCub an
ĠFel ix
Ġmercen aries
Ġanx iety
Ġcontr ary
ĠGovern or
ĠSaw yer
ĠDex ter
Ġconven ient
Ġsynd rome
Ġplung ed
Ġimpat ient
Ġmagnific ent
deg ree
b ons
g il
p ow
p ress
Ġ _
Ġt et
Ġt ant
Ġb id
Ġg er
ot ted
Ġbe hold
im eter
Ġme als
Ġst y
Ġr upt
ĠT ess
ĠS ere
ĠS pr
Ġre ign
Ġre ception
Ġkn uckles
ĠB ou
ĠB ubb
ĠB ourne
Ġtr an
Ġshit head
ul ating
ĠP ow
ĠP ant
Ġsp illing
Ġsp leen
qu ila
Ġbr idges
Ġcon vention
Ġdead l
Ġass ured
ip es
Ġpo inty
Ġhand ker
Ġco ord
Ġmo aning
Ġun e
Ġmad ly
ect omy
ĠBut t
Ġgr ie
Ġcar ot
Ġsha red
Ġmen u
Ġdest ined
Ġrem oving
Ġpart ly
Ġins ulting
Ġac ce
Ġlot tery
Ġtra ces
Ġpre f
Ġsound ing
ĠBl ind
ole y
Ġsign ature
ik h
ik o
ĠYes terday
oof us
Ġsweet est
Ġdirt bag
ĠSha w
ĠSm art
Ġelect rical
iam ent
Ġtow els
Ġcamp us
Ġexam ine
ĠMad ison
ĠMon a
Ġsum m
ER S
ĠAlex ander
icy cle
Ġbal oney
Ġsneak y
ĠCath y
Ġlif eless
Ġwerew olves
Ġmanipul ated
Ġunw anted
ĠDes p
Ġinstruct ed
Ġexha ust
Ġorphan s
ĠFil ip
ĠCyr us
ĠComp any
Ġbri be
ĠDump ster
ĠScot ty
Ġsarc astic
Ġgrat itude
Ġsplin ter
Ġempt ied
ĠGentle men
Ġpropag anda
ĠIsa ac
ĠCleve land
Ġhandker chief
O P
a zy
e be
i ors
m iss
p ass
r r
s n
w orm
Ġf i
Ġc ant
Ġc ages
Ġp es
Ġp ne
Ġp als
ill es
Ġr ational
ĠM ine
ĠM aking
ĠG ate
ĠG ang
ĠG arr
ind ul
ul u
ĠL ot
ĠN et
ĠN av
Ġany time
Ġal ibi
ĠP uss
Ġpe pper
Ġdr ums
Ġdown load
Ġpr ices
che ster
Ġpo x
Ġun its
Ġblack ened
Ġkind ness
ĠNo ah
man s
ĠV as
ĠV ill
ĠV iv
Ġrem orse
Ġdestroy s
Ġper p
Ġper vers
Ġhar vest
ĠBe an
Ġgra bs
ib ilities
Ġplan ets
Ġopen ly
Ġbus hes
Ġbo ast
Ġbo iling
ane ous
Ġaw aken
ipp i
ĠMar a
Ġeas iest
Ġchar ging
ĠAr men
Ġground s
Ġprot ocol
ĠDr ink
Ġrock ing
Ġbleed in
Ġcre ation
Ġwild ly
Ġsus pended
oph iles
Ġexplain ing
ĠCar men
den ly
ĠCol umb
Ġlim o
Ġant id
Ġsuggest ion
Ġdirect ions
Ġfle a
Ġsin ful
Ġclaim ing
Ġhy per
ĠPat ty
Ġpost ed
Ġincl ude
Ġslaughter ing
Ġtour nam
Ġprov oke
ĠBra z
Ġinclud es
ĠSil ver
Ġrent ed
Ġrevol ver
ĠTer ror
Ġspell s
Ġfasc ists
Ġunb ear
Ġburst ing
ĠBarb ie
Ġjew els
Ġcong ratulations
Ġperfor med
Ġknight s
ĠKore a
Ġindividual s
Ġslipp ers
ĠFace book
ĠInt o
ĠCow ard
ĠAsh ley
sha ped
tim er
ĠAc ademy
Ġimmig rants
Ġstun ned
Ġtoug hest
ĠHear st
Ġregist ered
Ġsear ched
Ġgh oul
ĠHud son
Ġhillb illy
1 6
M ad
S ome
T ell
c op
d is
h ill
u ity
w a
Ġ ic
Ġw ires
Ġd ates
ĠI gn
Ġp le
Ġp ies
Ġn um
al ie
Ġwh oring
ra k
ĠS H
ĠS ac
ĠS ub
ant ern
ĠA k
ĠA id
Ġnot ed
Ġso lo
ent ious
Ġall iance
Ġjust ify
ĠC oke
ĠC ale
ĠG eez
Ġman ic
Ġtr ipped
ĠL ater
ĠN ich
el f
ĠO ri
os it
ĠP olly
Ġpl uck
Ġpl edge
Ġevery day
ĠE asy
Ġbr ig
Ġcl amp
ud o
ĠK han
ĠK ings
Ġpo ly
Ġcar r
ord id
Ġcha u
ĠV lad
ise xual
og en
-- "
Ġbab bling
Ġtra cked
Ġser pent
Ġcont em
Ġcont rad
Ġschool boy
Ġrel ieve
ĠZ ach
Ġsmart ass
Ġbook ed
Ġcry stal
Ġsad ly
Ġart ists
Ġfast est
Ġdin er
Ġdifferent ly
Ġfigure head
Ġvag inas
ĠSe b
Ġrad ar
Ġglad ly
Ġsens ual
ĠMad onna
de ep
ett es
Ġform al
with out
Ġinvest ment
work ing
ĠSar ge
ica pped
Ġadm iral
Ġpsychopath ic
Ġaim ing
Ġcelebr ity
Ġsuffoc ating
ĠCath olics
ĠMer cedes
Ġmic roph
Ġsmack ed
Ġnarc otics
Ġgrad uate
ĠBa iley
Ġchem istry
Ġnegro es
augh s
Ġhorr ors
Ġded icated
Ġhemorr ho
Ġsuppl ies
ĠPak istan
Ġappoint ment
Ġfert il
ĠMcCl ane
dep rec
Ġsurviv ors
Ġbachel or
Ġcomed ian
Ġindepend ent
Ġaccompan ied
ĠPac ific
Ġpne um
U M
b en
c ore
f irst
l ict
m ine
o ca
in is
Ġs ushi
Ġb rew
Ġm uddy
Ġd orks
Ġl inger
Ġp sy
Ġp its
Ġh oof
Ġit ems
ut ter
ill ac
Ġe cho
Ġst ack
Ġst umbled
ir i
ra ced
ĠS ig
ĠS leep
ĠW orm
st ant
Ġse qu
ĠH arb
ĠM orm
ĠM ah
il ence
ĠC ant
ĠG ide
Ġman if
Ġman ual
ab lish
ĠN ell
Ġle pre
ol ence
Ġpe ck
Ġsp un
Ġsp ons
ĠR idge
Ġch oir
Ġch riss
th ole
Ġhand icapped
Ġfat ter
Ġcr amp
Ġcr uise
Ġgr ubby
ĠShe ila
Ġsha ped
get s
ĠCh op
Ġhel I
ĠU r
ĠBe cca
Ġpig headed
Ġimp act
Ġsn arled
ĠJust ice
uc es
Ġbur ly
Ġste ady
att ract
ĠOr der
Ġskin ned
Ġgen e
Ġred uce
ĠZ ack
Ġdel ay
Ġwin ners
ru ctor
Ġmor als
Ġpur cha
Ġfill s
Ġmass es
Ġmut ants
Ġfix ing
Ġsystem s
ĠKing dom
ĠFl int
Ġexam ined
Ġchop s
Ġchop ping
ott om
Ġsne e
Ġadm ir
Ġmal ar
Ġmerc hant
Ġilleg itimate
ograph ic
ĠJeff rey
Ġrough ly
ĠPal est
Ġturd s
ĠSpan i
Ġmat ches
Ġbi ological
Ġarri val
uz zy
ĠGold en
ĠMont ana
Ġconce al
ĠMur ray
Ġclut ching
Ġprose c
Ġsqueez ing
Ġmechan ic
Ġens la
Ġchap ter
Ġphilos ophy
Ġdismiss ed
ĠBudd ha
ĠCind y
ocr ats
Ġflee ing
ĠCad illac
ĠSud denly
Ġpyram id
Ġdebau chery
oub ted
Ġcess pool
ĠAbra ham
Ġridicul ed
Ġlepre cha
' -
A C
C l
J ack
P lease
b ig
b red
c ream
f i
g as
i had
m at
m itted
t u
z ers
Î ¿
Ġm ixture
nd a
Ġl apt
Ġp ens
Ġn om
Ġli ability
Ġst ere
Ġst ations
ĠT ie
ĠS od
ĠS aul
Ġre n
st ra
all as
ĠH IV
ĠM ered
ĠB ark
ĠB uff
ĠB ella
ĠB alls
Ġfr amed
ĠD ob
ĠD ub
Ġab usive
ct ions
ĠG host
Ġbl aming
ĠL an
ĠL ow
ĠN igel
Ġal ike
ĠF oley
Ġsp ar
ĠR aj
Ġdr one
ish ly
ĠK ur
Ġover come
Ġun in
Ġmon ks
ug ar
ub s
ump ed
ĠCh icken
Ġworld s
Ġmin imum
Ġid ioc
Ġcount ed
Ġdoor step
ipp le
Ġprom oted
Ġdel usions
Ġrock ets
Ġpu zzle
br ush
Ġterror ism
cl aimed
ĠPe ace
Ġdraw s
Ġer ased
Ġcrack pot
ĠCon n
Ġ15 0
ura ble
Ġsharp ly
Ġpan el
Ġban ished
Ġrain ing
Ġeff icient
ĠBurn s
Ġarr ives
Ġeffect s
Ġorig in
Ġjer sey
Ġsniff ed
ĠDen ver
Ġpul p
ĠWhe never
Ġgor illas
Ġholiday s
Ġster oids
Ġfrak king
Ġreek s
ĠFore man
Ġinher ited
ĠOt to
Ġdecor ated
Ġanx ious
Ġchoo ses
Ġejacul ated
ĠCommun ists
Ġindiffe rent
Ġprivile ge
Ġdeceit ful
Ġny mph
ĠGriff in
Ġhybr id
Ġaccur ate
Ġwes tern
ĠMoo re
ĠNapole on
Ġcarot id
2 5
4 0
E x
H ere
L e
M e
U GH
d s
g led
i ated
m n
m out
p in
r ade
u ations
y eah
he e
Ġa er
Ġs ings
re as
re al
Ġb ourgeois
Ġm ature
Ġm oth
Ġm aker
Ġd uke
ing u
Ġo ak
Ġg own
Ġp int
or ld
ot o
Ġbe ads
us er
Ġha st
Ġk angar
id able
Ġst able
Ġst roll
Ġmy st
ĠT ook
if ty
ĠS U
ĠW ong
Ġre view
st ained
ĠA g
ĠA ut
Ġse as
ur bs
un less
Ġde ment
Ġso cially
ĠM oses
ĠD im
Ġtr usting
ak i
ag in
ul ty
ĠN igga
ĠP ower
ĠR aw
Ġex it
qu er
Ġbr an
th rough
Ġun le
Ġun sc
Ġun lock
Ġqu ar
pl ain
Ġshow ers
ily n
ĠBe en
Ġhum our
Ġpus hes
Ġhot test
Ġimp ulse
Ġsn uck
Ġmis guided
ĠBr ooke
Ġcur b
Ġinc est
Ġdem ol
Ġbomb ed
Ġsqu ash
Ġwitch craft
ĠAn sw
Ġfell ows
Ġinv asion
ĠCl aren
Ġdet er
Ġsil ic
Ġstud ies
Ġviol ation
Ġcontin ent
Ġboyfriend s
ĠPer ry
Ġdiv ine
yl ons
Ġform idable
Ġund oubted
Ġtall er
Ġpink y
ĠSant os
Ġextermin ator
Ġmerc iful
ĠSch ool
ĠCor ps
Ġscar red
Ġcave s
ĠEr n
Ġtur f
ĠNegro es
Ġspin eless
ĠId a
Ġblowjob s
Ġconce ited
ĠHor se
Ġvirt ually
Ġsaus ages
Ġcheerlead ers
Ġcurt ains
ĠCare ful
Ġyank ed
Ġinterrog ation
Ġknuckle head
Ġchoo sing
Ġboun cing
Ġunbelie vable
Ġchimp an
Ġath let
Ġamput ate
Ġinfern al
ĠMean while
ĠAgn es
ĠFerr ari
Ġdebr is
ĠMered ith
3 8
S l
T S
a pped
b ies
c ould
c ers
f ter
g os
h it
Ġt apping
in ations
Ġw ink
Ġs ard
Ġs ung
Ġb atch
Ġb ung
Ġb apt
Ġd orm
Ġto ps
Ġto aster
Ġg hastly
ed a
ve mber
hat tan
ow l
us hes
Ġst oo
Ġdo ck
ĠT rent
ly ing
ĠW ha
ĠW ol
Ġre un
ĠA ch
Ġare as
ĠM ut
ĠB uster
ĠC ord
ĠG ust
ul ent
itt ens
red ictable
ĠO re
ge ons
ĠK er
ĠK as
Ġqu ack
Ġsw ind
Ġfl ashing
Ġsha de
Ġsle azy
ond a
Ġlong est
Ġdes ec
uff ed
Ġpat ted
Ġdec ay
Ġrec l
Ġrec o
Ġrec overed
Ġpar l
ipp y
ĠMar vin
ĠFor give
Ġcons ult
Ġimag ining
Ġind ic
Ġreturn s
Ġdeep est
Ġgang sta
Ġadv ised
Ġfart her
Ġchicken shit
Ġlock s
Ġband s
Ġlar gest
Ġpolit ically
Ġsun set
Ġtight ly
ĠRob inson
Ġant icip
ĠCha d
cha nd
Ġham ster
Ġcollect ed
Ġban anas
Ġimposs ibly
Ġtattoo s
Ġgall ery
kill ing
Ġdarn ed
God damn
ĠThom pson
ĠRome o
Ġaband on
Ġmas och
Ġloss es
ĠPri est
Ġwank ers
Ġhelicop ters
Ġexperien ces
ĠHarr ison
Ġaccess ory
Ġritual s
ĠUse less
Ġimper ial
pent er
Ġblaz ing
Ġtang led
Ġadop t
Ġprincip les
ĠRel ax
Ġrapp er
Ġrein force
Ġsurprising ly
Ġsympt oms
Ġfab ric
Ġsche me
Ġmetaph or
Ġapplic ation
Ġchal k
Ġrans om
Ġmicrow ave
ĠGide on
attract ive
! .
J ohn
b elly
c omm
c ules
d es
f ed
k icking
m om
m ad
m al
r ise
z ona
ä º
Ġ ."
Ġ iv
Ġs way
Ġthe r
Ġm es
on et
ha ra
Ġd ud
Ġd ense
Ġd umber
Ġf aked
Ġo ctopus
Ġp i
Ġn ast
us alem
et a
le e
Ġwe bs
Ġst orage
am o
ĠT aking
Ġwh iny
ra w
Ġj ugg
ĠA mb
ĠA mber
ĠM un
ĠM ale
ĠB it
ĠD arling
ĠC unt
ĠG ro
um ont
ast ian
ĠL ane
ĠJ unk
ĠP un
ĠF em
Ġint act
Ġsp iders
em pting
th ree
Ġmean while
ĠWh ose
Ġcr ank
Ġhat h
Ġfl ipped
Ġfa x
ĠV or
Ġins pir
Ġper ce
Ġunt ie
Ġcop ies
Ġad vers
Ġhard ened
Ġdrink er
Ġdoor way
uc ci
act ic
Ġsca ven
Ġpain ter
to gether
ĠAr n
imp ort
Ġprop osal
Ġsub stance
Ġsub urbs
Ġsuper vis
Ġstep father
Ġcertain ty
ĠKe v
Ġroll s
Ġgold fish
Ġquestion ing
zz led
Ġbank er
Ġbank ers
Ġrab ies
Ġbeha lf
Ġamaz ed
Ġvis iting
Ġdare s
ĠSer b
ĠAng ie
ĠCha p
Ġfle x
Ġvan ity
Ġpan icked
Ġ19 6
Ġrev ive
ann i
Ġcelebr ities
Ġbutcher s
Ġinvestig ate
Ġvol cano
och ond
iction ary
Ġtooth less
Ġhopeless ly
Ġbark ed
Ġsmugg ler
Ġecon omic
Ġproduct s
ĠSher lock
Ġopt im
ĠJosh ua
Ġcontroll ing
ĠHay ley
Ġgenital ia
Ġwrest ling
ĠChild ren
Ġautomatic ally
Ġrefuge es
Ġgeez er
ĠAustral ia
ĠPho enix
Ġtig ers
Ġgrandchild ren
Ġfratern ity
Ġinexper ienced
Ġmicroph one
Ġensla ved
G u
U n
a ways
b at
c ons
c rap
c ases
d em
j am
l on
l ittle
p ock
Ġt ame
Ġt ense
Ġt une
Ġt abl
on ce
Ġd ow
Ġd oo
Ġd aw
nd o
Ġf use
Ġc udd
Ġg na
Ġg au
Ġh iring
Ġha gg
Ġe un
Ġe ase
Ġr anks
ic orn
ĠS ide
ĠS orce
ĠW H
ĠW ind
ĠB ir
ĠB oot
ĠD allas
Ġab norm
ind a
ul ed
ĠN uts
ĠP R
ĠP orter
ĠF a
Ġpl un
Ġsp ared
ĠR ox
Ġbr utes
Ġcon j
Ġput z
Ġneed ing
Ġthr illed
Ġsl ipping
Ġblood bath
Ġsw at
Ġfl aming
sh ine
Ġsha p
ĠSo ld
ĠNo vember
ĠCh o
Ġsleep y
ere lla
Ġfre ll
gg in
Ġob edient
Ġinst ructor
ĠDe bbie
ĠBr ick
Ġcur ses
Ġpain fully
Ġap ron
Ġpar iah
ats on
Ġpathetic ally
ĠZ ion
Ġair craft
Ġsy ring
ĠMan hattan
Ġreg ion
Ġfoot age
af fe
Ġind ec
ship s
Ġbra g
Ġdist ress
Ġexp elled
br idge
Ġmillion aire
cl ub
Ġpur p
Ġprof its
Ġteam s
ĠSha ke
Ġur inate
Ġev ap
Ġcrack s
ĠTr ue
ĠEx actly
Ġdanc ers
Ġshop s
Ġimm ense
Ġlab el
Ġhyp ochond
off s
Ġcripp les
Ġcomplain t
ĠLou ise
Ġbill ions
Ġrain bow
Ġaut om
Ġcontact s
Ġiron ic
Ġfright en
Ġpred ict
ĠBea ver
ĠMel anie
Ġsubject s
Ġwa ved
ij ah
ĠJer usalem
Ġunb orn
ĠEr nie
Ġarse hole
Ġje opard
ĠBur ke
ĠSup erman
Ġecon om
ĠRod ney
Ġbrief case
Ġcy cle
Ġerect ions
ĠCub a
Ġawait s
ĠCass ie
Ġpanc reas
Ġnarciss istic
Ġhoodl um
ĠCind erella
ĠHorn blower
ĠRub y
ĠOlymp ics
Ġpron ounce
Ġyog a
ĠSum mer
ĠSlo an
Ġrapid ly
Ġpic nic
Ġharp oon
Ġbim bo
Ġvig il
Ġunrel iable
ĠWr ong
ĠCurt is
Ġdub ious
Ġabomin able
Ġnecr om
Ġdisse ct
Ġsubmar ine
Ġrehe ars
G ood
J esus
Q u
T ube
a xt
h h
m akers
n amese
p ity
r ust
t oo
t ry
Ã ¨
Ġt ab
Ġs ordid
on nect
Ġf rench
ing ers
er ie
er ous
Ġo gre
Ġl ard
Ġh ull
out ing
Ġr ushed
ic ial
ĠT s
ĠT as
ĠT est
Ġwh ipping
ra v
ĠS ic
ĠW itches
Ġ" -
Ġj ag
ĠA S
ĠA T
ur f
Ġde ception
ent ed
ĠB ot
ĠC old
ĠC ops
ĠG on
ĠG imme
ers erk
and ra
ĠN ag
ĠHe ather
Ġle apt
ĠP in
ĠP ur
ĠP ush
ĠF oster
ol ph
ri ers
Ġsp here
Ġar son
ĠE va
Ġass uming
Ġbet ting
Ġsl ing
Ġsl ower
Ġen v
Ġrid er
sh ire
ĠSt alin
Ġwr ing
Ġsick est
ĠV ul
Ġscrew driver
ĠDon key
Ġatt empting
Ġbab ble
Ġfre ck
Ġsur g
Ġbo iled
Ġdec ade
Ġ2 6
Ġ2 7
Ġsn ore
ĠDe b
Ġbur gers
Ġsecond ly
ade qu
Ġrep ro
ork y
ĠAl ison
Ġpar ach
ipp ers
ĠMar ilyn
Ġgen es
Ġinter ven
Ġclose ly
Ġpolice men
Ġweak er
fuck ed
arl et
gr im
ĠSc ar
ĠDr ive
Ġsuff ers
bl own
Ġdep orted
Ġsad ness
Ġmed als
ield ing
ĠRe v
Ġdi ving
ĠSam antha
Ġmer chand
Ġdisc har
Ġhonest y
Ġhyp ot
de fense
Ġrac ing
Ġrac coon
Ġblond es
Ġtick le
Ġcomplain ts
Ġvan ished
ĠGl en
Ġweekend s
Ġmoron ic
Ġsatisf ying
Ġpred ators
Ġunf it
ĠJud y
Ġep ic
Ġhob by
Ġgeek s
Ġdeterm ine
Ġtreacher y
Ġdent al
sell us
Ġintest ine
Ġarg uments
Ġinstr uments
ĠAri zona
Ġdod gy
Ġschizophren ia
Ġbless ing
Ġpra ise
Ġawait ing
Ġsucceed ed
parent s
ĠClint on
ĠLog an
Ġfare well
ĠKling on
Ġabhor rent
Ġresur rect
ĠCale b
ĠHarb or
ĠPalest in
ĠClaren ce
Ġeun uch
L ES
c ient
d ia
j e
r ice
t op
w all
Ġt uc
Ġw its
Ġs ip
Ġm aim
Ġd uct
Ġd well
Ġd oofus
it ness
ĠI ng
Ġf ract
Ġf leas
Ġf iction
Ġl ouse
Ġp im
Ġp ans
Ġin adequ
at y
Ġk in
ut ies
id get
Ġst ark
Ġsh ifts
ĠT on
ir y
if ies
ĠW atson
Ġout right
Ġup tight
ĠB ry
il er
ĠD ea
ĠD uring
ĠC ou
ĠC ort
Ġtr ay
ĠL uis
ĠL annister
ĠJ os
Ġany how
Ġcra ving
ĠP iper
ĠF ab
ĠF let
fe it
ĠR ambo
Ġsc oop
Ġdead beat
oy s
Ġpro s
iss ippi
Ġco arse
Ġun holy
Ġqu ant
Ġcr anky
Ġhat chet
Ġfl our
Ġrid es
ĠSt orm
Ġunder t
Ġreal m
Ġac ademy
Ġhouse wife
og y
ĠU k
oc o
Ġmar ries
Ġmar ching
Ġsn orted
Ġrec ipe
Ġbur rit
Ġschool girl
Ġmiss es
Ġent ering
ĠMar co
Ġmet ers
Ġele ments
Ġcry baby
Ġmus ical
Ġprop ose
Ġdep ri
ĠHar riet
Ġtrain s
Ġexp and
rap nel
Ġstrong ly
Ġpop corn
Ġsal vation
Ġpot entially
ĠLord s
Ġmotherfuck in
ĠBen n
ask a
ĠMon ster
Ġworm hole
Ġavoid ed
Ġpan sy
Ġpill ows
Ġest ablish
Ġvisit ors
Ġdemand ing
Ġpa used
Ġrevol ting
Ġpers ons
some one
!! !
Ġmult ip
Ġoccasion al
Ġbul b
ĠJan et
Ġbrand y
Ġhaul ing
Ġcabin et
Ġblink ed
Ġoffend ers
ĠPort land
Ġplot ting
Ġtempt ation
Ġrhy mes
ĠFil thy
Ġmethod s
hor se
Ġbreed ing
ĠSecret ary
Ġbureaucr ats
Ġgap ing
orr hea
ĠHarl an
ĠMong ol
ĠProt est
Ġinteg rity
ĠDire ctor
Ġdisgu ised
Ġbund le
ĠDesp ite
Ġleprecha un
Ġundoubted ly
' !
D ammit
K E
c ard
d ollar
p at
r d
u ki
ä »
in ent
in ction
Ġw arts
Ġb ared
Ġd at
Ġd ro
Ġd ictionary
Ġl nd
or f
ar at
Ġha n
Ġe got
Ġst ains
Ġsh rapnel
ĠT ang
ĠS ent
ĠS em
ĠW illy
ch ie
ĠA B
ĠA ge
ĠH op
ĠM ach
il ted
ĠC hen
ĠN ine
ĠJ un
Ġcra bs
os ure
ĠP ed
ĠF ish
ĠF amily
Ġpl umber
Ġsp ikes
ap s
ĠE mm
Ġbr ow
Ġfe minist
Ġch ute
Ġpo isons
Ġun load
Ġun attractive
au ld
Ġcut throat
Ġmon itor
ach t
ub ber
ne cks
Ġsk ins
Ġrun ner
Ġser ves
ib s
Ġhot els
Ġimp erson
Ġimp ulsive
Ġcomp elled
ĠMar sellus
Ġguess ed
Ġsqu irt
Ġcons umed
ric ane
Ġreg iment
empt ion
ugg age
Ġfart ing
rit us
Ġtap ed
Ġrab bi
ĠMiss issippi
Ġvis ible
Ġshr unk
str ong
ĠCra w
Ġsne ered
ĠPat hetic
ĠBet ween
Ġwitness ed
ĠAfric ans
Ġ19 9
Ġrepe ating
Ġlung ed
Ġcelebr ation
Ġpump ing
Ġhol ster
ĠBab e
ĠFat ty
ĠRog ers
Ġpier ce
ĠScott ish
Ġdoc uments
Ġactiv ities
lyn n
IS T
ĠViet namese
Ġobsc en
Ġroast ed
Ġinvent ion
acul ate
ĠShar on
ĠÂ ¶
Ġdough nut
Ġspect acle
ĠDE A
ĠEgypt ian
Ġens ure
Ġdemonstr ation
Ġadop ted
ĠEaster n
Ġcert ific
Ġsunk en
Ġze al
Ġfulf ill
ĠWy att
ĠSyd ney
Ġwast eland
Ġcrick et
ĠHap lo
Ġscenar io
Ġflir ting
Ġdefin ition
Ġmathem atic
Ġvas ectomy
Ġunbear able
Ġunle ash
ĠAnsw er
Ġpurp oses
E C
M ar
W ith
b ly
f inger
h oo
l ash
l ete
l ins
p res
r ound
u y
æ Ī
Ġt ut
Ġa ven
Ġs ession
Ġb isexual
it c
it oes
Ġf its
Ġg el
Ġl in
Ġl uggage
Ġh ilt
or ation
Ġth irsty
id i
ay ers
Ġr oy
ver ick
ĠA st
ur u
ĠH oo
op er
ĠM oss
ĠB uffy
il ia
ĠD irt
ĠC hat
ĠC atherine
ĠG ob
Ġbl iss
Ġbl anks
Ġsu ited
ĠN AS
ĠJ ude
el p
el er
Ġsc orp
ĠE ug
Ġbr un
ish ment
Ġsm other
Ġun he
Ġsl ash
Ġcr am
ac us
Ġdis fig
Ġsw an
Ġfl ank
Ġfl ipping
Ġkilling s
Ġfire works
Ġunt o
Ġfun gus
ek er
Ġpig let
Ġhot shot
Ġsn oring
iv alent
Ġrel ent
Ġret ards
Ġ3 6
ĠDr uss
Ġz ipper
The se
Ġclown ing
Ġann ivers
Ġshort ly
ĠHer o
ien cy
Ġfear ful
Ġvill ages
ĠSha kes
ĠEl ias
ĠCar ib
Ġfra il
ov an
Ġcri b
Ġsens ation
Ġforgive n
Ġwarm th
Th ose
iat ric
ĠBea umont
Ġbump ed
Ġscra ps
Ġdiscuss ing
Ġdiscuss ion
Ġgrad uation
Ġunp redictable
Ġemer ged
ĠFre men
Ġunre al
Ġlimp ing
ĠBastard s
ĠJon athan
Ġexecut ions
Ġpenet ration
Ġpenet rated
Ġfrequ ency
Ġgam ble
Ġconscious ness
Ġphotograph s
Ġdrool ing
Ġrebell ion
Ġgland s
Ġouts ider
Ġsoph isticated
Ġhool igans
Ġworsh ipped
Ġthorough ly
Ġcoy ote
Ġerad icate
Ġunl ucky
Ġfundament al
Ġumb rell
Ġsledge hammer
Ġincon ven
Ġstruct ure
ĠHerm ione
Ġscape goat
ĠPow ell
Ġlapt op
mout hed
B r
E very
I ON
W ill
b ler
c us
i be
m ay
n in
ou ched
Ġs ixt
re ction
re gn
Ġb ac
Ġb arr
Ġd ash
is p
Ġh ij
or us
ve e
et he
ut ton
Ġr ud
Ġr ushing
ĠS art
ĠW ipe
ĠW ald
ĠY uri
ch in
ĠA very
ĠYou Tube
ce nded
ĠH od
op ran
Ġso dding
ĠM am
ĠM ons
ĠB ox
ĠB unny
Ġwhe at
ĠC ri
ĠC ried
ĠC ause
ĠG oo
ĠG ypsy
Ġbl imey
Ġthem e
Ġman sion
ul pt
ist ical
ĠN aked
ĠJ oker
Ġsp an
Ġ' .
Ġsc rib
Ġbr ides
Ġhead quarters
Ġtell in
res ist
Ġag ed
Ġcl uster
em p
Ġput rid
che ss
Ġsl ope
Ġcr ust
Ġcr ass
Ġcr ashing
ang le
Ġdis rupt
sh ow
Ġte asing
ĠDon nie
Ġatt raction
Ġfire fight
Ġpret entious
Ġtra ctor
Ġnew ly
Ġhum ane
Ġbus es
Ġhot head
Ġpat sy
ĠAll ison
ĠFr ig
Ġcur ly
ex cept
me at
Ġpsych ology
Ġcons ume
Ġ3 8
ĠAs ked
Ġground ed
Ġweak ling
Ġsy rup
Ġhon ored
Ġpri or
Ġpri ority
min ation
ĠNew s
Ġcre pt
cl oth
ĠFrank ly
ĠDick ie
Ġlow ly
ues ome
Ġque ens
Ġcool er
Ġdam nable
ĠEl ijah
Ġsmok er
Ġpos h
Ġpos ing
Ġunc ertain
ĠTw enty
Ġbeha ved
ĠRob bie
Ġfur iously
Ġhur led
Ġant ib
cri pt
ĠWor th
Ġlangu ages
Ġview s
Ġmaid en
ĠBab ylon
Ġprogram s
Ġprogram med
Ġnote book
Ġmic hal
Ġbitter ly
ĠGree ce
Ġtend encies
Ġdism antle
ĠEs k
Ġhesit ated
ĠRock y
Ġsmugg lers
Bl oody
ĠMir anda
Ġster ile
Ġej ac
ĠIraq i
Ġwat ers
ĠTan ner
skin ned
Ġdoub ted
ĠEst her
Ġnag ging
Ġx axt
Ã± or
Ġtoug her
Ġenthusi asm
Ġannihil ate
Ġranc her
ĠPho ebe
Ġsucc umb
De ath
ĠEle anor
Ġnarr ator
Ġaller gic
Ġhemorrha ge
Ġber ries
Ġimbec ile
ĠKle in
Ġhed ge
Ġcate g
Ġpref ers
ĠSeb astian
Ġsyring e
Ġtuc ny
E M
H ave
I P
b es
b elie
e in
e ur
j an
s u
w atch
z ee
Ġ ou
Ġa le
in um
Ġw arden
Ġs ag
Ġm aul
Ġd ipped
Ġf aded
Ġc el
Ġc ue
Ġp ag
Ġp hantom
or ty
en ie
id y
ill o
Ġst adium
al ion
ir ling
ĠS ookie
ĠW ra
Ġcan al
ĠD illon
Ġab road
Ġat roc
ess er
ĠL ud
ĠJ ab
ĠJ onas
ĠF oll
ĠF asc
Ġpl ucked
Ġsee ming
Ġar n
Ġsc out
ĠE ar
Ġbr on
Ġbr icks
up er
Ġch um
iss ies
Ġpo ems
Ġco vers
Ġthr ill
Ġgr udge
Ġgr uesome
Ġfl op
Ġro aring
ĠOh io
ĠSh ort
Ġgun men
Ġdog gy
Ġdest ructive
Ġsk ate
pe are
xt on
Ġmin ions
Ġres ervation
Ġrest ing
Ġapp les
ey s
Ġpick le
Ġhus sy
Ġprom isc
Ġsmall est
Ġrot ted
Ġtea ches
Ġconf isc
Ġinv iting
Ġless er
olog ne
olog ists
Ġgrand parents
Ġprot rud
ĠDr ama
Ġcol oss
ĠChar ming
Ġstep mother
Ġstomach s
Ġhosp itals
Ġtraitor ous
Ġlay ers
Ġcourt room
Ġeight h
ĠChe w
off rey
Ġpray ers
Ġ19 8
Ġswallow ing
Ġrestaur ants
Ġinvestig ating
oster one
ĠMat ty
Ġrese mbled
ĠMcC oy
Ġaud ition
ĠSal v
Ġhug ged
Ġresc ued
Ġtooth p
Ġbul ging
Ġpor ridge
Ġhesit ation
Ġpurs ue
ĠHard y
Ġdetect or
Ġclut ched
Ġapproach ing
Ġmosqu itoes
Ġath lete
ĠNa omi
Ġhust ler
ĠDomin ic
Ġhub ris
ĠRey n
ĠDiv ision
ĠPrep are
Ġacknow ledge
Ġstag gered
ĠMaur ice
ĠDece mber
ĠVern on
ĠSere na
Ġkangar oo
Ġbran ches
import ant
Ġdaw g
Ġmerchand ise
ĠCarib bean
A t
A ny
D ad
E G
L U
O K
O f
m ist
p ie
p ig
r ank
v ah
Ã ¤
ou g
Ġw ired
Ġc ater
Ġc ada
Ġp ac
Ġn am
Ġbe in
Ġk ittens
id els
im et
Ġwe ighed
Ġr h
Ġr opes
ic it
ĠT had
ĠS ull
ĠA ye
Ġse lect
ĠH ide
ĠH umph
op ol
ĠM andy
ĠB ates
ĠB ald
ĠD ig
ĠD od
ĠD ool
ĠC ook
ĠC ursed
Ġshe lf
Ġbl og
Ġman gy
Ġtr op
Ġsa ves
est yle
ĠN am
ĠO sw
ĠP it
ĠP owers
ĠF oul
ĠR oo
Ġsc or
Ġsc ulpt
Ġdr ifter
ud ent
ĠK end
ĠWe ird
ob e
Ġun icorn
au er
Ġsw am
Ġsw ell
Ġke nder
Ġmu zzle
Ġte quila
ĠDon ny
Ġcont ents
ĠFr ances
ĠBr ut
Ġfore skin
Ġdef ence
Ġreg ain
Ġknock s
ru ly
Ġtest ed
Ġtest osterone
Ġsil ently
Ġboo st
Ġboo by
Ġsal on
Ġjack ed
Ġfav ors
ĠSha me
Ġdisc onnect
ĠNe v
ows ki
Ġsun light
Ġjok ers
Ġremind ing
Ġbat he
Ġmale v
Ġund o
Ġmount ed
ĠHen ri
Ġpir acy
gl as
ĠIrish man
ĠPig let
Ġmerc hants
ĠJeff erson
Ġcos mic
ĠTe resa
Ġbump s
ĠRos en
Ġtend ency
Ġtun nels
Ġdeton ator
Ġflo ors
ĠWin ter
Ġsock ets
Ġwank ing
Ġchem icals
Ġremark able
ĠLind say
rob bing
ĠOb ama
Ġclut ches
Ch rist
Ġpanc akes
ĠFair y
Ġvolunte ered
Ġbud get
ĠGib son
ĠGib bs
ĠFra k
Ġprincip al
ocr atic
Ġbatt les
Ġstim ulation
ĠTot ally
Ġelectroc uted
ĠThing s
Ġslee ve
Sc rew
Ġtrink ets
Ke ep
indul gent
Ġpneum onia
Ġidioc y
Ġannivers ary
ĠOsw ald
4 5
A LL
S orry
W ould
b age
c les
f o
f illed
h ouses
k ar
l ies
s hall
u en
Ġa qu
Ġw age
Ġs vin
Ġb ic
Ġf akes
Ġf anc
Ġc ork
Ġc uss
Ġc ologne
er oy
is ms
Ġl ined
Ġp hall
Ġh ugging
ve z
Ġn oodles
Ġth ong
ut ions
id dle
Ġr im
Ġr ay
ĠS iber
ĠW ing
ie val
Ġgo als
ĠH ades
ĠH unter
Ġbut thole
ent h
ĠB um
ĠD C
Ġab ilities
ĠC ode
ĠG ee
Ġtr anny
pp e
Ġthink in
est eem
ĠL is
ĠL azar
ĠN ixon
ĠF R
ĠF all
ĠF oot
ous ing
ven ir
Ġv ot
Ġback ing
qu in
ap o
Ġbr ink
Ġdown right
Ġass ess
Ġcl am
Ġsm eared
Ġtw it
Ġpro ver
ĠK ry
ĠK enn
Ġpr in
Ġpr ude
Ġhand y
Ġhand ling
Ġco ins
Ġover he
Ġblood sucker
ĠTh under
ĠBut ters
Ġgr ingo
ĠShe lly
Ġke en
Ġcar ing
Ġcar ries
Ġfl oo
Ġfl atter
ress er
Ġsick o
Ġhel m
Ġpart ying
Ġins at
Ġplay ground
Ġend anger
Ġshow ered
Ġac adem
int ed
Ġgra pe
ont roll
Ġlisten s
Ġleg acy
az a
Ġrest ore
Ġpol ar
Ġimp regn
Ġacc using
omb ie
av age
ĠDe eks
ĠBr iggs
Ġsupposed ly
air y
Ġgen et
Ġcons olation
ah n
Ġinf idels
Ġtown s
Ġdiffe rences
Ġbleed s
Ġdep th
ĠFrank lin
ĠPr ice
Ġtre m
Ġarrest ing
Ġexper ts
Ġtrans formed
Ġpop ping
eal ing
Ġalong side
und ant
Ġunc ontroll
eter ia
boy s
ĠPer fect
Ġtow ers
Ġcamp s
wh ore
Ġlim its
Ġmir rors
Ġrac ists
Ġcollect or
Ġvan qu
ĠLou ie
Ġassassin ated
Ġaut o
Ġforeign er
ĠPal m
Ġsink ing
ĠCall a
Ġwand ered
Ġlif ting
Ġdece ased
ĠBro ad
Ġflash y
Ġfet us
Ġgrad ually
ĠApp le
Ġimpl ant
Ġimpl ants
Ġreward ed
ĠGreg ory
Ġhypocrit es
ĠHot el
Ġbik ers
Ġperform ing
ĠIsrael i
Ġencou raged
Ġpad dle
Ġdipl omatic
Ġrefer red
Ġrefer ring
ĠCyr il
Ġnarciss ist
Ġrapp ers
Ġod or
Ne ill
ĠPil ot
Ġwrit ers
Ġsurround ing
Ġinsp ired
Ġbabysit ter
ĠMorg aine
Ġtempor ary
ĠFriend s
ĠDew ey
ĠPier re
ĠVill age
Ġantid ote
deprec ating
? ?
A Y
B ull
D r
N ever
d ear
g i
g rand
h on
k ov
r il
u zz
Ġ ....
ou che
Ġb ou
Ġb red
Ġm ums
ha i
ha mm
ĠI sh
Ġf ade
is ation
Ġg ad
an che
Ġh ut
or th
or ian
ar ation
ar ians
Ġit chy
Ġon ion
Ġst itches
Ġsh oving
Ġr ang
ĠT ig
ĠT ouch
ĠS W
ĠS ign
ĠS ever
ĠS omeday
ĠW ord
ch io
st eps
Ġj ugs
ust omed
ĠH off
ĠM ol
Ġcan ce
ĠG as
ig on
Ġbl ues
Ġtr ian
od ies
Ġsa b
Ġsu ite
ab ama
ĠL S
ĠL ay
ĠJ ump
ĠO per
ĠF OR
ĠF ae
Ġpe nd
Ġsp ades
ĠR ape
ĠR uf
Ġex ped
Ġcom ments
Ġsc outs
ĠK i
ĠK ane
Ġun ner
Ġun help
Ġwoman izer
Ġcar ved
Ġro ar
Ġro aches
Ġter minate
Ġsk ating
og ging
Ġspe eches
icul ar
ere l
Ġfre lling
Ġad s
Ġrest ed
Ġdec omp
Ġimp oster
Ġsn out
av ier
Ġkiss er
Ġinst all
Ġdra ft
ĠBr idge
end ing
old em
Ġfree ly
Ġinter pret
arth y
Ġeye ball
Ġ3 1
Ġweak est
Ġdump s
ĠUn like
rent ice
ĠNew ton
ĠSp ir
Ġinsane ly
Ġstrong est
Ġbox er
Ġpast or
Ġclass mates
lo v
oint ed
Ġmusic ians
Ġsol ved
Ġoper ating
Ġhur ried
ĠAd ams
Ġrac ism
Ġload ing
Ġcommit ment
Ġprofession als
Ġfaggot s
Ġconnect ions
ĠEn ter
Ġmal ign
ĠGl ad
Ġpure ly
ĠWar ri
ĠDou glas
Ġslay er
ĠTur key
ĠEll is
ĠDra ke
ĠSus annah
Ġdeliver ing
Ġlump y
Ġmail box
Ġugl iness
ĠRobert s
Ġtent h
Ġscra pe
Ġsavage ly
Ġstrugg led
ĠFe el
mar ried
Ġliber ty
Ġintend s
ĠJen kins
mark ed
ĠDar cy
Ġgren ades
Ġpurs ued
Ġsymp ath
Ġharsh ly
Ġess entially
ĠSn ake
Ġdistur bing
Ġamate urs
col ored
Ġdough nuts
ĠClay ton
Ġtransfer red
Ġgon orrhea
Ġsched uled
Ġremote ly
Ġpha se
ĠGovern ment
Ġfer oc
ĠJoy ce
Ġov aries
Ġinciner ated
Ġsor ority
Ġsympt om
ĠPear l
Ġfemin ine
Ġdisco very
ĠProm ise
Ġspaces hip
ĠLesb ian
ĠChel sea
ĠShel by
Ġscramb led
ĠOre gon
ĠBenn ett
Ġejac ulation
A h
C E
P ut
b irth
f ound
f are
f ront
h orn
i ary
o vers
ç ļ
Ġ ll
Ġb aw
Ġm am
Ġm ating
Ġm aj
on ers
Ġc ement
Ġl ac
Ġhe m
Ġp oodle
Ġn icked
ot omy
as ia
ar o
at ical
le nd
Ġst agger
Ġu gh
ĠT ro
Ġwh iff
ĠS ept
ĠS ugar
ĠY e
st age
ĠA be
Ġse min
Ġas pect
Ġkn elt
ĠH az
ĠH aley
ĠM os
ĠB in
ĠB ent
ĠB il
ĠB ag
ĠB ane
ĠB ones
ĠD ent
ĠD ist
ĠD iam
ĠC ain
ĠC rist
ĠC uddy
ĠG h
ĠG arbage
ĠG ates
Ġshe ath
Ġbl urt
Ġtr im
Ġsa ints
ab lo
ab bing
ist a
itt ered
ĠO d
ĠHe art
os a
ĠP ole
ol ous
ri ages
ard i
Ġpe ac
Ġsp icy
Ġv owed
Ġcom et
are k
Ġcl ich
Ġcl ogged
Ġqu art
Ġqu arant
Ġen force
Ġen lar
Ġgr oped
ild ing
Ġsha mbles
ĠSt ars
Ġim itation
Ġlast ed
Ġsle aze
Ġper mit
pe ak
Ġmin ority
Ġhang over
Ġ. '
Ġpick pock
Ġinc or
ient s
Ġdark er
Ġdisgusting ly
Ġpass ive
Ġcock suckers
Ġ3 3
ĠAr rest
Ġcat al
Ġstri king
Ġpres erve
ik i
ĠSp ock
mp oo
Ġ4 2
Ġhom ophob
Ġsort ed
ĠPr otect
Ġtre ad
Ġopp osed
Ġquestion able
Ġjack ing
Ġlay er
Ġcrack head
ĠSte vie
Ġimm unity
Ġimm aculate
ĠCol on
Ġexam ination
de ath
Ġmod est
Ġdig est
Ġguard ian
ĠRay lan
ĠJo han
Ġdefend ed
Ġdefend ant
Ġdisappear s
ĠRon ald
Ġreb u
back s
ĠFred erick
Ġappro ved
Ġappro val
Ġneg lected
Ġcomb ined
Ġmob ster
sm ith
Ġirrit ated
Ġlif estyle
ĠNat alie
Ġgri pped
ĠVir gil
Ġelep hants
Ġrelax ed
Ġroot s
ĠFour th
Ġrare ly
Ġsweep ing
ĠOff ice
Ġta pped
Ġsou venir
Ġspite ful
Ġerect ile
Ġglob e
pro f
ĠCur se
Ġric her
Ġvib rator
IG H
Ġqual ities
ĠEv ans
Ġinciner ator
Ġneutral ize
Ġfest ival
Ġcaf eteria
ĠAle c
Ġsup rem
ĠJama ican
Ġtwitch ing
Ġul cer
Ġvideot ape
Ġcrocod ile
ĠHarkonn en
ĠGem ma
Ġlecher ous
ĠEin stein
Ġchau ffe
Ġlinger ie
Ġmanif est
Ġsupervis or
ĠShakes peare
Ġunhelp ful
çļ Ħ
P D
a eda
j in
j as
k illed
l ain
l ines
m ake
n ia
p ipe
s an
s man
v on
w est
Ġs ittin
Ġb isc
Ġm attered
Ġf itting
Ġc uddle
er ation
Ġg it
Ġl ent
Ġl od
Ġn oodle
oo h
ĠT all
ĠT un
ra cks
Ġan at
ĠS ep
ĠS au
ĠS ully
ant h
Ġ" "
ĠA ce
Ġde ed
ight s
ĠM ig
ĠM ud
Ġcan vas
ĠB ri
ĠD ag
ĠD ummy
ell i
ĠC ool
ĠC ylon
ĠC ylons
use less
ess ions
ab y
ĠL on
ĠL ive
ĠN er
ĠJ ar
ĠJ ung
el ope
ĠO ak
ĠO llie
ĠHe h
Ġcra pper
Ġle ver
Ġal together
ĠP ors
ĠP amela
ven ant
Ġsp ice
ĠR as
ĠR aven
Ġsc old
Ġcon vert
Ġcl ap
ĠK ath
ĠK ai
Ġshoot ers
ort on
Ġsl ams
Ġthought ful
ĠSh ir
Ġins uff
Ġel bows
Ġhome made
oc ial
Ġmar ijuana
ix ie
ert on
Ġacc ustomed
ok o
ĠBl aine
Ġmis fort
ĠBr ig
att i
Ġcons p
uth ority
Ġposs um
ĠSc oo
Ġdef ensive
Ġz ip
Ġbas hed
Ġgrow th
Ġnut ters
ĠWith in
Ġexp osing
ĠRe ed
ĠRe ese
ĠPr ick
lo ving
ession al
ĠTr inity
Ġcourt esy
Ġtight s
Ġdev oted
Ġfail ing
Ġshr ugged
Ġfur na
Ġheal ing
ĠGre ndel
ĠCol t
Ġcast rated
ĠMe at
tern al
Ġapolog ies
ĠSw itzer
Don ald
ĠChristian ity
Ġcustom s
Ġheat hen
ĠWor se
Ġpoo ch
Ġtrad itions
Ġcash ier
Ġnin ety
sl ave
Ġep ile
ĠChan nel
Ġbutter fly
Ġport ray
Ġsettle ment
Ġi P
ĠDen ise
Ãī Ãī
Ġske let
ĠHaw kins
Ġbrief ly
ĠGreg or
ĠKore ans
Ġanal ysis
Ġess ential
Ġtom atoes
Ġalb ino
Ġdelight ed
Ġrevolution ary
Ġencou ra
lev ard
Ġintim idate
Ġdevast ating
ĠTalk ing
Ġbunk er
ĠHook er
Ġdoub ts
Ġcarn iv
Ġheret ics
Ġbru ised
Ġmilit ia
Ġretire ment
Ġrebell ious
Ġtal ents
Ã³ n
ĠKel so
ĠSupp ose
ĠCommission er
Ġoverd ose
Ġadvert ising
Ġsabot age
Ġtran qu
Ġcarr ots
Ġunsc rup
Ġsilic one
ĠKenn eth
ĠDiam ond
Ġmisfort une
ĠSwitzer land
) :
2 2
4 00
A G
C la
M ur
S H
Y L
c ow
d oo
d ling
g row
k h
r ieve
s ery
v ag
w r
Ġ å
Ġs issies
re hens
Ġm int
ll o
ĠI V
Ġf umes
Ġf unky
Ġc oot
Ġc yan
is ive
Ġo ars
Ġl ub
Ġp se
Ġp iles
Ġin qu
ar an
at ar
at isf
us c
Ġk ara
im an
Ġsh o
ith ing
al thy
ĠT urt
ra pe
Ġan ore
ĠS unny
ould er
st art
Ġj izz
ur ious
op ha
Ġso ak
Ġso lem
ĠM is
ĠM erry
ĠB ul
il and
ĠD ana
ĠD ahl
Ġat he
ĠG in
ĠG inger
ig gered
ind eer
Ġtr ips
ul ant
and ert
ĠL f
ĠL t
ĠL amb
ĠL acey
ĠO din
Ġle ash
Ġpl ag
fe ld
Ġint ol
Ġv oy
ate ur
Ġsc ooter
ĠE sc
ĠE lect
ĠE ye
ble ep
Ġsm ite
Ġch ronic
Ġch unky
ĠK in
Ġpr anks
Ġco ff
be ck
ĠWh ore
Ġcr op
ons ider
Ġro ach
Ġsha gged
Ġsha mpoo
get ic
Ġgun ner
ĠV ent
Ġhar ness
ĠU ta
ĠBe hind
ek y
Ġcont ains
Ġpre ven
Ġres erved
Ġmar ble
Ġmar vel
Ġgl imp
Ġpol ished
Ġsit uations
Ġcour ts
ens ions
ĠAl abama
Ġsince re
ĠMar x
Ġluck ily
Ġconf lict
Ġship ment
Ġjunk yard
ĠSc r
Ġfoot y
ĠHar lem
Ġmed ieval
Ġsub mit
Ġblind fold
Ġart icles
Ġsuper market
Ġtast eless
Ġtrans parent
Ġcook s
Ġsurv iving
Ġclos es
Ġsna pping
Ġsuit able
Ġshr ine
ĠBy e
ask et
Ġpract iced
Ġcirc ling
Ġcirc uit
ĠCha nd
Ġtele gram
ĠJo el
Ġsin ister
Ġver ge
Ġnat ives
Ġconsider able
Ġnur sery
ĠGot ta
Ġped est
sm art
ĠMurd ered
ĠJer ome
ĠTim my
ĠSpe ak
ĠHigh ness
ĠHam mer
Ġbul k
Ġrepresent ative
Ġtit le
Ġcrit ical
ĠHaw k
Ġaccompl ished
ĠRoy ce
Ġess ence
ĠSand ra
Ġexecut ing
Ġfug itives
Ġtact ics
Ġexte nd
ĠAustral ian
Ġbru ises
Ġoverwhel med
Ġspawn ed
Ġyog urt
Ġprem ature
Ġsill iness
ĠExec ution
does n
Ġvague ly
Ġlou der
Ġine ffect
Ġchim ney
somet hing
Ġlaz iness
Ġlumber jack
Ġanch or
Ġhitch h
ĠBou levard
ĠArmen ian
Ġtournam ent
Ġreinforce ments
Ġcertific ate
ĠSull ivan
Ġinsat iable
rehens ible
Ġsolem n
Ġglimp se
? âĢĻ
O V
P er
b ound
b omb
e qu
e ater
i ate
k ets
l oser
m ers
p oo
s itting
s ky
w ig
w omen
Ã ½
Ġ 000
Ġw art
Ġw rench
Ġs idel
re ides
ha ke
ha ri
Ġd izzy
ĠI vy
Ġf oster
Ġf auc
Ġto dd
Ġg ul
Ġg az
Ġl ace
Ġp hen
Ġp aces
at on
le il
Ġe ater
Ġwe eds
Ġli ken
Ġst unted
al ian
al ia
ĠS ak
ĠS asha
ĠY a
Ġout d
ĠH ilton
ĠM oody
Ġfr iv
ĠD arry
ĠG y
na c
Ġman ly
ĠL up
ĠL ars
ĠN ol
ĠJ ared
ĠO m
ĠF en
ĠF ig
Ġpe a
Ġpe ek
Ġsp az
ĠR ead
Ġv ow
Ġsc ur
ea cher
Ġpr ow
Ġpo sters
Ġover sized
Ġun natural
Ġsl ips
ĠWh is
Ġcar rot
Ġfl ung
Ġmu ffin
Ġwr ithing
Ġbull ying
Ġbull do
Ġgun fight
Ġrat tle
ĠU sed
aw a
ial s
Ġbitch in
Ġleg itimate
arb one
ete er
ĠBr ooks
Ġfil ed
Ġmove ments
Ġstink in
Ġfour teen
Ġread er
Ġconf ounded
Ġgrand daughter
Ġair lock
Ġdel ir
Ġz eros
ik ed
bl ers
itor is
Ġbra zen
Ġoffic es
Ġprotect ive
oop y
Ġviol ate
Ġviol ently
ĠAt reides
Ġtre mble
Ġcap e
Ġcap acity
ĠTr uth
ĠSm urf
omm od
ĠNor ris
Ġgrave yard
ĠAd rian
Ġpin head
ĠCha mber
Ġnor thern
Ġclim ax
Ġet her
ĠDan ish
Ġmidget s
Ġunderw orld
Ġsupport ed
Ġrib bons
Ġgro aned
ĠFool ish
ĠCla ude
Ġsew age
Ġwond ers
Ġprim ary
Ġcommun ication
Ġstrip es
Ġdim wit
Ġmart ini
Ġdoc ile
Ġvers us
Ġbi opsy
ĠShan now
ĠShan non
Ġstare s
Ġalley way
Ġfold s
Ġgrim ly
Ġtrave led
ĠKir a
Ġdod ge
Ġtroubles ome
Ġnit wit
Ġnovel s
Ġhorr ifying
Ġfiend s
Ġregard less
Ġweal thy
Ġperman ently
Ġimpot ence
Ġwrit hed
ĠBand it
ĠCru z
Ġdiagn osis
Ġexplo it
Ġmamm oth
Ġdil ett
ĠMob y
ĠRot ten
ĠBlond e
Ġcounsel or
ĠLes lie
ĠVamp ire
Ġmars hal
umpt uous
Ġcrad le
Ġwebs ite
ĠVul can
æĪ ĳ
Ġprover b
Ġkara oke
andert hal
O kay
P oor
b us
b ishop
c ong
d ain
f reak
p anic
r ue
s is
s orry
t able
w ad
Ġa che
Ġw ool
Ġl antern
Ġp ent
Ġh orde
Ġk etch
et o
im ic
am ine
ĠT ad
ĠT ort
ĠT ried
ĠT ech
if ters
Ġwh it
ra ble
Ġan th
ĠA val
ĠA ryan
ur red
ĠH ir
ĠH utch
Ġde uce
ĠM od
ĠM oya
ĠB ened
ĠB ooth
il itating
ĠD arby
Ġab st
ĠC oming
ĠG ott
Ġbl und
Ġhere by
Ġshit ter
Ġno ggin
ĠL ab
Ġoff ence
ĠO ct
os y
Ġle af
ĠP el
ĠP ass
ĠF ear
ri ac
Ġint rig
Ġsp ont
Ġlo co
Ġar ist
ĠE nt
ĠE mb
Ġcl ar
Ġcl ipped
th ink
Ġco ats
Ġneed lessly
Ġqu ad
Ġwhere as
Ġblood line
Ġcr ud
ĠTh r
Ġcar b
ild a
Ġnight club
ĠV e
ict s
Ġins olence
Ġte ens
ĠU N
Ġcle avage
Ġbutt ock
ister s
Ġbro ads
Ġgl ued
Ġsn ipers
Ġapp end
ĠDe f
ĠBr ight
Ġsent ences
Ġbusiness men
iver ing
atic an
Ġwater mel
ĠCl ar
Ġdel ic
Ġsign ificant
Ġtrouble maker
yp se
Ġir resist
ĠRe gina
ĠHer cules
Ġpur ity
ĠPr inc
Ġroll er
Ġris ky
Ġsal ty
Ġque ers
Ġur inating
Ġwed ge
Ġear ning
Ġpot s
inc omp
Ġbod ily
Ġvag rants
Ġsol ar
ĠSe attle
Ġrad ical
olute ly
Ġseven teen
Ġselfish ness
ĠSee ing
just ice
AN G
Ġadm itting
Ġsupport ing
Ġpresent ed
ĠBra vo
ĠCle arly
ĠPol and
Ġmaid s
Ġcand id
Ġemploy ed
Ġtoss ing
Ġdeb ts
fl ies
Ġterr ific
Ġliqu idate
ĠFranc ine
Ġmail man
Ġscra ped
ĠWay lander
Ġfruit cake
Ġreplace ment
EN T
Ġinterview s
Ġobl iter
ĠGab e
Ġstalk ing
Ġrode o
ĠLy dia
Ġult imately
Ġveget arian
Ġrhy me
ĠCarr ot
ĠSid ney
Ġinfant ry
ĠRepublic an
ĠAndre a
Ġcharlat ans
Ġimmig rant
ĠHum ans
Ġtact ical
Ġvolunte er
ĠCrow ley
ĠHoll and
ĠCourt ney
ĠLyn n
ĠWhit ney
ĠTem ple
ĠDam ien
Ġindiffe rence
ĠSca red
ĠSpart acus
ĠVik tor
Ġbog us
Ġdecap itated
Ġfortun ately
Ġresident s
Ġdelinqu ents
writ ing
Ġobliv ion
ĠFergus on
gey man
Ġsubd ue
Ġtet anus
ĠKas par
Ġgna w
ĠSorce ress
Ġburrit o
Ġegot istical
ĠWra ith
Ġsvin i
Ġprin ces
ĠPors che
ĠTurt le
1 2
S A
a ud
c omp
h um
o kay
z os
Ã ¢
Ġs han
Ġs ipping
Ġb ile
Ġb oned
Ġb icycle
Ġm oody
Ġd aring
ll i
is hable
Ġg aw
Ġp he
or gan
as ions
Ġth ra
Ġth res
at able
us k
Ġon ions
im ir
im agin
Ġst ow
se in
ĠT ab
ĠT ol
ĠS P
ĠS ed
ĠS issy
ĠW ars
Ġre indeer
st ream
ie ves
Ġas pir
ĠH icks
Ġall ies
ĠD ing
ĠD yson
ĠC ave
ĠC andy
ĠC irc
ig ious
Ġbl okes
pp et
ca ps
ĠL ame
ĠL af
ain ting
ĠO i
Ġcra fty
ĠP ent
ĠP unk
ĠP ey
ĠF i
ĠF is
ĠR ud
ĠR oc
ĠR aid
ĠR oth
ĠR ams
ĠE nder
Ġdown ed
Ġcl ick
Ġch uckle
Ġch orus
ĠK eller
Ġsl ot
au x
Ġmad am
Ġblood less
Ġthought less
Ġdis dain
Ġkid din
Ġgr an
Ġgr oping
Ġcar penter
ug ly
Ġsha man
ach i
ub us
Ġcou g
Ġho arse
ict ive
ĠDon ovan
ster dam
Ġrun away
Ġgodd ammit
Ġfire man
ĠU lt
we ed
Ġchan nels
oc ate
Ġheart beat
ĠAll iance
ert a
Ġgl or
ĠIn f
ĠIn side
Ġ2 8
Ġsn arl
ĠFr is
ten ance
Ġsca bb
ĠBr ady
Ġent ry
Ġstre ak
Ġrel uct
ĠAl icia
Ġred emption
Ġpsych ologically
Ġprom pt
Ġprom ising
Ġclean se
Ġclean ers
pr iced
ric ia
ĠAn imal
Ġ3 2
Ġgi ants
ĠZ en
ĠZ ak
ĠZ ac
ĠMan uel
Ġjerk y
Ġfoot steps
ik ing
ĠSp it
ĠSp are
Ġref using
Ġref lection
rup ting
any a
Ġbuck ets
oun ge
ĠPe ggy
Ġur ban
ĠGu ild
Ġmut iny
ĠBob bi
Ġcommand s
zz o
Ġbow el
Ġcreep ing
Ġvag abond
Ġsun rise
Ġvis ual
ĠSl ap
ĠCon nect
ĠEd ith
ĠFl oyd
Ġant ique
ĠCha ir
Ġcaptain s
Ġwha les
Ġver se
Ġge ese
Ġgener ate
Ġgener als
Ġgener ator
Ġprefer ably
Ġincl ined
Ġden ying
rid den
Ġdesert ed
Ġunderw ater
ĠEn joy
Ġcult ural
ĠFin ish
Ġliter ature
ĠBurn ed
AR D
ĠFool s
ĠTurn er
Ġrobber ies
Ġspray ing
ĠTe am
Ġcompet itive
Ġmel on
ĠTer rible
ĠMurd erer
Ġirrit ably
ĠRos a
Ġdece ived
ĠBur g
ĠTor an
Ġlap dog
ĠDave y
ĠSk ull
Ġconcent rated
Ġhob bit
ĠMil o
Ġcrit ters
ĠJac ques
born e
ĠRod rig
Ġblackmail er
ĠBrad ley
Ġremark s
Ġblink ing
Ġmutil ation
Ġrail way
ĠFore st
ĠWend ell
ĠVen us
ĠHum vee
ĠBas ically
Ġresent ment
Ġdefect ive
ĠScot land
Ġinev it
maid s
Ġgn ome
ĠSad ie
Ġcleans ed
ocal ypse
ĠIns ane
Ġhamm ered
ĠHawai i
Ġlur king
Ġnu kes
ĠLiber ty
Ġhaw k
ĠPerson ally
Ġadul tery
Ġcrumb s
Ġtorped oes
Ġdeadl iest
Ġpes ky
Ġshap esh
ĠEug ene
ĠNev ada
Ġvot ers
Ġsab ote
oldem ort
Ġunscrup ulous
Cla ude
Ġlub ric
ĠUta h
D ead
E O
E V
F F
O C
T A
b ones
c all
c akes
c old
h u
h rer
p ots
r ates
r ified
r iger
s ons
s ighted
w itch
Ġ |
Ġ icy
Ġt resp
in ence
Ġw ither
Ġw aff
Ġs ib
Ġs outhern
Ġb am
Ġb amb
er ving
Ġg uru
Ġl ass
Ġl ax
Ġp ins
ar ming
Ġth umper
Ġth robbing
Ġbe aring
Ġbe aver
Ġit ching
Ġme nd
Ġe el
Ġst ressed
Ġsh h
Ġsh in
Ġr het
am y
ic cup
ĠT reat
ir teen
ĠW oo
ĠY akuza
Ġj olly
Ġfuck up
ĠH olt
ĠH iro
Ġnot icing
Ġde eds
ĠM ouse
ĠM oney
ĠM ount
ĠB E
ro se
Ġfr anc
ĠD ying
ĠD awn
ĠD iane
ĠC ull
ĠC amb
ĠC omplete
ook a
ĠL ies
ĠL ead
ĠL ousy
Ġcra pped
Ġle opard
ĠF u
ĠF alls
ĠF aith
ĠF UCK
Ġpe ach
Ġsp ew
Ġv ocal
ge e
ĠE xt
Ġbr ushed
Ġfe ature
Ġcl as
ĠK am
ĠK ansas
Ġpr one
ire z
Ġhand gun
Ġun se
ort ing
ort ex
Ġbad ger
Ġsl ugs
Ġhas h
pl aced
ĠWh oo
Ġcr uiser
Ġdeath ly
Ġkid do
Ġfl es
Ġrid ers
Ġsha ken
Ġhit man
Ġmust ard
ĠCh ip
ĠV ice
ĠV atican
ail ed
ĠBe e
Ġtra ct
ont o
Ġcont ag
pect ing
Ġpig lets
Ġcomp artment
Ġacc ord
Ġacc ommod
anc ers
Ġsn ack
ens on
Ġapp arent
har dy
Ġinc ome
ĠChrist ina
Ġrep ly
Ġfil ter
Ġstab s
Ġfore arm
Ġcountry men
Ġgen oc
Ġsqu aw
Ġes cal
Ġabs ence
Ġbar racks
ĠCl are
ĠCl ara
Ġdel uded
Ġpres umptuous
Ġadd ing
min ute
Ġcry pt
Ġlearn s
ĠInd eed
Ġconv iction
cl air
ĠPr ison
ugg ers
Ġclass ified
Ġdisc reet
ĠEven t
ĠMc N
Ġrepl acing
Ġeight y
Ġfair ies
Ġround ed
Ġcast rate
bo ards
ĠSer ge
ĠAb el
Ġsuggest s
Ġpet rol
ott age
Ġeng agement
sc ope
Ġload s
Ġdisappear ing
Ġrev ulsion
ĠCo ver
Ġpant y
Ġuns av
Ġcann ons
Ġled ge
Ġamb assador
Ġrib bon
Ġcheer fully
Ġagre es
Ġemploy er
ĠBea u
ĠCor por
Ġcommun ications
Ġmarket ing
Ġtorn ado
Ġpers pect
Ġmas ked
ĠStep han
Ġshrink s
Ġsacrific es
Ġmanipul ator
ĠDog s
Ġflu ids
Ġcannon ball
Ġsting y
Ġbillion aire
Ġdishon or
Ġster ilize
Ġsmooth ly
Ġlegend ary
Ġta vern
ĠMed usa
ĠKal i
Ġexecut ive
Ġsquirrel s
ĠTre vor
ĠOt is
tim ore
ĠSel f
ĠNorm a
ĠNorm ally
Ġeth ics
Ġcub s
Ġdinosaur s
Ġenvironment al
Ġrelative ly
Ġgigg le
Ġbluff ing
Ġdiplom at
Ġhal ves
Ġexagger ated
Ġprecise ly
Ġreprod uctive
Ġpunct ured
imon ious
ĠHus sein
ĠErn est
Ġplun ge
ĠFlet cher
ĠCraw ford
Ġumbrell a
ĠMons ieur
Ġprotrud ing
ĠReyn olds
ĠHumph rey
ĠDool ittle
ĠShir ley
Ġfriv olous
Ġthres hold
1 8
A fter
C ra
G ay
R S
S ex
T V
c ies
d ict
d umb
e vil
h og
j ay
j un
k ies
l asses
p ings
p ox
p ussy
r ane
u pped
y ss
Â ¡
Ã ¾
Ġt ac
Ġa uction
Ġa uthority
in ished
Ġs ust
Ġm r
Ġm and
nd ers
Ġf erry
Ġc uc
Ġc ube
Ġto en
Ġg ard
ed ience
Ġp onies
Ġh ounds
ot aur
at ha
at io
Ġwe ary
Ġst ash
Ġr ipp
Ġr iff
ĠT oss
ĠT its
ĠS ell
st ore
Ġj olt
ĠA ff
ĠH ag
Ġup s
ĠM ant
ĠB anks
ĠB auer
ĠG ard
ĠG ame
ook ed
Ġtr ough
Ġtr ashed
ag les
ast a
Ġsu nd
ĠL ass
ĠL ob
Ġus ur
Ġal mond
ĠP enn
ĠF lynn
Ġsp raw
Ġthing y
Ġcom pens
are z
ge nder
Ġhead less
Ġcl ing
Ġun imagin
Ġsl oth
Ġdis crim
Ġgr anted
Ġcar bon
Ġsha ky
Ġcou ches
Ġunder pants
Ġcha mbers
ĠV augh
we et
Ġtra um
ib u
ĠYour s
Ġcompl eted
ĠFuck er
Ġimp aled
Ġsn uff
ens ed
ok i
atter s
Ġhor iz
Ġrec alled
ane ously
Ġdem ise
Ġble ak
ĠMar io
ĠMar la
ĠMar cel
Ġred undant
Ġcons erv
Ġinf inite
ount ered
ric s
ph is
Ġrot s
ĠZ ero
Ġind ex
Ġstraight ened
Ġstar vation
Ġwit less
Ġpu king
Ġpub lish
Ġtrans sexual
Ġimportant ly
Ġbang s
Ġfish y
Ġfeed s
Ġcrack er
Ġcent ral
Ġelect ro
Ġdiv ided
ĠGre ene
Ġoper ator
ĠChe ster
Ġaccident s
Ġbetray ing
Ġspread s
ĠCarl o
con f
udd led
Ġ7 2
ĠCo hen
Ġaut ograph
ĠWal es
Ġmal function
Ġradio active
gl ig
gl ass
osh i
Ġprov oked
Ġenc ountered
uous ly
Ġgrandmother s
ĠAw esome
Ġped al
Ġscar iest
Ġcommun icate
Ġspear s
Ġtri ump
Ġdeton ated
Ġguarant eed
ĠJess ie
Ġproject s
ĠEmp ty
ĠLau gh
Ġincre asing
ĠBal timore
Ġconcl uded
tr ash
ĠArt ie
Ġoccup ied
Ġinfant ile
Ġrecomm ended
Ġdemonstr ate
Ġphilos opher
Ġol ive
Ġcarn ival
Ġcalcul ations
Ġconvict s
Ġcomr ade
ĠConf ed
ĠAah z
ĠFle et
ĠBrend an
Ã¼ hrer
turn ed
Ġcomprom ise
Ġruff ians
Ġinha bit
Ġinspect or
Ġlaun ched
ĠHug o
ĠPers ian
Ġnav ig
Ġalleg ations
ĠHamm ond
Ġeyel ids
Ġmisunder standing
ĠDud ley
pow ered
Ġacce ler
Ġcontem pl
Ġchriss ake
Ġsung lasses
ĠArn old
Ġinadequ ate
ĠSiber ia
ĠSpir it
Ġpeac ock
prof ile
ĠMig uel
Ġfles hy
ĠEvent ually
ĠVaugh n
3 5
7 0
M AN
R Y
a ired
b ent
b earing
f ull
l ower
m ie
o che
o inting
r ators
s ure
Ġ ounce
he nt
Ġa ster
Ġw ad
Ġs igh
Ġs orrow
Ġb erserk
Ġm itt
Ġm atched
Ġd ag
Ġd azz
ĠI ris
Ġg ifted
Ġl out
Ġhe h
Ġin ane
Ġin mates
en y
us sed
Ġit em
ut er
al anced
ĠT essa
Ġfor s
Ġwh ined
ĠW and
st ri
ur m
Ġso iled
ĠM ull
ĠB O
Ġall y
ĠD ion
ĠD ream
ĠD enny
ell ar
Ġne glig
ĠC ir
ĠC itiz
ct ic
ĠG avin
Ġor ient
Ġtr ipping
Ġtr iggered
ast s
Ġsu llen
est hetic
ĠL ess
ĠL est
ĠL ec
ĠN ak
ĠN ec
os ity
Ġle mons
ĠP ra
ĠP ep
ĠP rest
ĠP oles
ĠP inky
ĠF an
ĠR um
Ġlo on
Ġv and
Ġar oused
Ġhow led
ĠE agle
Ġcl ung
Ġsm ear
em y
em an
Ġpro cl
ĠK an
ĠK emp
Ġcall ous
Ġhas s
au g
pl ing
Ġcr ates
Ġcr ows
Ġcr ashes
Ġfool hardy
Ġgr uff
ber y
orn ing
Ġmon aster
Ġcar nage
Ġsha dy
Ġbull dog
Ġend ange
Ġball istics
Ġdes cended
-- ?
Ġbreak up
so ever
so aked
Ġdec aying
Ġdad s
the l
ta le
Ġremember ing
Ġste er
Ġattack ers
Ġpar ody
me ga
Ġabs ent
Ġtor mented
ĠAr gent
Ġinv aded
igg ling
Ġsy nt
Ġmill enn
ĠSc um
Ġdef y
Ġdef iant
Ġdri p
Ġsub urb
Ġsub conscious
Ġperfect ion
ĠRe ich
ĠLe agu
Ġexper iments
Ġbox ing
Ġopp ress
âĢĶ "
Ġsus pend
Ġjack als
Ġdisc ount
ĠGr im
Ġcig ars
Ġrecord er
Ġchair man
Ġwedding s
Ġgovernment s
Ġglad iator
Ġhur l
ĠAb u
ĠFl ash
Ġdesper ation
ĠPl ace
Ġbat hed
Ġbone head
Ġtele p
Ġval id
ĠSw ord
Ġ7 5
Ġ9 11
Ġstore s
Ġreb orn
ĠGl enn
ĠAnt ony
Ġtrad er
Ġextermin ation
Ġbrut ality
Ġfro st
geon ing
ester ing
ĠDou che
Ġpath ological
Ġrent al
ĠOther s
Ġnin th
Ġmel anch
Ġought a
Ġirrit able
Ġunb alanced
Ġep ide
Ġlump s
Ġtun a
Ġstro ked
Ġtravel s
Ġchallen ging
Ġbi kes
Ġfian ce
Â´ Â´
Ġtyr anny
ĠWant ed
Ġnick n
Ġexplod ing
Ġhaul ed
ĠMir iam
Ġentertain ing
ĠÂ £
Ġbik ini
Ġcooper ation
Ġwack o
ĠDep uty
Ġstamp ed
ĠRam irez
ribut ed
Ġrig ged
Ġcrem ation
Ġbay onet
ĠPsych o
Ġannihil ated
Ġpersu aded
ĠLem on
ĠRab bit
Ġmaint ained
Ġpatri ot
Ġfab ulous
Ġbol ts
,, ,
Ġtraff ickers
Ġhool igan
Ġopportun ities
Ġmasc ul
ĠBritt a
ĠHawai ian
Ġauthor ities
Ġfisher man
Ġrestrain ing
ĠTok yo
Ġscholar ship
Ġprett iest
ĠPlan et
ĠHind u
Ġtopp led
Ġdegener ates
ĠBren nan
Ġnob ility
heim er
Ġmane u
Ġhemorrho ids
Ġquar rel
ĠAch illes
jam in
Ġhypochond riac
ĠUk rain
Ġrelent less
Ġbac ter
ĠSart an
Ġpag ans
Ġtrian gle
Ġcoff ins
ĠChand ler
ĠBened ict
Ġperspect ive
ĠPrest on
Ġendange red
3 00
D ick
G odd
O ld
S m
U L
d um
d oor
f oy
g art
h igh
i om
j ones
l ady
l ove
m os
p ull
p ole
w art
Å ¡
Ġl oo
ed o
ck en
om as
Ġth re
at ra
ut o
Ġli bert
Ġsh ush
se ven
ĠT ooth
ĠT leil
if es
ĠS ter
ĠS ax
Ġre fe
ie v
ĠA va
ĠH ann
un ches
ĠB ass
ĠB less
ĠB ax
ĠD A
ĠD ouble
ĠD war
ĠD uffy
ĠG esser
ĠThe l
ast urb
our i
our ished
ab a
ĠL ose
ĠL uthor
ĠO y
Ġcra ve
Ġgu er
ĠP ing
ĠP ul
ĠF ake
Ġpe op
ĠR an
Ġar cha
way ne
Ġsc ores
Ġbr ist
Ġeven ings
Ġass ets
Ġass umption
ud a
ip her
ass ad
Ġthr ashing
Ġfat ig
Ġfat so
Ġsl ag
Ġsl icing
Ġcr one
ac ist
Ġfl ags
Ġsha res
Ġsha kes
Ġsha ggy
ach ing
Ġbel ts
Ġlong ed
ĠV oldemort
Ġball er
oss ible
umb ers
Ġchild birth
Ġwar ped
Ġad ore
ling er
Ġpat s
Ġgl am
Ġgl ared
ĠFuck ed
ens ity
Ġdoor kn
ins ky
Ġmiss ions
Ġunderstand able
Ġbomb ers
Ġbomb ard
Ġinter ior
Ġbar rier
Ġchar ade
Ġweak lings
Ġfig ment
ĠZ o
ĠZ ane
igg ins
Ġbra nded
Ġsil ky
Ġref riger
Ġearth qu
Ġterror ized
Ġsuper star
ugg le
Ġhop ping
Ġmeat balls
Ġtre as
aj o
Ġve il
Ġpast a
Ġtort ures
Ġabsurd ity
Ġclass room
lo at
Ġsurpr ises
Ġrespect s
Ġhero ic
Ġbottom s
Ġcorn ered
Ġwhis kers
ĠNor thern
Ġshop l
Ġhur ricane
ĠSl aves
Ġcast ing
Ġpract ices
Ġpract icing
Ġdirect ed
Ġinvol ving
Ġmain land
Ġproud ly
ĠJo anna
Ġdouche bags
ĠNob el
Ġorgan ic
Ġnur sing
uten ants
ĠMal foy
ĠCle m
ĠCle ar
Ġcred ibility
ĠSan ct
AR T
ĠBea utiful
Ġengine ers
Ġslay ing
Ġreact ed
Ġmel ting
Ġirrit ation
Ġdisp osed
ĠKn ox
ĠLos ers
ĠBu zz
Ġvillain ous
Ġuna ware
Ġsock et
Ġfet id
ĠCast ro
Ġoppon ents
Ġcris p
ĠSand ers
Ġsar ge
Ġstamp s
Ġsem ester
ĠDu ane
Ġplat form
Ġheight s
ĠDarn ell
Ġrespond ed
Ġded icate
Ġprint ed
Ġwrest le
li hood
ĠHy de
ĠCher ry
Ġfrequ ently
Ġbureaucr at
Ġvic inity
Ġcontr ast
Ġsanct imonious
ĠHung arian
Ġkil os
Ġsarc asm
Ġoutlaw s
Ġpron ounced
ĠTyr one
Ġtarn ished
Ġpubl ished
ĠSkin ny
ĠChin aman
Ġabduct ed
Ġaccus ations
Ġtamp on
Ġadoles cent
Ġhunch back
Ġvind ictive
Ġcongress man
ĠGand hi
Ġtel esc
Ġcoord inates
Ġreun ion
Ġevap or
Ġantib iot
Ġpromisc uous
Ġcoloss al
Ġuncontroll able
ĠCalla han
Ġcance led
ĠLS D
ĠDarry l
ĠNol an
Ġbamb oo
ĠTleil ax
- '
9 0
B itch
L isten
M P
N onsense
S T
b org
c ro
c ursed
c overed
d iction
g ate
h im
h unt
i qu
m ort
m unk
m atic
n onsense
p erson
t rying
u ber
w o
w ide
z u
Ġ >
Ġt uck
Ġt ying
Ġt asty
he ld
Ġs essions
Ġy er
Ġy acht
Ġm age
Ġm af
Ġm ajesty
Ġd unk
Ġd roid
it tering
Ġf uzzy
Ġc auld
er ness
Ġl onel
Ġp ause
Ġp ouch
Ġh ires
or i
es pecially
at i
Ġit ch
Ġwe lf
Ġwe ighs
Ġli able
Ġr ows
ĠT it
ra ve
ĠY anks
ĠY ellow
Ġj umper
Ġnot ch
Ġde rel
Ġso lic
ĠM C
ĠB S
ĠB rent
ĠD ia
Ġab rupt
ĠC oss
ĠC av
ĠC arson
ink er
Ġman gled
est ion
ab ber
ĠL ower
ĠL ots
ist ine
ist ically
ĠN i
ĠN urse
ĠJ r
Ġus er
Ġle ct
ĠP and
ĠP orn
ĠF ang
ĠF ield
ĠR ory
ĠR angers
ĠR unning
Ġ' "
ĠE p
th ouse
th ird
ĠK erry
Ġun leas
Ġqu id
ort ions
ect ion
Ġdis able
Ġdis arm
Ġgr ifter
Ġke ister
Ġstupid ities
Ġcar rier
Ġcar avan
Ġfl own
Ġfl attered
unk le
ĠSo c
Ġche ers
ĠSh in
Ġreal izing
Ġbot ched
Ġdestroy er
Ġhar b
Ġel ite
ĠU rs
uff le
ib an
Ġpre st
Ġad orable
Ġsur geons
Ġimp ro
Ġimp over
Ġcomp re
Ġhair less
the m
uc ha
Ġpick y
Ġap ost
Ġrel ic
Ġrep ay
Ġfing ert
ĠOr son
Ġskin head
ĠMar ian
Ġdrop pings
Ġinf irm
Ġcoll arbone
elt zer
Ġwind s
ĠHis panic
Ġexpect s
min ister
Ġz ap
Ġimag in
Ġsat in
ĠHar ley
Ġdist orted
Ġdist raction
Ġwit hered
ĠRe agan
Ġemb assy
âĢĶ '
Ġhun ched
aul ting
ĠGr ady
Ġamaz ement
Ġrad iator
Ġvis ions
Ġelect ron
Ġshr ill
Ġdiv ide
ĠSl ayer
ĠFl oren
ĠPaul a
Ġpet ulant
ĠAng els
Ġocc asions
Ġapolog ized
Ġsav ior
Ġinform ant
ĠSar uman
Ġorgan ize
Ġuniver s
Ġ8 8
Ġnumb nuts
Ġmal icious
ĠSex y
Ġuns peak
ĠMal ibu
ĠMus k
Ġobject ive
ias co
iat us
Ġsquad ron
Ġbarb ed
Ġdifficul ty
Ġlord s
ĠWatch ing
Ġpred ictable
ĠAss oci
Ġsneak ers
ĠMost ly
Ġnin ny
ĠSus ie
Ġstret cher
ĠChan cellor
Ġchallen ged
ĠDen mark
Ġbosom s
ĠSup reme
Ġjoint s
Ġunw ashed
Ġcircum cised
Ġremark ably
Ġexperiment al
Ġincre ased
Ġimper fect
Ġast ron
Ġbond s
Ġpenet rate
ĠGer ald
ĠTha iland
ĠVen ice
ĠSteven s
Ġric hest
CH ER
Ġinterrog ate
Ġbureaucr atic
auc as
LA UGH
Ġfer ret
Ġpuff ed
ĠCom rade
ĠMatthew s
Ġpup ils
Ġstew ard
ĠSin clair
Ġcomprom ised
Ġweep ing
ĠKurt z
nan igans
ellig ence
ĠDisney land
Ġdisag re
Ġdisag ree
Ġflav or
Ġnause ous
Ġwail ing
Ġratt les
Ġbehead ing
Ġdre gs
Ġramb ling
Ġjug ular
Ġhaird resser
Ġpervers ion
ĠIda ho
Ġsard ines
Ġcutthroat s
Ġrh ino
Ġgenet ically
ĠSW AT
Ġpse udo
Ġdilett ante
ĠFis cher
Ġscabb ard
ĠToran aga
Ġtresp ass
ĠCamb od
ĠFloren ce
; '
B et
B ay
H it
c iously
d ies
e le
e ge
f alls
l ust
l ana
o an
r us
r ons
s ight
s uff
t ar
t ical
u va
v i
Å ¾
Ġ %
Ġa sexual
ou rage
in stead
Ġb ounced
Ġd renched
Ġf iddle
Ġf iasco
Ġc ale
Ġc reek
Ġc ottage
is l
Ġl est
Ġl ull
Ġl uc
Ġl ounge
Ġh olog
Ġh ulking
Ġin iti
as ma
ar oni
ow ler
le ave
le vel
Ġst ated
Ġst umble
Ġis olate
am el
ĠT in
ĠT aur
ĠT yson
ĠS E
ĠA y
Ġse ated
Ġas phy
ĠH yp
Ġif you
ight er
ĠM es
ĠM ich
ĠM oe
ĠB ing
ĠD ixon
ĠC able
ĠC atch
ĠC ash
ick ey
ĠThe o
Ġtr if
ag na
Ġshit tin
ul i
ab el
ĠL im
ĠL av
ist ory
ĠN ear
ĠJ ournal
ĠF if
ĠF ell
ĠF ats
ol ini
ri p
Ġpl oy
ĠR est
Ġv ase
Ġv ivid
Ġsc roll
ĠE un
Ġbr uise
Ġcon ver
Ġcon stitution
Ġlet har
Ġcl ams
Ġthan king
em ic
Ġpro be
Ġco ven
ff iti
Ġen light
Ġen slave
pl an
ac ular
ĠBut ch
Ġmon stro
Ġcar ving
Ġfl ing
Ġfl unk
Ġfl apping
Ġrid ge
Ġrid dled
Ġsha lt
ub is
ĠSt at
ĠSt inky
ĠSt ella
ĠSt acey
Ġche esy
ĠSh ip
Ġmen acing
Ġsick er
Ġrun way
Ġwait in
isten ing
Ġnew com
ĠMy r
Ġsupp ressed
amp a
Ġbo zos
uts i
ens en
Ġapp la
uc ers
atter ing
ĠDe c
Ġ( "
Ġste ad
Ġste ering
Ġinc ision
cept ive
Ġfact or
Ġment or
land ers
ject ed
Ġlie utenants
ĠAs ians
ĠSome where
uss ion
Ġfig uring
Ġcat fish
Ġcrimin ally
Ġexpect ations
Ġmus ket
Ġbra very
Ġnut job
Ġsub stitute
br ie
Ġbeast ly
Ġmut ual
ĠMc Donald
Ġdesp ises
ĠMiss ouri
Ġdev ious
Ġrub ble
Ġbathroom s
ĠSl im
Ġremind er
Ġseven ty
Ġamazing ly
Ġpet ite
Ġequ ivalent
Ġprod ig
Ġaccept able
Ġmain tenance
Ġdouche y
Ġver dict
ĠNob by
ĠCut ter
Ġban ner
ĠCr own
Ġknee cap
ĠComm ittee
Ġconcern s
Ġsed ucer
Ġregret s
Ġappro x
Ġnaive ty
Ġdeb ilitating
Ġsew ing
Ġplain t
Ġtri umph
Ġpers istent
ĠBro ck
Ġspeed ing
Ġstro king
Ġmap s
Ġhen ce
Ġfet ch
Ġrepresent ed
Ġgrad uated
Ġbend ing
Ġglo om
ĠHom o
Ġpolite ly
ĠWood s
Ġconsid ers
Ġsociopath s
Ġspect acles
Ġrecru its
Ġphilos oph
Ġcro ck
Ġkne eling
Ġsnob s
ĠZe us
Ġejacul ate
ĠBang k
Ġpadd ed
talk ing
Ġhamm ers
Ġlact ating
Ġslee ves
Ġbeet le
Ġveter an
Ġbackst age
Ġanaly st
Ġoy ster
Ġshrew d
Ġbree ze
Ġjur is
Ġcontam inated
Ã¯ ve
Ġorang ut
ĠBraz ilian
Ġsnee ze
ĠSpani ards
Ġchimpan zee
Ġstoo ge
Ġabnorm al
Ġparach ute
Ġdisfig ured
Ġbarr ic
Ġcateg ory
Ġcada ver
Ġtrem endous
hamm ad
ĠSept ember
Ġquarant ine
ĠScoo by
opha gus
Ġfauc et
Ġketch up
Ġthre esome
Ġwelf are
Ġasphy x
D ER
E l
Q ue
W ow
d rop
f ind
f icial
l ast
l aughs
n ine
s illy
s har
s ki
z ny
z illa
ä ½
Ġs anity
Ġs ighed
re ally
re th
Ġy awn
Ġb aking
Ġb ible
Ġb ins
Ġm our
Ġm ike
Ġm oose
Ġm umbo
ha pp
ĠI T
nd ar
Ġf ib
Ġc ower
Ġl ag
Ġl ug
Ġl ens
Ġp all
Ġp ell
Ġp ave
Ġp iled
or ant
or ph
Ġn incomp
ck ers
ar ium
at ron
us pecting
ut ing
ut tering
ay ette
ad ays
Ġli z
Ġst aked
Ġst aged
ic ut
ic iency
ĠT up
ĠS S
ĠS ting
ĠS uc
ĠS ey
ĠS itting
ĠW arl
ĠW aste
st icks
Ġj un
ĠA way
Ġgo b
Ġas p
Ġso vere
ĠM ord
ĠM ik
ĠB od
ĠB igg
ĠB elle
ĠD umbled
ĠC uff
ĠC oul
ĠC unning
ĠC ON
ĠC elia
ĠG oth
Ġshe ikh
Ġor che
ess es
ess ors
ag m
ca pe
Ġshit storm
ĠL ying
ĠL ump
ĠL enn
ĠN iggers
ĠJ ody
ĠO gg
Ġgu ided
ĠP oll
ĠF ried
ol ete
Ġpl a
Ġsp ree
ĠR ig
ĠR ince
ĠR ush
ĠR usty
ĠR amon
Ġtim id
qu al
Ġsc ree
ĠE U
Ġsex iest
ear ned
ĠK urd
ĠK ru
ĠK ara
omet er
ob er
Ġco on
Ġshoot in
Ġsl ices
Ġblood s
ĠTh ief
ac ent
Ġdis in
Ġdis ability
ĠBut ter
ret ion
Ġfl ab
sh ots
ub a
ĠSt arb
Ġwork in
ĠCh ick
Ġplay in
Ġend ured
ren ches
Ġhouse wives
Ġmom ma
Ġel usive
ĠU t
Ġstr ut
oc cup
ho e
Ġnew born
Ġser um
ib als
Ġcrap s
ere nt
Ġres idence
Ġcour thouse
Ġimp rov
Ġsn or
Ġfront al
ner y
ĠFr aser
ĠBl oom
Ġmis car
ĠBr idget
unt ary
Ġexpl ore
Ġpower less
Ġbomb ings
ĠMar got
ĠMar cy
Ġpun ishable
Ġred necks
Ġcons istent
to e
pr om
Ġinf uri
Ġcock tails
ph ia
Ġcoll abor
Ġcold er
uss ian
Ġdream t
Ġpict ured
Ġbuy er
Ġhook ing
ertain ly
Ġbra gging
Ġann oun
Ġprotect s
Ġblind ly
ĠLe eds
ĠQu ite
Ġve nd
Ġimport ance
Ġtrans ition
Ġopp ose
Ġarm our
Ġconc ub
ĠEl i
Ġbeating s
Ġnail ing
ĠGr an
ĠGr imm
Ġthank ful
Ġer r
Ġhorn ed
Ġsuit cases
Ġgross ly
Ġtight ened
Ġpublic ity
ĠBen jamin
ĠNor we
ĠEd ie
Ġsens ed
ĠRic ans
Ġ6 00
Ġinject ing
Ġinject ions
Ġund ress
Ġtick ling
ĠCr us
Ġintern s
cri ption
ĠCal vin
Ġsed ate
Ġuns uspecting
Ġsuccess or
Ġamb ushed
cra zed
Ġmoon light
Ġcourage ous
ĠBel g
Ġscar ce
kn ock
AT H
Ġtax p
Ġrese mble
Ġdim ension
Ġrece ip
ĠAngel o
Ġbarrel s
Ġloc ate
Ġloc ated
Ġborder line
Ġroot ing
Ġfrig id
ĠCount ess
Ġcong ratul
Ġexperien cing
Ġstraw berry
Ġske w
ĠGold ie
Ġharass ed
ĠFre ud
Ġwhist ling
Ġancest or
Ġactress es
Ġdepra vity
Ġslob ber
ĠHope fully
ĠAp ache
Ġmos que
Ġhyster ia
ĠPo ison
ĠTan is
Ġmechan ical
Ġstern um
ĠHook ers
Ġmotion less
Ġbun nies
Ġscorn ed
low e
Ġchuck led
Ġhambur gers
Ġgenuine ly
ĠFro do
ĠVin nie
Ġsup reme
Ġindul ge
ĠSpring field
ĠViol et
Ġlas agna
Ġted ious
ĠHend erson
Ġprescri ption
murd er
Ġvine gar
Ġunderest imate
ĠOx ford
ĠFilip ino
ĠNich olas
ĠMorm on
Ġadmir ation
Ġdement ia
Ġmasoch ist
Ġsurg ical
ĠCou ple
Ġdepri ved
Ġpac if
ĠLazar us
ĠAval on
Ġblund ers
ĠConnect icut
Cra zy
hent ic
Ġmonaster y
ĠSanct uary
Ġmonstro sity
ĠBangk ok
Ġjuris diction
ĠRince wind
4 4
B A
C ut
D ear
H old
Y D
d ate
d irty
k l
o ad
p op
p ies
p aper
r ats
t z
Ġ q
Ġt rench
Ġt aco
in th
Ġw itty
Ġb ores
Ġm ound
on k
Ġd ame
Ġd itched
ĠI mm
Ġf umbling
Ġc ret
Ġc ope
an other
an ne
ed ing
Ġp uck
Ġp asty
Ġp aj
Ġp airs
Ġn im
Ġth ump
at ches
Ġha il
Ġha cker
ut han
id dy
Ġwe enie
Ġst out
Ġsh ifted
Ġr ant
ĠT oot
ĠT ree
ĠT utsi
ĠS ier
ĠS OB
ĠW ick
ĠW arden
ĠW OM
ant an
ĠY u
Ġgo ver
ur o
ĠH anna
Ġup ward
op en
Ġde pl
ĠM E
ĠM ist
ĠB rett
ro cious
ĠD J
ĠD ynamite
Ġne mes
Ġat rocious
ĠG am
Ġshe nanigans
ink le
ig i
ig erent
Ġtr ot
Ġtr ibal
Ġshit faced
ab orate
ĠL un
ĠN im
ĠO uts
os igan
ĠP y
ĠF owler
ri o
Ġpl asma
Ġpe ak
ĠR ather
ĠR af
Ġar k
Ġcom ics
ath on
up iter
Ġgir affe
Ġch ol
Ġpo ets
Ġover se
Ġover look
Ġover time
Ġun married
Ġdeath bed
Ġdis int
Ġdis orders
Ġblack est
ich ton
Ġsw ab
Ġfl unky
ĠSt ud
Ġche mo
Ġkind er
Ġcha st
Ġdest ination
ĠCh ubby
Ġsk ater
Ġsk illed
og ical
ail ing
Ġper sec
Ġspe ck
Ġgra vel
ope y
Ġperson nel
Ġleg ally
Ġhalf wit
ete ers
Ġwalk er
the less
Ġinc arn
ork osigan
Ġpsych ologist
Ġpsych osis
Ġsqu ire
Ġweird er
Ġfree way
Ġmet er
ĠJohn nie
Ġprot ested
ĠMan ning
ĠDr u
Ġind icated
oop ers
ĠHer b
cl uding
Ġpur g
Ġext ortion
Ġstom ped
Ġabsurd ly
Ġsal ute
Ġscr am
Ġclub bed
Ġesca pes
Ġobs olete
Ġur n
Ġcommand ing
Ġstrang est
zz ly
Ġev al
Ġbare foot
Ġpos se
ĠNe ville
ov al
Ġcourt es
Ġsun shine
Ġeight een
Ġdev out
Ġdev otion
ĠSte in
Ġvis its
Ġhost s
ĠCon rad
ĠRic an
Ġthick er
Ġupset ting
ĠMon ty
ĠCha vez
Ġalcohol ics
Ġtick ing
Ġriver s
Ġcab bage
udd its
aff er
Ġcas inos
ĠCr ichton
Ġboard ing
Ġcann ibals
ĠPhil ipp
ĠMag rat
Ġiss ued
ĠJud ith
Ġsour ces
Ġstat ut
Ġvol ts
Ġnin jas
Ġmel od
Ġrece iving
ĠTer min
Ġsepar ation
isc ip
Ġrum ours
dog s
Ġbowl s
St upid
ĠRa fe
Ġinstinct ively
ĠEmp ress
Ġconce ived
Ġsmugg le
Ġharass ing
ĠDes mond
ĠPet ers
Ġwing ed
ĠEve lyn
ĠSa igon
ros se
Ġess ay
ĠLy nd
ĠGal en
Ġdelight ful
Ġgest ures
ĠBeck ett
ĠFore ign
Ġdy ed
Ġeld ers
Ġvar iety
Ġadminist rator
ĠMu hammad
Ġfrequ ent
ĠStra ight
Ġenthusi astic
ĠMind y
Ġreneg ades
ĠNad ia
ĠCard ass
ĠMort on
ĠOlymp ic
Ġobst acle
Ġfrown ed
ĠDol ph
Ġaber rant
Ġinherit ance
ĠTot al
ĠBow l
Ġinsp ire
Ġdiagn osed
Ġgrind ing
ĠMem phis
Ġpubl isher
ĠAx l
Ġbeet les
feed ing
ĠBritt any
Ġhypnot ized
Ġexhib ition
ĠFull er
Ġimprison ed
Ġaccus ation
avan augh
ĠPir ate
Ġphotograp her
Ġcush ions
ĠGrol ims
ĠMagn um
Ġrecy c
ĠDaw son
ĠKit chen
adel phia
ĠLion el
ĠBrun o
ĠAmaz on
Ġmalar key
ĠSerb ian
Ġarson ist
Ġresurrect ed
Ġunhe althy
Ġatroc ities
Ġnam eless
Ġmalev olent
Ġhelm ets
Ġclich Ã©
Ġencoura ging
Ġtranqu il
Ġcyan ide
Ġwatermel on
ĠRams ay
Ġgenoc ide
Ġtriump hant
ĠGesser it
Ġantibiot ics
ĠTleilax u
ĠDumbled ore
% ,
1 3
1 9
F O
K ing
O ur
` `
a ires
b od
b elt
b ryan
c ond
c ia
c ott
f ing
j it
l ay
m our
r ish
t rained
v oc
ou x
in nam
Ġw ield
Ġw ages
re k
Ġy uck
Ġy akuza
Ġb io
Ġb aker
Ġd ye
it ters
Ġf unk
Ġf oss
ing ed
Ġc ath
Ġg ums
Ġn ip
om o
ar ound
Ġk os
im my
Ġst ance
al f
Ġr anger
ĠT ough
ĠT iny
ver ing
Ġwh irl
Ġwh ims
ĠS ie
ĠW ent
ĠW ally
ant on
ĠY ard
ch t
ch ment
ĠA M
ĠA im
Ġwhat soever
Ġde an
Ġso y
ĠM P
ĠM ans
ĠB ree
Ġab yss
ĠC het
ĠC otton
ĠC EO
ĠG ut
ĠG io
Ġman ne
um i
art ial
ĠL ill
ĠL ick
ĠL iving
ĠL ila
el come
ĠO cc
ĠP hy
ĠP istol
ri est
Ġpl ast
Ġnow adays
Ġsp a
Ġv it
Ġv ia
Ġv ows
Ġv ibe
Ġdamn ing
qu ist
Ġby pass
Ġsc aly
ĠE thel
Ġbr ood
oy ant
em ed
ud i
Ġpro st
ĠK y
ĠK ol
ĠK az
ip ed
be en
Ġthr usting
ort s
Ġcr unch
Ġcr onies
ĠTh rough
Ġdis like
Ġsw ap
iz ers
ĠShe ll
Ġmon og
Ġcar riage
Ġcar riers
ĠSt if
ĠSt ack
ĠSt uff
ĠSo ze
ĠSo oner
ord inate
Ġsle w
ump et
Ġbrain iac
ĠCh ili
ĠV el
ĠV ance
ĠV ien
ĠV orkosigan
Ġte at
Ġhar py
ĠBe et
Ġgra cious
Ġgra zers
oc rat
Ġsupp er
Ġgl itter
Ġbo ards
Ġbo zo
Ġdec line
Ġ2 000
Ġsit es
Ġbehind s
iv als
act us
ĠFr itz
ĠBl imey
Ġpick up
Ġent it
ĠChrist y
Ġfing ered
ĠAl aska
Ġmiser ably
Ġsqu alid
Ġinf amous
ĠJack ass
Ġconf ine
Ġpen ance
ubb ing
Ġjerk in
bl ind
Ġra ven
Ġind icate
Ġtest es
Ġbra kes
Ġporn ographic
Ġyell s
Ġsuper ficial
Ġstep brother
Ġrip s
Ġext ent
Ġdangerous ly
Ġcond o
Ġgang b
Ġbell igerent
Ġdefe c
Ġbox ers
what ever
Ġque ue
Ġobs erv
Ġobs erve
ĠEl bryan
Ġcorp oral
Ġpretend s
Ġbow ed
Ġpot ty
Ġtight en
Ġdev oured
Ġrad ius
Ġslap s
ĠGoddamn it
Ġkidna ppers
ĠSl ade
Ġexam s
Ġcirc led
Ġdirect ing
ĠCha mp
gu ards
ĠCarl a
Ġver bal
Ġspl itting
Ġpost man
work ers
Ġcrow bar
ĠWait ing
mon key
Ġpill ar
Ġaut umn
ĠHu bert
Ġspo ilt
Ġpil grim
Ġpump s
Ġswim s
ĠSon ia
Ġbon kers
Ġquit ter
Ġreve rend
ruct ed
Ġsnow man
Ġlack ed
Ġtyp ho
ĠDet ritus
van ia
Ġaud acity
Ġcondition ing
Ġshith ouse
Ġtent acles
ĠFer na
Ġbi ology
ĠBrother hood
Ġdepend ent
Ġunp ro
Ġtoler ant
Ġwag ons
Ġagg rav
Ġassoci ates
ĠGab rie
ĠPet erson
Ġcere mon
ĠBat iatus
Ġtext book
Ġimper tin
Ġleap ed
Ġast rol
Ġspect acular
Ġmartyr s
Ġrecru ited
Ġpra ising
Ġoccup y
ĠNik ki
ĠHay es
Ġspark s
Ġstir red
ĠDutch man
Ġimmort ality
Ġward robe
Ġperpet rator
Ġveh icles
Ġbatt alion
bell ied
Wh ite
ĠCliff ord
On ly
Ġexting uish
Ġinit ially
Ġmasc ot
Ġobsess ive
Ġdup lic
ĠCec il
Ġobliv ious
Ġpine app
ĠNar c
Ġoy sters
ĠBron x
Ġdolph in
Ġgrie ving
ĠViv ian
Ġparl iament
Ġiv ory
Ġpans ies
Ġmalign ant
Ġblurt ed
Ġfurna ce
Ġglor ified
Ġfors aken
ĠLec ter
ĠUkrain ian
ĠBax ter
Ġcauld ron
Ġliz ards
antan amo
Ġstatut ory
innam on
% .
A B
H er
L I
M en
M urd
b as
b ourne
c re
c ill
d i
d ressed
n ourished
p ill
p hab
r ance
r ange
r unning
s ighs
t ic
t il
t eller
w d
y ah
Ġt akin
Ġs is
Ġb ong
Ġb umbling
Ġm are
Ġm ode
Ġm akin
Ġd we
Ġd andy
Ġc erv
Ġl ashed
Ġhe ed
Ġp ist
Ġp ry
Ġand roid
Ġh ulk
Ġh iccup
or o
en f
Ġha vin
Ġe arr
Ġe uthan
Ġst ifle
Ġsh ins
Ġr ains
am ish
ic eless
Ġdo ve
ĠT ut
ĠT og
ĠT ito
Ġan om
ĠS alem
ĠS opran
ĠW ish
ĠW IT
Ġre ver
Ġre vel
Ġj a
Ġj eez
Ġse lection
Ġout come
Ġout fits
Ġhis sing
Ġup right
ent in
ĠM ul
ĠM ath
ĠB un
ĠD irk
ĠC ond
ĠC aucas
ĠG ul
Ġwill y
Ġman uf
Ġtr out
um ably
um bered
our bon
Ġsu bl
ab ilities
ĠL ope
Ġoff al
ĠN ero
ĠJ i
ĠJ upiter
ĠO mega
ĠP ea
ĠP ress
ĠF un
ĠF ist
ĠF ol
ĠF ib
ĠF Ã¼hrer
own er
Ġpl um
ĠR ound
ĠR anger
ĠR acer
Ġv oc
Ġar c
Ġdamn it
Ġsc re
Ġcon se
Ġag ing
Ġass aulting
Ġcl inging
Ġgir ly
Ġch ili
ĠK om
ĠK ang
Ġover c
Ġover ly
Ġover throw
be ing
Ġun for
Ġun wise
Ġen for
Ġday time
ian g
ang ing
Ġdis k
Ġgr ades
Ġhat er
ĠSt ro
Ġcha ps
Ġdog gie
sy l
Ġhar mon
Ġfun ctions
Ġmin ing
Ġwar med
Ġwar head
Ġleg ions
Ġlive ly
Ġrest ored
Ġcour ier
Ġapp e
ĠWho le
iv ate
Ġdisg raced
Ġmis fits
Ġste aming
Ġap ocalypse
ĠAl ban
ĠMay a
Ġset up
Ġinter vention
Ġcons ent
pr op
Ġsmall pox
Ġgre eted
Ġbar ber
Ġpen it
Ġpen nies
Ġprot ein
ĠMan ch
ĠSc ream
Ġsign als
Ġ5 2
Ġra ft
Ġra ises
Ġdep osit
Ġref lected
Ġpast e
Ġtrans mitted
Ġtrans gender
Ġdrag s
Ġsal ami
Ġfear less
ĠDick inson
ĠGu inea
Ġmut tering
Ġhero ism
Ġsurv ives
Ġmusic ian
Ġemp has
Ġenjoy s
ov ic
Ġmot to
Ġcent imet
Ġdev oid
ĠEx claimed
Ġvis itor
Ġaff l
Ġheal ed
Ġsoft ware
Ġice berg
arch y
ĠMart ine
Ġlarge ly
ĠMic ha
ER E
Ġincomp rehensible
Ġgenius es
Ġgut less
ĠMax well
ĠCo venant
Ġspec im
Ġsed ative
Ġextra vag
ĠEn zo
ĠGl ob
Ġphys ic
Ġphys ics
ĠPhil adelphia
Ġsaving s
ĠBel gian
add ock
Ġcompet ent
ES S
Ġgall ons
ĠEric a
ĠDel ta
Ġje ep
Ġvul va
Ġbos sy
Ġwid ows
Ġmult i
Ġport ra
Ġox en
Ġash ore
ĠMil ton
resp ond
Ġwaitress es
Ġunw itting
ĠMo ist
Ġremark ed
Ġscrap ing
Ġcapital ist
Ġfrak kin
dr ive
Ġsimpl er
ĠSoviet s
ĠDor othy
Ġmath s
Ġdisrespect ed
Ġchap el
ĠStri p
Ġconqu ered
ĠPen is
Ġrig id
ĠTha i
Ġdecor ations
Ġtrib un
ĠHoll ow
bird s
Ġtransl ate
Ġmeas ures
Ġvent ure
Ġaccomp any
Ġmedioc rity
Ġgigg ling
Ġranc hers
Ġcritic ize
Ġfingerna il
Ġsor cery
Ġcul pr
Ġtraff icking
Ġblasphe mous
Ġexting uis
Ġtack le
ĠGeor gie
Ġobsess ing
Ġstrict ly
Ġdelinqu ent
Ġmold y
Ġcaps ule
Ġprovoc ative
god damn
ĠLil ith
ĠBarr ay
Ġprett ier
Ġprejud ice
Ġadoles c
Ġinsert ed
ĠIll yan
Ġsharpen ed
Ġhench man
Ġbaz ooka
Ġallig ators
Ġrupt ure
Ġsumm oned
ĠGarr aty
Ġorigin ally
ĠCord elia
Ġindec ent
Ġfreck les
arat us
ĠFoll ow
Ġbron ze
Ġfloo zy
ĠBroad way
Ġstagger ing
ĠHaz el
anth rop
Ġphen omen
ĠGott fried
Ġobliter ated
Ġinevit ably
Ġtoen ails
Ġconserv ative
Ġepide mic
ĠSoc iety
Ġimpover ished
ĠAssoci ation
ĠMyr tle
agm ire
ĠNorwe gian
Ġearr ings
A K
C he
E ven
F at
U D
b uck
b rew
b rained
c ie
c os
c hant
d ered
e ight
f ro
g am
g onna
g ard
k lin
l ap
m us
m il
p uss
s ix
u ating
w re
w ax
in ine
Ġb raid
Ġb orders
Ġm umbling
ha ving
ĠI RA
ĠI gor
er als
or ient
Ġn ons
Ġin mate
Ġin justice
et us
et ary
ke e
Ġe aster
ad ians
Ġst air
Ġst ashed
Ġr ally
am am
Ġu dd
ic ans
ĠT iff
ĠT ae
Ġfor n
Ġan ten
ĠW et
Ġre ference
ant ically
ch uckles
st ill
Ġj ihad
Ġdon ate
ie ge
ie lle
ĠA P
ĠA ve
ĠA qu
ust in
ĠH osp
Ġbut ler
Ġde but
ent ive
ĠM end
ĠM aj
ĠM anson
Ġjust ified
ĠC up
ĠC ros
ĠG PS
ick i
ig en
Ġbl udge
ab itch
ĠL iv
ĠL eroy
ist ani
ĠN ature
ĠJ aff
Ġany ways
Ġle aking
Ġle aked
ĠP i
ĠP arent
ĠF ill
ĠF ly
ĠF og
ol ated
Ġint r
ĠR oose
Ġv oting
Ġhow l
Ġsc hem
Ġcon vent
Ġcl itoris
ĠK are
ĠWe ak
Ġover fl
Ġneed y
ure r
Ġbad ges
Ġblood suckers
Ġmon s
Ġmon ument
Ġfl ayed
Ġfl ogged
ĠSt urm
Ġwork shop
Ġwell s
Ġche ery
per ate
Ġgun ning
ump s
Ġ1 000
ĠV ide
Ġscrew up
Ġpart ial
Ġins in
Ġac ute
Ġmouth piece
Ġte x
ren c
Ġhouse keeper
Ġrun nin
ign ed
ĠBe ating
Ġgra ffiti
Ġcont ext
Ġbutt head
Ġwar heads
Ġres erve
Ġhang man
Ġad minister
Ġide als
Ġbro ker
Ġcomm ie
Ġcomm its
Ġcour ty
Ġcomp osed
Ġsn ores
rist an
act ing
Ġmis chief
Ġdra con
Ġinc ont
Ġfore play
ĠMar lowe
ats u
Ġprom ote
app er
Ġbullet proof
Ġchest s
Ġcock er
ĠAn ubis
ator ium
Ġinv ites
ĠZ er
ĠZ ombie
more d
Ġreg ime
Ġsad dest
Ġcol oured
Ġcol onies
Ġmor ose
ĠTom as
roll ed
Ġsuper st
Ġpur ge
Ġhop ped
Ġclass y
ĠEl iza
Ġsmok ers
Ġdisc red
Ġmut ated
Ġband age
eter a
Ġsol ving
ĠEx press
Ġdanc es
Ġhist orical
ĠMor on
ĠMor an
Ġut tered
ĠCon klin
Ġlim ous
ĠMart ian
ĠAm sterdam
Ġpeace fully
Ġdig ital
Ġalcohol ism
Ġund ers
Ġclim ate
Ġet c
Ġhy gi
Ġvan ish
Ġinvest ors
Ġspl attered
ĠRem o
ĠRem ind
ĠJul ius
Ġcup cake
Ġden ounce
IN E
Ġsed uctive
ĠWal sh
ĠLuc ille
Ġmort als
Ġexter ior
Ġattract s
Ġregret ted
Ġlack s
ĠJud ah
Ġinfl atable
ĠMel issa
Ġlink ed
Ġrese mbles
Ġcave man
ĠDem ocrats
Ġwhack ing
ĠSy stem
Ġow l
ĠFe renc
Ġhen house
ĠGodd ess
ĠCarol ina
Ġlob otomy
ĠJan ice
ĠArab ic
ĠHor ace
Ġorp ha
ĠMo z
Ġing red
Ġing rate
Ġcapital ism
ĠShar pe
Ġexha usting
Ġcomplex ion
Ġalb at
ĠTal iban
Ġroo ft
Ġchump s
Ġfrust rating
Ġcum ulation
Ġregul ations
Ġflood ed
Ġheav ier
ĠRepublic ans
ĠLu ft
ĠAtt ack
know ing
Ġmeas ly
Ġsnot ty
ĠFed eral
Ġpawn s
ĠNad ir
ĠAtl anta
Ġkil omet
ĠCommun ist
Ġoverwhel m
Ġfunn ier
Ġwhim pering
quis ite
Ġprivile ged
ĠMcG ee
Ġloos en
ĠEri k
Ġsurviv or
ĠBed ford
Ġshuff le
Ġbubb ling
ĠCob b
Ġfisher men
Ġcush ion
Ġmac aroni
Ġmoles ter
obs essed
Ġextrem ists
ĠCre ep
Ġtox ins
Ġhench men
Ġdegr ading
Ġallig ator
Ġrept ile
ĠAssass in
ĠBubb a
ĠColumb us
Ġnum erous
ĠBuff alo
Ġswind ler
ĠFem ale
Ġinspir ation
Ġscaven gers
Ġtabl oid
Ġhagg ard
ĠPalestin ian
ĠProtest ant
Ġobscen ity
Ġscorp ion
Ġbrun ette
Ġsixt een
Ġacadem ic
Ġvanqu ish
Ġinsuff erable
atisf ied
Ġdelir ious
Ġspont aneous
ĠCitiz en
Ġdoorkn ob
Ġearthqu ake
ĠDia z
Ġfingert ips
Ġcale ndar
ĠVien na
syl vania
Ġhygi ene
, ......
A m
H ush
L ord
O G
R U
S ha
a vers
c ount
d ist
d les
d ude
f r
f olk
g ling
g raph
l est
l ifes
m i
m ith
s ca
u i
u ition
v ic
v ably
x ter
z ied
z ier
Ġt ug
Ġt ux
he nd
in f
in se
Ġs ul
Ġs iege
Ġb au
Ġb ord
Ġb ribes
Ġm ul
Ġf ink
Ġf als
Ġf idd
Ġc ors
is en
Ġto fu
Ġl ing
Ġl unk
Ġl ime
ed ra
Ġh ive
Ġh oop
es cend
ot on
en cing
as i
om ones
ar cer
at an
at onic
ow itz
Ġha ught
le on
im als
ld ing
Ġst ap
ĠT at
if iable
Ġwh ips
Ġwh ooping
ĠS C
ĠW id
st ed
Ġdon g
ĠA LL
Ġse ct
Ġse ctor
all ows
ur ous
ce eds
ĠH ack
ĠH ak
Ġher bs
Ġde arest
Ġde xter
ĠM Y
ĠB M
ĠB ody
ĠB ord
ĠB ugs
ĠB ottom
il ful
il ized
ĠD ong
ĠC ox
ĠC ourse
ĠG ry
ig a
Ġbl aster
ast ically
ca pt
our ke
est ial
ab ble
ab outs
ĠL ing
ĠL ink
ĠL eah
ĠL ola
ĠN ash
ĠHe w
ĠHe idi
Ġgu lly
ĠP aco
ĠF ury
ĠF resh
own ed
Ġsp lend
ĠR ahl
Ġlo oting
Ġex ile
Ġex ceed
Ġsc otch
ĠE z
ĠE ff
Ġbr im
Ġbr ows
Ġbr ushing
Ġdr ones
Ġch lor
Ġch itc
Ġtw irl
em bered
ĠK ung
ĠK rist
ass an
Ġput a
che ck
Ġover t
Ġmo aned
Ġfat uous
Ġbad dest
Ġsl um
Ġmad house
pl us
Ġcr um
Ġcr ane
ĠTh ou
Ġam oral
ac ro
ang led
Ġsw arm
Ġfl uff
Ġche ering
ĠV ader
Ġrat ty
Ġbrother hood
ĠU na
ĠU ther
icul t
Ġsec ured
Ġunt ied
Ġpret zel
Ġtra ced
Ġcle aver
Ġbaby sitting
Ġpig tails
ĠDo ing
ost a
Ġem bed
Ġgl ancing
iot ic
te ch
Ġstuff y
iv ities
ĠDe al
ĠDe cl
ĠDe fense
ĠBr uen
Ġcur ved
Ġpay ment
Ġpain less
Ġrel ish
Ġret orted
ĠOr cs
ĠAl v
Ġpar lor
Ġcor respond
Ġpun ishing
Ġbag gy
Ġsqu ashed
Ġinter cept
ci o
Ġgre eting
Ġbar ren
Ġstra nded
Ġchar ts
Ġcold ly
ĠZ ha
vel t
erest ing
Ġtest icular
ĠKill ers
Ġann ual
Ġtrain er
Ġbath robe
ĠLe ela
Ġext inction
Ġviol ating
Ġprof ound
ĠBlack s
ĠBlack wood
Ġlesb o
Ġesca ping
ery n
Ġquestion ed
lo ver
Ġlay s
ĠGu antanamo
Ġbum per
ĠGr as
Ġtail or
Ġmaster piece
Ġfail ures
ĠPer vert
str ing
Ġcamp ing
ĠSl ut
ĠSl ave
Ġspecial ist
Ġdirect ors
ĠAng us
Ġinvol ves
ĠBar cel
ĠAh h
Ġpresident s
Ġrelig ions
Ġinvest ed
Ġcrew s
AN T
Ġcas ually
Ġvom ited
ĠHu ndred
ĠSim one
Ġpoo ped
ĠMa ure
Ġcolor ful
Ġcrowd s
Ġest eem
ĠBel gar
ĠTurn ed
Ġspeech less
Ġwra pping
Ġdeb acle
Ġcompet ing
ĠMat ron
ĠMcC arthy
Ġma verick
Ġirrit ate
ĠEr in
Ġtend s
ios o
py cock
Ġburst s
Ġ25 0
Ġgig olo
ĠShan g
ĠKat rina
Ġcloud ed
ĠCount ry
Ġcrit ics
Ġtoler ance
Ġblackmail ing
Ġcere al
Ġclin ical
ĠSqu ad
Ġye ast
Ġcord s
ĠCent er
Ġcorrect ly
ĠCap one
ĠIsrael is
Ġmall et
Ġjudgment al
ĠReg is
ĠYOU R
Ġimmig ration
OT H
ĠCong ratulations
iser able
Ġmop ping
ĠCole man
Ġwithdra wn
Ġscorn fully
ĠNad ine
Ġoverwhel ming
ĠAdd ons
Ġcuck old
ĠKl atch
Ġsodom ite
ĠUniver se
Ġcocon uts
Ġramp age
Ġgle e
cont rol
Ġlam bs
Ġshuff ling
Ġhay st
Ġoblig ed
Ġine ffic
Ġstup or
ĠLor i
ellig ent
Ġstall ion
Ġalleg iance
Ġobt ained
Ġnod ding
ĠIsab el
Ġreflex es
Ġoo zing
Ġanarch ist
Ġabsor b
Ġevident ly
ĠLuck ily
Ġdolph ins
ĠTai wan
ĠVlad imir
Ġstere o
Ġunlock ed
Ġdow ry
Ġdischar ge
ĠJos ie
ĠIsh ido
Ġunner ving
ĠBil bo
Ġchauffe ur
Ġepile ptic
Ġcandid ates
ĠLaf ayette
Ġalmond s
Ġdag gers
Ġderel ict
Ġabrupt ly
suff ering
Ġpave ment
ĠWOM AN
Ġnemes is
Ġpurg atory
phab et
Ġmanuf act
ĠMicha els
Ġextinguis her
ĠRoose velt
Ġalbat ross
Ġchitc hat
ĠBarcel ona
! âĢĻ
, ..
? )
D A
F ool
H ot
I I
L ittle
P ig
S er
b ug
b astard
b ins
c age
c ans
j or
l ipped
n ar
n igger
o i
s i
s ick
s uch
u ire
w ow
w ant
w ild
z one
z zy
Ġt ad
in x
Ġy ab
Ġm ri
Ġm ugs
ha ir
it age
ĠI RS
Ġf ainted
Ġc ot
Ġc ack
Ġo st
Ġo ily
Ġo min
Ġg ash
Ġl ash
Ġl ance
Ġl ining
Ġp act
Ġp ortion
Ġh ubby
Ġh ousing
Ġh uddled
or ial
es ters
as ley
us ively
et es
Ġon stage
Ġe up
Ġli king
gh ole
Ġsh udd
ĠT ast
ĠT ate
ĠT anya
ĠS ag
ĠS oul
ĠS AM
ĠW AS
ĠY ug
Ġj ocks
ĠA UT
Ġse am
ur ance
Ġout n
Ġout st
ĠH ait
op ic
ĠM au
ĠM outh
ĠM illy
ĠM ental
ĠM orning
ĠB one
ĠB orn
ĠB ureau
ĠD ull
ĠD ICK
Ġne o
ĠC er
ĠC ed
ĠC atti
ĠG iant
Ġor nam
Ġbl at
od ore
Ġshit heads
ul an
Ġsu ede
ab oo
ĠL ore
ĠN ations
ĠN orton
ĠJ A
ĠJ asper
ain es
Ġle ase
Ġle wd
ĠP ast
ĠP oke
ĠP ork
ĠR unkle
Ġv oca
Ġex asper
Ġback bone
Ġsc ored
Ġsc urry
ĠE t
ĠE lf
ble m
Ġcon verted
Ġdead line
ty pe
Ġch ic
Ġtw ig
th orne
ĠK il
ĠK ILL
ĠWe ek
ĠWe ather
Ġpr iceless
ob ody
Ġhand les
Ġco jones
Ġshoot ings
be ard
Ġun marked
ĠTh us
ac s
ich i
Ġgr umbled
ber ries
ĠShe pherd
ug er
Ġfl or
ĠSt rick
Ġlove making
ĠSo x
ĠSo cial
Ġunder go
Ġunder belly
ĠSh ove
Ġafter life
Ġgun ned
ĠCh ow
Ġins ists
Ġsk anks
Ġrat ings
Ġson of
Ġel aborate
ĠBe ir
iet ies
les h
Ġleft overs
Ġsupp ress
Ġres id
Ġres ume
Ġad ored
Ġneck line
Ġbest ial
Ġcomm ence
Ġbo geyman
Ġdec ree
Ġ2 9
Ġpiss ant
ĠThere fore
Ġsn ipp
act ory
Ġyoung ster
ĠBr its
ĠLet o
het ical
Ġaw ards
Ġret ro
Ġret ribution
Ġdem e
Ġble nder
Ġble ach
Ġpar ish
me leon
ĠMar issa
Ġbag gage
Ġinf ested
Ġcock erel
Ġforget s
Ġ3 7
Ġchar ms
Ġread ers
ĠSc ots
ĠCan yon
ru ce
Ġdep uties
Ġsil enced
Ġsub mission
Ġemb od
ĠWill ow
Ġopp ressed
Ġvill a
Ġcal ves
Ġdirt iest
und ered
ĠGr ound
ĠNe anderthal
ov ich
ĠMiss y
Ġsol itude
Ġpleas ures
Ġpersonal ities
Ġce ased
asm ine
Ġhost ing
Ġoper ated
ĠMor ty
Ġspecial ty
Ġant ics
ĠChe f
hard t
Ġbreat hes
ĠAm ish
Ġapolog izing
Ġhunt s
cha ble
sc reen
gu y
ĠDan ielle
ĠBoy le
Ġtarget ed
Ġval ve
Ġthin ner
Ġorgan ism
ĠBull et
ĠJul io
Ġseat belt
Ġfresh ly
Ġadm ired
Ġbene f
Ġmal ice
Ġcart on
Ġdisgrace ful
ĠBra gg
Ġmix ing
Ġneg lect
Ġenc han
Ġmatch ing
ĠEurope ans
load ed
pend ing
Ġshock ing
Ġodd ly
amm ar
ĠLouis iana
ĠRo ark
sl ap
Ġdisp ute
Ġnoble man
ĠGar ret
ĠShould n
Ġchat ty
Ġport al
Ġscal ped
Ġmas quer
Ġwis er
Ġreleas ing
ĠHold en
ĠPri ze
Ġsacrific ing
Ġmanipul ate
hab ited
Ġsaf est
Ġconce aled
Ġsting ing
Ġprec ip
Ġblackmail ed
Ġtwist ing
ĠDar win
than k
Ġtramp s
Ġclin ics
ĠSher man
Ġbuzz ing
ĠCy ber
Ġshat ter
ĠWood cock
Ġdang le
ĠYear s
Ġfantas ize
Ġreek ed
Ġconcl ude
Ġfel ons
Ġmarks man
Ġhack ing
osc ope
did n
Ġfu zz
ĠNik ol
every one
Ġindust rial
ĠBor is
ĠIslam ic
Ġknuckle heads
Ġsuspic ions
Ġtang le
Ġsuppl ied
ĠColomb ia
Ġrect al
Ġpersu ade
abs or
ĠCard inal
ĠArm strong
Ġsqueal ing
Ġprophet s
Ġfrown ing
Ġchunk s
Ġsire n
Ġnecess ity
Ġsque amish
irc um
Ġsplin ters
Ġloos er
Ġcaress ed
ĠFal se
Ġannounce ment
ĠOp rah
Ġprob ation
Ġshrie king
Ġtush y
ĠGret chen
Ġintimid ated
Ġintimid ating
bet ween
writ er
Ġted dy
ĠPir ates
Ġphotograp hed
Ġmolest ing
bul ary
ĠProp het
Ġcru elly
Ġrecy cle
Ġalleged ly
Ġimpatient ly
Ġpsy ched
Ġspar rows
ĠChap ter
Ġflex ible
ĠSold iers
Ġnecrom ancer
ĠRev olution
Ġcraving s
Ġzeal ot
ĠWorth less
Ġconfisc ated
ĠHoff man
ĠEnter prise
Ġskelet ons
Mur phy
ĠGin ny
Ġscur vy
Ġirresist ible
ĠChair man
Ġcontag ious
Ġinhabit ants
Ġmitt s
Ġmelanch oly
Ġbacter ia
gart en
Ġlonel iness
Ġunspeak able
Ġapprox imately
Que en
Ġmour ning
Ġkos her
ĠMartine z
Ġbludge oned
Ġorpha nage
ĠBruen or
Ġvoca bulary
' '
4 7
E LL
L ea
S P
S ee
b rand
c u
d el
f aggot
g ues
h inc
h wy
j oice
l isten
m ust
p orn
r t
r ative
y ers
Ġt renches
Ġa ux
in erate
Ġs ulf
Ġs hank
Ġm ant
Ġm unch
Ġm ashed
ha ven
nd s
Ġc one
Ġc ass
Ġc actus
Ġc innamon
Ġc etera
is n
Ġg imp
Ġg rove
Ġp ing
Ġp her
Ġp ian
Ġp osed
Ġp aka
Ġh umb
Ġn an
Ġn ads
en as
as se
Ġha unches
ill er
Ġme ad
Ġst unning
se ek
ic ating
ĠT ib
ir led
Ġfor g
ĠS aur
ĠW ig
ĠW anda
ĠW retched
ant er
Ġse wn
all ion
Ġas hen
Ġkn itting
ĠH un
ĠH amp
Ġnot ions
Ġher itage
ĠM ent
ĠM ardi
Ġcan cell
ĠB ak
ro ck
Ġfr ank
Ġfr antic
Ġfr antically
ĠD olly
ĠD odd
ĠD ixie
ĠG ill
ĠG est
ĠG ail
ĠG row
ĠG oof
ĠG iving
ick le
pp le
ag i
Ġsa iling
Ġsa ils
ĠL ag
ĠL ark
ĠL oren
ĠL undy
ĠJ or
ĠJ ock
ĠJ ax
ĠJ orge
ĠJ offrey
ĠHe ath
ĠP ie
ĠP hantom
ĠF res
ĠF aye
ol ving
ri ot
Ġpl under
Ġpe ered
Ġsp hinc
ĠR ule
Ġsee ks
Ġsc i
Ġsc amp
Ġdr ought
Ġdown hill
em en
Ġpro hib
ĠK ee
ĠWe e
ĠWe aver
ob i
Ġover re
Ġover rated
Ġover bearing
Ġbet s
Ġthr ott
Ġcall in
Ġen velop
ĠTh ur
ĠTh reat
Ġgr id
Ġsw ings
Ġsw oop
Ġcar p
ĠSt ory
Ġshut tle
Ġnight fall
Ġgun point
ne c
ĠV is
ĠV og
Ġins ight
ĠU sing
oc us
Ġmin us
ere al
amp hy
Ġres il
Ġres isted
Ġmar gin
so le
Ġgl aring
Ġgl ittering
ĠIn n
Ġapp aratus
the ir
Ġob it
Ġcur l
Ġcur ls
Ġinc inerate
unt s
Ġap athy
Ġrep ell
ĠAl ready
ĠMar ion
Ġinter ference
Ġinf at
Ġinv alid
ĠZ one
ĠZ ip
Ġair line
arl iament
ĠNew t
Ġdet erior
bl ow
Ġind is
ĠKill s
Ġmed s
Ġboo ger
Ġemb ro
ffe y
Ġsuper mod
Ġdisapp ointing
ĠSam son
Ġscr atches
Ġmass ages
Ġguns linger
Ġjack al
ĠSha dd
ĠEl ton
ĠPe ck
Ġdisc arded
Ġcontin uing
Ġunc ircum
Ġfra ction
Ġwhis ky
Ġring er
str ual
ĠPro ject
ĠAb ner
ĠMe ans
Ġsuggest ions
Ġcheap er
Ġapartment s
Ġequ ation
Ġisland s
Ġform ula
Ġcivil ised
Ġmission ary
ĠSw ine
AN D
ĠRed ding
Ġknee caps
Ġconsider ation
Ġju vie
Ġty coon
ĠGl ock
Ġcult ures
Ġcelebr ated
ĠEdd y
Ġdwarf s
Ġtrad ing
Ġbon ing
Ġconst ip
Ġgro cery
Ġsack s
Ġpred icted
ĠWall ing
Ġgate way
ĠBea uty
ĠFat so
Ġadult erer
ĠEast wood
Ġvol ume
Ġstock ings
ON E
ĠDra gos
Ġfasc inated
ĠLat if
ĠLat ino
Ġgrass hop
ĠTor ch
bb ling
ĠKim ber
ĠChurch ill
Ġliber ate
Ġexcl usively
Ġfold er
Ġfund s
Ġcomfort ing
Ġrul ing
Ġgym n
Ġpopular ity
Ġrail ing
Hell o
IC E
ĠMed ic
Ġdod ging
ĠCap ric
Ġfond ness
ĠDE ATH
Ġfrust ration
Ġdrum mer
Ġbond age
ĠSwed e
ĠAndrew s
Ġcorrid ors
ĠKra uts
Ġcarn al
Ġeth nic
Ġsorcerer s
Ġqual ified
ĠAv atar
ĠPak istani
ĠLaure l
Ġsanct ity
Ġmilit ant
Ġsqueal ed
Ġpup il
Ġpoll uted
ĠVag ina
ĠDomin ican
Ġneat ly
Ġcaut ion
Ġcrus ade
Ġimprison ment
Ġnav al
Ġdepart ure
acc id
ĠAR CHER
ĠAbs olutely
Ġamp utation
Ġpearl s
Ġamer ican
ĠStab bed
Ġcontrad ict
Ġpurcha se
Ġpi Ã±
Ġvigil ante
Ġrehears al
Ġjag ged
Ġpim ples
ĠPed ro
Ġcater pill
Ġtrop ical
Bull shit
Ġlac rosse
Ġliken ess
Ġoutd ated
Ġreluct ant
ĠStephan ie
ĠLeagu ers
mort em
Ġlethar gic
Ġcower ing
occup ied
ĠOuts ide
Ġchol era
Ġaggrav ated
Ġpineapp le
ĠLope z
ĠHosp ital
Ġmons ieur
Ġcourty ard
Ġsuperst ition
Ġcrum pled
acro ix
Ġoutst retched
ĠSaur on
ĠGest apo
L O
N N
O u
P ong
S on
S ir
S ec
T om
b os
b ased
b ottom
f ork
f essional
g ence
g ically
g ently
h zny
i ably
i ques
j ah
l en
l ah
m ute
m ere
n ose
o z
o herent
p ushed
s ize
t ill
t em
t aking
u er
v age
w ipe
x y
z heimer
Ä į
æ ĺ
Ġt ha
Ġt as
he w
he el
Ġa ura
Ġa iding
ou ching
ou rable
Ġw ry
Ġw ager
Ġs id
Ġthe oret
Ġy ork
Ġb ast
Ġb ip
Ġm ace
Ġm ules
ha pen
Ġd ynam
it arian
ĠI g
Ġto ll
Ġl atch
Ġl ashes
Ġhe in
ed om
ot hered
Ġth irteen
at cher
Ġbe nder
Ġk ry
id iot
im sy
ld e
ke mpt
Ġst o
Ġsh one
Ġr ut
se nd
ir ie
ir able
ra ff
ĠS ven
ĠW itness
Ġre jo
Ġre new
Ġj og
ie ving
ĠA W
ĠA ly
ĠH ut
ĠH ale
ĠH anks
ĠH istory
ĠM ummy
ĠM AR
ĠB ust
il st
Ġfr iction
Ġwho les
ĠD ot
ĠD oll
ĠD rey
ĠD uddits
ĠC T
ĠG n
ĠG ant
ĠG ren
ook y
Ġbl ushing
hing ed
Ġtr ance
ag ull
ca re
ab bed
ĠL ed
ĠL illy
ĠL ey
ĠN ut
ĠHe e
Ġus ers
Ġcra pping
os uction
ĠP av
ĠP arliament
ĠF ant
ĠF ix
ĠF aster
Ġpl umb
ĠR A
Ġlo be
Ġv otes
Ġex h
qu iet
Ġbr ushes
Ġfe es
Ġcon sole
Ġass et
Ġpro ving
Ġpro vin
ĠK ha
ĠK ap
Ġmake over
che l
Ġhand job
Ġhand writing
be k
ff er
reat ed
Ġun ite
Ġun ited
Ġun ruly
Ġqu ir
Ġsl ugg
Ġsl ashing
Ġcr an
Ġcr umble
Ġcr ouched
ĠTh orne
ĠTh ieves
Ġam id
Ġdis em
Ġgr ams
Ġcar ic
Ġfl oss
Ġfl ows
Ġfl inch
Ġro aming
ĠSt ring
per t
Ġcha otic
Ġcha meleon
ait lin
ne cked
Ġreal istic
ĠCh ill
ĠV all
Ġpart ed
pe rer
ĠU FO
Ġgra pes
Ġgra hzny
Ġbab es
Ġeyes ight
Ġwar fare
ĠDo e
Ġleg it
Ġhard core
Ġrest rict
Ġgl owed
Ġdec iding
Ġcomp ulsion
omb re
av id
iv able
Ġyoung est
Ġsca b
Ġpay back
end s
Ġinc urable
Ġinc arcer
Ġinc oherent
ĠChrist ie
att ack
ĠOr d
Ġpar al
Ġpar am
Ġpar chment
Ġexc ites
Ġfreak ish
ĠMar ge
Ġbeaut ifully
Ġmorn ings
Ġsqu id
Ġgre et
Ġ3 4
ĠSome how
Ġchar red
Ġsy n
Ġbook worm
Ġadd ressed
Ġvir uses
ĠSc arr
Ġsign ific
Ġord eal
Ġ5 5
ru an
Ġind isc
Ġ4 4
Ġpack et
Ġcond escend
ĠQu entin
ien ne
Ġpub es
Ġdi aph
ific ations
Ġwild erness
ĠSam urai
Ġhuge ly
Ġmer it
Ġconc ussion
ighb or
ĠEl ves
ĠPe eps
Ġur inal
Ġur gent
Ġcell ul
Ġcrack ers
Ġhorn ets
Ġsna ps
Ġjok ed
ĠNor a
Ġsoft ie
Ġreport ing
Ġmod ified
ĠPl aying
Ġbat hing
Ġequ als
Ġequ ipped
Ġequ ality
ĠEm il
Ġsav vy
ĠGood bye
Ġcollect s
Ġpal ms
Ġver b
Ġrecogn ised
ĠPar adise
Ġspl ashing
Ġpost men
Ġtem pting
Ġparas itic
izz ard
ĠBull ock
Ġ19 5
ĠCr ime
rid iculous
Ġ8 5
IN K
Ġduck ling
light s
ĠSim mons
ĠWor st
ĠMa e
Ġax es
Ġwip es
ĠSil ent
Ġview ers
Ġilleg ally
Ġgro cer
Ġident ification
Ġfalse ly
Ġped ophiles
Ġblunt ly
ĠCall ing
Ġconvers ations
ĠMel vin
Ġstat istics
ĠRog ue
Ġaware ness
ĠRo han
Ġfac ial
Ġfac ulty
ĠSpe c
Ġyouth s
Ġstro kes
Ġgri zzly
ĠDaniel s
Ġleather y
ĠMil k
ĠHam let
Ġexcl usive
Ġamount s
Ġunp ack
Ġfold ing
Ġtrous er
Ġjackass es
Ġrug by
ĠDes ert
bur gh
ĠHard ing
ĠBeat rice
Ġcy ber
Ġlat rine
ĠWes ley
nat ured
ĠCy cl
Ġnegoti ation
ĠBrand y
bre aking
ĠJon ah
ĠDu chess
Ġbail ed
ĠCow boy
ET H
Ġhorr ific
ĠSwed en
Ġbrainw ashing
Ġfornic ator
ĠTre v
ĠLu ca
Ġfunction ing
ĠAtt orney
ĠKra ut
ĠLight ning
Ġrav aged
Ġstomp ing
Ġtransl ated
Ġlabor atory
sk ull
Ġexception al
Ġhind quarters
ĠRad io
ĠFro st
ĠÎ ¤
Ġconfront ed
ĠLang ley
Ġruff ian
Ġorc s
cross ed
ĠDVD s
Ġfuss ing
ĠExec ute
Ġfortun ate
Ġveter ans
Ġinit ial
ĠKent ucky
Ġlyn ched
Ġtermin al
Ġhemorrha ging
Ġ*** *
iche ver
Ġtheat re
ĠTea ch
ĠMantic oran
ĠCry stal
Ġrend ered
Ġinfilt rate
Ġfertil izer
Ġnymph omaniac
ĠSU V
ĠDim it
Ġathlet es
Ġadvers ary
ĠSic ilian
Ġdat ab
ĠEmm ett
ĠHoo ver
ĠGoo gle
Ġbou quet
ĠRuf us
Ġferoc ious
ĠCrist ina
Ġsleaze bag
Ġanore xic
Ġintol er
Ġsidel ines
ĠPent agon
ĠComplete ly
ĠHag rid
ĠHann ibal
Ġarcha e
Ġfatig ue
Ġrefriger ator
Ġtreas ures
ä½ ł
ĠSey mour
ĠKru ppe
Ġbloods hed
Ġtaxp ayers
Ġdisint eg
affer ty
iscip lined
Ġentit led
ĠGabrie lle
Ġspecim en
Ġculpr it
Ġshudd ered
ĠBeir ut
Ġuncircum cised
ĠDragos ani
Ġkry pton
B urn
C L
C AR
F L
G E
P e
P EN
S S
S em
T hank
a ca
b uk
c har
c ings
f il
g ia
h ile
j amas
l iness
l ocks
l eng
m ia
m und
o W
p able
p ipes
r ide
s in
s erv
t ag
w ha
w ling
w earing
z ick
Ġ âĢĻ
Ġt v
Ġt ents
Ġw ob
Ġw iggle
re cy
Ġb ub
Ġm umbled
Ġd aff
it ous
ĠI rene
Ġc ylon
Ġo mel
Ġl ament
Ġl ava
Ġl oners
an ese
an ova
Ġhe ra
Ġhe ist
Ġn ug
en o
en quist
as ive
om ore
ar in
Ġbe ards
ld ed
... ?!
ad os
Ġli ly
Ġst ave
al m
Ġr oug
ĠT ear
ĠT ampa
ĠT ristan
ir on
Ġfor ger
ra x
ĠS ween
ĠW ine
ĠW rite
st o
st en
st reet
ĠA K
ĠA bed
ĠA men
ur st
Ġout standing
Ġkn ickers
ĠH anson
Ġso res
ent on
ĠM ing
ĠM ace
Ġcan ary
ĠB are
il ight
Ġfr ills
Ġfr inge
ĠD wayne
ĠC ay
ĠC ats
ĠG oose
ĠG aul
ĠG allow
ĠG erry
ĠG uns
Ġbl ubber
pp s
onna ise
ul ence
and o
ĠN ess
ĠN ope
ĠO ops
Ġal ter
han sa
ĠP om
ĠP ablo
ĠF ast
ous in
Ġint el
Ġpe g
ĠR ak
ĠR az
ĠR io
Ġlo vable
ate e
Ġsc arlet
ap ed
ĠE ating
Ġsex es
Ġcl ues
Ġthan ked
Ġsm othered
em on
iss ed
ĠK ell
Ġpr isons
ob ots
Ġover priced
Ġun z
Ġun kempt
Ġun hinged
Ġsl ur
Ġsl og
Ġsl ander
Ġsl udge
âĢ ľ
ect or
pl ated
Ġblood lust
Ġcr ops
nder ing
Ġgr inder
Ġsw elled
ĠShe p
ons on
Ġfl ake
Ġfl ute
Ġfl accid
Ġrid den
Ġche que
ord es
Ġho ard
Ġsle ek
ĠNo v
Ġmen strual
Ġrem inis
Ġpart ially
Ġter race
Ġsk ipped
Ġrat es
og yn
Ġhar bor
ĠBe ld
Ġstr umpet
umb a
Ġhum id
Ġcont ained
Ġpre ced
Ġsupp orters
Ġbit er
Ġmar sh
Ġmar riages
Ġpig gies
Ġlive lihood
Ġpol es
Ġfin ance
Ġcomp act
Ġwalk in
ens ical
ey es
ĠBl ock
Ġmis placed
ĠDe fe
Ġsecond ary
oul a
Ġrel iable
Ġrel oad
Ġrep ent
ĠOr land
Ġfore ns
iff s
app ointed
Ġbar f
Ġwall ow
Ġwater y
Ġmil ks
Ġign ores
ĠMan chester
ĠSc ha
ĠSc arl
Ġdef use
Ġcry in
Ġbas kets
ĠCan adians
ik ers
rog ate
Ġdet est
Ġrock y
Ġind ef
ĠSp ark
ĠSp eltzer
Ġsub stances
mb ly
Ġexp el
Ġpu zzled
ĠHer bert
Ġprof essors
Ġmeat y
ĠSam uel
Ġsal mon
ĠDick ens
ĠGive n
ili ary
Ġdirt ier
Ġbottom less
Ġunc ool
Ġsna ils
Ġbug gered
Ġmaster mind
ĠSm ell
ĠSm ash
ĠSm iley
Ġbust er
amb a
nes see
Ġdev i
ĠPro d
ĠMor r
ĠJe ep
ĠAd olf
ĠCra b
Ġ6 5
Ġguard ing
Ġrecogn ition
Ġrecogn izes
ĠKeep er
ĠPat ricia
ĠPar an
Ġpost s
rop ol
ĠSw anson
Ġfan atical
Ġden ial
ĠCo ffey
Ġban al
ĠCr ash
Ġpant ing
ĠSatan ist
ĠAnt o
ĠAnt won
Ġpoo ps
ĠDevil s
cra cy
Ġliter ary
Ġplant ation
Ġident ical
umm ers
Ġpred ec
ĠWall enquist
Ġbal anced
hold ing
ĠBo om
Ġpier cings
sm oking
Ġstret ching
Ġbitter ness
Ġpers ist
God s
ĠTim othy
Ġdism embered
ĠBu ilding
Ġgarden er
Ġmat ted
Ġscal es
ĠVeg a
Ġgri pping
ĠFe b
Ġhen s
chan cellor
Ġpoet ic
ĠBer g
Ġblank ets
rep rene
Ġreject ion
bur ger
Ġroast ing
Ġglo omy
ĠFre aking
Ġburgl ary
Ġcere br
Ġcomfort ably
Ġtrave lling
Ġcollap sing
ĠJean nie
Ġbuzz ard
Ġturkey s
Ġplug ged
Ġconsequ ence
Ġnegoti ating
LE EP
ĠArch chancellor
Ġleap s
Ġbureau cracy
Ġbelief s
Ġlands cape
ĠBart on
Ġshack les
Ġhorm one
ĠAlf ie
OL UT
Ġfornic ating
ĠGer ard
Ġfrag ments
Ġsuperior ity
Ġfears ome
Ġdiab etic
Ġpest s
Man us
Ġbun ghole
Ġtires ome
Ġcasual ties
Ġperpet ual
Ġpositive ly
Ġdomin ated
Ġsurf ing
ĠBudd h
ĠBol she
Ġjelly fish
ĠKay e
ĠSab rina
ĠLyn ch
Ġfren zied
ĠRain a
sec ond
ĠDal ton
Ġswift ly
ĠOs ama
Ġsire ns
Ġsche ming
Ġouts iders
Ġtarn ation
Ġwal nut
Ġlact ation
Ġinfern o
ĠJama ica
Ġstup endous
Ġbubb les
uj ah
Ġasse mbled
Ġparticip ate
ĠAbs urd
ĠArk ansas
Ġaston ishment
Ġweaken ed
ĠPad dy
Ġmerciless ly
hist oric
ĠBos ch
Ġspons or
Ġspar row
Ġhast ily
Ġmyst ical
Ġdeter mination
ĠGust av
Ġreco very
Ġindic ates
Ġsway ed
Ġrepro ach
Ġinterven e
ĠDea con
ĠAB S
Ġtoothp aste
ĠKend all
Ġbic eps
ĠMol och
IGH S
ĠKath leen
Ġproverb ial
Ġlubric ant
Ġaccord ance
ĠCorpor al
Ġfiance e
Ġpeop les
loat hing
Ġevapor ated
Ġinfirm ary
Ġelectron ics
Ġorangut an
ĠSier ra
Ġkinder garten
Ġcourtes an
Ġtranquil izer
ĠGio v
Ġunpro fessional
Ġimpertin ent
ĠTiff any
Ġlimous ine
Ġhaught y
ĠMaure en
Ġhayst ack
ĠStrick land
Ġpher omones
ĠWalling ford
Ġdiaph rag
Ġdatab ase
A V
C R
H is
L D
M ost
P ussy
a ved
b uster
b elle
c unt
f le
g reat
g asm
h ome
j unk
k ids
l it
l ots
m ont
m ails
p sy
r ition
s ince
x es
y pe
Ã º
æ ľ
Ġt us
Ġt ipped
he ter
Ġw i
Ġw ick
Ġy ah
Ġy ummy
Ġy apping
Ġb out
Ġb ak
Ġb oll
Ġb ourbon
Ġm ing
Ġm ack
on al
it ars
Ġf illy
er ic
is i
is man
Ġg arr
an ca
Ġhe ated
Ġhe ating
Ġh uts
Ġin hib
en b
as her
as ants
ar ia
at in
Ġbe aches
Ġha re
Ġk elp
le pt
ut tered
id an
ld a
Ġe cl
Ġe arring
ad i
Ġst ings
Ġst ored
Ġst ormed
Ġst itched
Ġr aced
se at
Ġwith stand
ĠT ian
ĠT ijuana
Ġan emic
ĠS ons
ĠS ne
ĠS ung
ĠW er
ĠW ud
Ġre joice
st all
st ones
ĠA eryn
Ġas inine
ce llen
ĠH oy
Ġup ro
ent ing
ĠM ock
ĠM arn
ĠM ika
ĠM utt
ĠB us
ĠB am
ĠB ret
ĠB irth
ĠB org
ion age
ĠD ork
one ji
ĠC ertainly
ĠG age
ĠG ert
ĠG uts
ĠG iles
ĠG ulf
Ġbl oss
od in
od der
ul s
ab e
ĠL yle
ĠL ena
ĠN est
ĠJ ihad
Ġal mighty
han g
ound ing
ĠP uck
ĠP ek
ĠP ont
ĠF aggot
Ġpe ers
Ġv at
Ġv ise
Ġ- '
Ġsc y
Ġsc ourge
ĠE yes
Ġtell y
Ġass ail
Ġass isted
Ġpro long
ip al
che m
Ġhand ic
Ġqu otes
Ġqu ivering
Ġmad woman
Ġam ber
Ġcut est
urd y
ang o
Ġblack ed
ich rist
Ġgr ammar
Ġsw allows
Ġbre ach
Ġfl ushing
Ġsha pes
ub al
ĠSt aff
ĠSt ruan
Ġkeep er
Ġche es
Ġafter ward
Ġmen sch
ĠCh ino
ĠV et
Ġte ased
aw ful
Ġhome land
Ġsleep er
Ġkick er
oc chio
ho ff
Ġbody guards
Ġpre med
Ġmin x
Ġmar ines
Ġmar oon
Ġmar athon
Ġad j
Ġleg ion
Ġem ail
Ġhard ware
Ġgay est
Ġgl istening
Ġdec orate
Ġimp rob
Ġmiss y
Ġmiss hapen
Ġste ep
Ġpain s
Ġpain ts
end ers
unt arily
Ġrep el
Ġrep ressed
Ġrep ublic
Ġret rieve
ĠWhere ver
Ġstab les
Ġfore finger
ĠFor man
Ġinter rupting
Ġtor to
Ġcock pit
Ġwater ing
Ġposs ibilities
.' "
ĠAr c
Ġcreat or
ĠZ al
Ġcat ast
Ġstri ped
Ġdou bled
Ġrock ers
itor ies
ĠSp ike
Ġdist ing
Ġdist ressed
hy d
hy de
Ġexp osure
Ġpu kes
Ġpu ked
ĠRe id
Ġpap a
Ġ4 3
Ġearth ly
ĠHer r
ĠHer mes
Ġignor amus
cl ad
Ġsweet ly
ĠQu int
Ġviol in
oly n
Ġteam mates
Ġfast en
Ġdefe nder
Ġpop ulated
Ġadv is
ĠDick head
year s
Ġmental ity
Ġcal iber
oth ra
Ġbow s
Ġpos es
Ġer a
Ġhorn et
ĠMc Manus
Ġdev ices
Ġgas ping
ĠSe eker
ĠEx pl
ĠSl ick
Ġlab ia
Ġcheap est
ĠCra ck
ĠMon k
ĠQue er
Ġgener osity
ĠIndian a
ĠCut ting
mon th
Ġblock head
ĠCo ch
Ġpir an
Ġlift s
ĠSu z
ĠSu zan
ĠBrit ney
Ġsed ucing
ĠEn emy
ĠMark s
ĠX avier
Ġobject ions
acher s
Ġtrad ers
Ġped ant
Ġcharacter istic
Ġeffect ively
add led
Ġstat ues
AT O
ĠRo om
Ġspell ed
ĠMer lin
Ġmic rob
ĠSuck ing
Ġtool box
ĠTim buk
Ġdism ember
Ġpassion ately
Ġresist ing
ĠSk ipper
Fuck ing
Ġtyr ants
Ġtyr ann
Ġrepresent atives
Ġexcl uded
Ġjournal ism
Ġtoler ated
ĠViet cong
ĠDark ness
ĠKr usty
Ġcy st
Ġcy borg
ĠShar p
Ġneighbour hood
Ġspr ings
Ġcontain ing
ĠArch bishop
Ġgest ured
Ġturt les
ĠJam al
Ġlibr arian
Ġsociopath ic
ĠStr ong
Ġgag ged
pro bably
Ġadvent ures
Ġshred ded
ĠCare sc
Ġpanc ake
Ġfunction al
ĠDev on
ĠDev ore
Ġstir ring
Ġriot s
Ġslam ming
Ġtrib ute
Ġvolunte ers
Ġnic est
Ġrav ine
ĠKnow ing
ĠFed eration
Ġcynic ism
Ne il
Ġpy jamas
Ġdisob edience
Ġcompassion ate
ĠVol vo
ĠDal ai
Ġsodom y
Ġairpl anes
ĠFran nie
Ġmetaph ors
Ġjab bed
Ġmini ature
ĠHug hes
ĠMcK ay
Ġcrucifix ion
Ġdu o
Ġacknow led
Ġcrocod iles
Ġabsor bed
Ġaston ished
Ġrecon c
Ġindign antly
Ġexorc ism
ĠMantic ore
ĠGarden er
Ġeject ed
ĠRet urn
ĠSpr ings
Ġexhaust ion
Ġsequ ence
dem on
Qu iet
ĠTs ur
Ġdro ids
Ġinconven ience
Ġcel estial
Ġexped ition
Ġbisc uit
Ġtodd ler
Ġprow ess
Ġbulldo zer
ĠTech n
ĠBurg undy
Ġsabote ur
ĠAff airs
Ġaster oid
Ġprocl aim
Ġtelesc ope
Ġmaf ioso
Ġunleas hed
ĠCambod ia
Ġsovere ign
Ġmiscar riage
ĠWIT H
Ġextravag ant
Ġportra it
Ġeaster n
ĠParent s
Ġschem es
Ġtex ting
Ġyab zick
ĠTast es
Ġrepell ent
ĠpiÃ± ata
leng th
ĠSween ey
ĠBeld in
ĠABS OLUT
Ġdiaphrag m
Ġbak ery
cellen cy
B aby
D oes
E E
F ire
J ay
L aughs
M ake
R ight
W ait
b eth
b asket
c ully
d ance
e on
e ither
f ood
f est
g rab
h ou
l av
n ice
n ian
n ics
p ionage
r ams
s ur
t om
t aught
z ies
Å Ļ
Ġt ide
Ġt ones
Ġt idy
Ġa pt
Ġw oken
Ġw imps
Ġs omber
Ġb ib
Ġb oulder
Ġm ull
it he
it ol
it ical
nd y
nd ez
Ġf res
Ġf ret
Ġf owl
Ġl ane
Ġl ists
Ġl enses
Ġp ike
Ġh ike
Ġh oops
Ġh ordes
or in
Ġof a
Ġn ib
Ġn azi
ar ity
Ġk m
et to
ut omatic
Ġme g
Ġme ek
Ġe b
Ġe ur
oo ch
Ġsh ucks
al t
al ing
ic us
ic uous
ĠT her
ĠT ong
ĠT uc
ĠT yp
ĠT ER
ĠS ew
ĠS AT
ĠS HE
ĠW ast
ĠW amphy
ch uck
Ġj est
Ġj ap
Ġj umbo
ie ger
ĠA gency
ust o
Ġgo bble
Ġse Ã±or
Ġout raged
ĠH m
op ped
op ards
Ġde emed
Ġso aking
ĠM im
ĠM ags
Ġcan ned
ĠB R
ĠB ie
ĠB apt
il ts
Ġfr uits
ĠD y
ĠD ak
ĠD ry
Ġab ol
ter ies
ĠC O
ĠC hes
ĠC ivil
ĠC reek
na pped
Ġbl ur
pp ings
ag ram
Ġhere sy
Ġsa iled
Ġsu ction
and ered
ab u
ab er
ĠL ear
ĠL ift
ĠN ation
ĠN ana
ĠJ ol
ĠJ arl
ĠJ anson
ĠJ asmine
ĠO N
ĠHe ard
ĠHe brew
Ġgot h
Ġal ias
ĠP ee
ĠP ublic
ĠF ingers
ol in
ard y
Ġpl ank
Ġsp okes
Ġsp ruce
ĠR ene
Ġlo ft
Ġlo omed
Ġv ial
Ġv iper
Ġex quisite
Ġback seat
Ġar sen
Ġar mored
ace ut
Ġ- --
Ġsc ooped
ĠE gg
ĠE ph
up on
Ġcl utch
Ġtw igs
Ġpro let
Ġmore over
ĠK u
ĠK athy
ass o
Ġpr inting
Ġover all
Ġover paid
ĠGod zilla
Ġfat test
Ġun man
Ġun kind
Ġmad der
pl ings
Ġblood shot
Ġam mon
Ġmay onnaise
Ġblack er
Ġsw arming
itch ie
Ġfl ared
Ġfl uffy
Ġro gues
sh ore
Ġcou gar
Ġunder paid
ĠSh i
ĠSh itty
Ġho ax
ress es
Ġsle nder
ĠNo g
ne red
ĠCh riss
ĠV erm
Ġscrew y
Ġter mit
og ues
Ġper ished
Ġper imeter
Ġel oqu
hen sion
Ġsec recy
pen sion
Ġpret ense
Ġtra vest
Ġfam ine
ĠMy ers
Ġpre historic
Ġmin otaur
Ġwar lock
ĠDamn it
Ġres olve
Ġfre elo
Ġad orn
Ġpus hy
Ġhot tie
ĠAll eg
Ġph oney
ult an
Ġrest less
Ġcomm ies
Ġdec ayed
Ġimp ass
Ġacc um
Ġsn arling
Ġsn itches
Ġmis ogyn
Ġent ourage
Ġrep aired
Ġret al
Ġret ain
ĠAl vin
anger ous
ĠMar ry
Ġred headed
Ġred uction
ax le
ax ies
Ġmet all
Ġmet res
Ġchar t
Ġconf ined
Ġdrive l
ze ch
Ġang uish
Ġill usions
Ġstri ps
Ġnuts hell
Ġz er
rog ly
rog ant
bl ance
Ġwaste ful
Ġbra cel
Ġdist ribute
Ġmach in
br ing
br own
Ġbath s
Ġslow ed
Ġ4 6
Ġpack ages
ĠHer man
ĠLe bows
cer ning
Ġpub s
ĠJim mie
ĠSam ar
Ġscr uffy
ĠDick y
Ġnone x
Ġjack ets
let t
Ġur ged
zz les
Ġcorn y
Ġsna il
ĠMc Queen
Ġlar va
inc ible
ĠEx plain
Ġshr oud
ĠBen net
Sh outed
ĠEnglish men
Ġshout s
ĠChe vy
Ġpet rified
ĠAm os
de vil
Ġapolog ised
Ġund es
Ġund isciplined
Ġbetray s
Ġbetray er
Ġpray s
Ġgut ters
Ġpost card
Ġval ued
ĠSw ear
Ġsweat ers
Ġpupp eteer
Ġcoun sell
Ġcoun cill
ĠCr ane
Ġrain coat
Ġduck ed
Ġnumb skull
Ġaut hentic
Ġneighborhood s
Ġcapt ivity
ĠWor f
Ġna Ã¯ve
Ġappro aches
Ġenc ry
Ġest imated
Ġhol ed
ĠLa zy
Ġappreci ates
ule in
Ġgar ment
Ġsew ers
Ġhelpless ly
Ġrese mbling
Ġstock y
ĠOl af
Ġnin ete
Ġfoc using
ĠMer c
ĠMaster s
ĠWil kins
ĠTor i
Ġfruit less
Ġhob bies
ĠCast or
Ġras ped
Ġsacrific ial
Ġheap s
ĠIntern al
Ġmater n
ĠArab ia
was her
ĠDar ren
Ġvirt ual
Ġvirt ues
Ġdarling s
Ġnarrow ed
Ġpurs uing
Ġing en
Ġsymp athetic
Ġarg ued
Ġconspir ing
Ġneighbour s
ĠMust ang
Ġult ra
ĠRid cully
dr ink
ser ving
Ġreek ing
Ġsquat ting
dest ructive
Ġdom inate
Ġchip munk
Ġentr usted
Ġshield s
Ġsett ling
Ġpaed ophiles
ĠIdiot s
Ġtons ils
Ġfierce ly
ĠPen elope
Ġcam els
Ġgon ads
Ġstern ly
Ġpony tail
ĠGa el
ĠWel sh
Ġcannibal ism
Ġtact ic
Ġvib rating
ĠBor ric
chet t
Ġchampion ship
ĠRen o
Ġeyeb row
Ġpha ser
Ġvic iously
Ġcob ra
ograp her
ĠStew ie
Ġcritic ism
Ġhalluc ination
Ġhalluc inations
agu ar
reg ation
Ġvult ure
ĠÎ Ĺ
Ġpatri otic
Ġsque ak
Ġrepair man
ĠSing le
Ġnud ity
Ġmild ly
Ġrecover ing
Ġdysfunction al
ĠTam my
ĠSkin ner
Ġtack y
ĠKey ser
Ġshrie ked
Ġlyn ch
Ġtig ress
ĠCand ace
oret te
Ġflav ors
ĠSi amese
ĠGrol im
Ġmotiv ated
ĠCost ello
Ġtheat rical
Ġpel vis
Ġevac uate
Ġorang es
ĠBubb les
Ġawaken ed
Ġpsy che
Ġecho ed
ĠBoot y
ĠGon z
Ġhypot hetical
Ġestablish ment
ĠMongol ian
ĠHop per
Ġmathematic s
Ġlin en
ĠFasc ist
ĠSalv ador
Ġimpregn ate
ĠBent ley
Ġpickpock et
Ġhomophob ic
Ġanat omy
ĠSau nders
Ġathe ist
Ġdelic acy
Ġrhet orical
Ġtac os
Ġgard ens
ĠConfed erate
ĠSter ling
ĠDwar f
ĠClem ens
ĠUrs ula
Ġastron aut
ĠMich igan
ĠCoul son
ĠCunning ham
Ġorche stra
Ġconfine ment
Ġembed ded
ĠAlv arez
Ġesteem ed
Ġblat ant
Ġsphinc ter
Ġresil ient
Ġgrasshop per
Ġgymn ast
tem pered
Ġrestrict ions
ĠCycl ops
ĠGiov anni
Ġimprob able
ĠSuzan ne
ĠWamphy ri
Ġbracel ets
6 00
D is
F rank
K iss
P ro
S ure
c ham
f art
f ering
g ara
h ook
h ose
l uck
m ud
m oney
p ick
u u
w ich
y en
z or
å ı
Ġt ens
in ue
Ġthe sis
Ġb aring
Ġm ow
Ġd ink
it ivity
ĠI ke
Ġf ou
Ġc it
Ġc aged
Ġc yl
is ans
Ġl es
Ġl av
Ġl atter
Ġhe pat
Ġp ess
Ġp amp
Ġp ics
Ġp orter
Ġp abl
or ations
hat e
Ġn ets
en zie
as is
om on
Ġth umping
Ġbe ady
Ġbe ige
Ġha ze
Ġha rem
Ġha zard
Ġha zel
Ġha voc
Ġk ike
ut ches
Ġwe pt
out her
Ġli que
Ġst if
Ġsh ipping
al oo
Ġr ue
Ġr ails
Ġr ays
Ġr ivals
se ction
Ġdo lt
ĠT es
ĠT ick
ĠT ak
ĠT akes
ĠT aj
Ġfor ged
Ġfor feit
if act
Ġwh iz
ra ped
ra cle
ra ils
ĠS utton
ĠS oneji
ĠW ag
ĠW aff
ĠW ulf
Ġre ared
ĠY emen
st ood
Ġdon ated
ĠA by
Ġse asons
all e
Ġout ward
Ġkn ack
Ġkn ave
ĠH et
ĠH ub
ĠH air
ĠH iggins
ight ly
ĠM ate
ĠM asturb
ĠB oring
ĠB yr
ĠB AR
ro ads
ro scope
il ical
Ġfr is
ĠD usty
Ġne on
ĠC ame
ĠC arly
ĠG om
ĠG az
ĠG ames
ĠG lee
Ġshe ik
Ġbl aze
Ġman ages
Ġshit t
Ġno bles
ul ip
and ro
ĠL I
ĠL od
ĠL ate
ĠN y
ĠN ur
ĠN ame
ain ts
ĠO D
Ġal pha
han y
ĠP red
ĠP oly
ĠP ipe
ĠP ardon
ĠF ur
ĠF ood
ri en
ĠR ut
ĠR up
ĠR iv
ĠR itchie
Ġex iled
Ġex ternal
ĠE N
ĠE b
ĠE ly
Ġbr isk
Ġcon ception
Ġdown ward
Ġcl icking
Ġch is
th ief
th inking
ĠK re
ire r
Ġco als
Ġco itus
Ġover head
Ġblood stream
ĠWh ores
Ġcr ater
Ġcr umbling
ang el
Ġgr am
Ġke g
ĠSt re
ĠSt ock
ĠSt arling
Ġim it
Ġhit ter
Ġfa wn
Ġho vering
Ġyear n
per haps
Ġdog gone
Ġsk ilful
Ġdes c
Ġhar ms
aw are
uff les
ĠGet s
we ek
iet z
pen is
Ġpret ext
ning s
Ġgreat ly
ĠHow ie
Ġser ge
Ġcont orted
Ġcont ribute
Ġmin ors
Ġsupp le
Ġmar ine
gg ling
Ġleg isl
Ġpat ent
Ġbo on
Ġbo or
Ġdec re
Ġpiss y
ung ent
Ġdrink in
iv in
uc y
fect ed
Ġdra ped
ĠLet ter
Ġpain ters
Ġaw hile
Ġhope ful
Ġhus k
att on
Ġcrim son
Ġret ali
ĠAl zheimer
Ġfore arms
Ġred eem
Ġdark ened
Ġluck iest
Ġprom oting
app a
Ġabs ently
Ġeye ing
Ġforget ful
ĠTo gether
Ġbird ie
oe uv
Ġinv aders
ĠZ a
ĠCl ass
Ġsy cop
Ġhon ky
Ġpri zed
Ġill ust
Ġill ogical
Ġstreet walker
Ġbuy ers
oon er
Ġwin ced
bl ank
Ġprop ortions
ĠSp ace
ĠChar ley
Ġsub sequ
Ġboo gers
Ġexp ressed
Ġprotect or
ĠRe vel
roll ing
co al
Ġart ifact
Ġsuper fl
Ġsuper iors
cer ity
ĠWill is
Ġext ension
Ġtop ic
Ġhom os
ĠPr ide
Ġpast ry
Ġtrans f
Ġarm chair
Ġmer maid
Ġdirt bags
ĠEl aine
Ġsmok in
Ġdisc ard
Ġcorp oration
Ġcorp orations
ĠCharl ene
ative ly
zz i
Ġband ages
Ġev olved
Ġthank fully
ĠTr isha
Ġunc overed
Ġfra cking
ĠMc V
Ġroad kill
Ġsystem atic
ĠEx cellency
Ġed ges
Ġpleas es
Ġrad icals
ĠBy ron
Ġimm ob
ĠCol or
wh ose
ĠSer bs
Ġlim bo
Ġpet t
Ġocc urs
Ġund ressed
Ġclim bs
ĠCarl ton
Ġhy enas
Ġtarget ing
Ġjudge ment
work er
ĠSar ac
Ġnon stop
Ġelim ination
Ġduck ing
ann on
Ġspo ils
Ġcart oons
Ġpoo rer
ĠMa ca
Ġblast ing
Ġphys i
ĠMag da
ĠSil k
Ġdrain ing
Ġtatt ered
ĠAw ful
Ġbutcher ing
Ġstreng then
Ġcharacter istics
ĠTurn ing
Ġunf inished
Ġmasturb ated
Ġharm ful
ĠLea ving
Ġgar g
ĠHal t
Ġdish washer
Ġdim in
Ġgall ant
ĠDra g
Ġdesign ated
Ġep it
ĠBro ke
ĠLos ing
Ġshotgun s
ĠBu ick
ĠTy rell
Ġjew s
Ġdread fully
Ġjoy ous
Ġcounter feit
Ġbul imic
Ġdevelop ing
keep ers
ram ent
Ġdent ists
Ġaccompl ices
Ġwag ging
Ġobsc ure
ĠPet rov
Ġrod ents
Ġexperiment ing
ĠHard wick
Ġpow dered
Ġoppos ition
Ġexpert ise
dr unk
Ġsteak s
Ġesc orted
Ġven ereal
ĠDor is
Ġast h
ĠInt elligence
Ġdign ified
Ġoccup ying
Ġnap kin
ĠOk lah
Ġblo om
ĠPa xton
Ġminister s
ĠTre k
Ġadminist ered
Ġcro aked
Ġfiend ish
Ġwrest ler
ĠRiver s
Ġskank y
every thing
Ġhoo ch
CH UCK
IV E
Ġpest ilence
Ġdisplay ed
ĠCrow der
Ġattend ant
Ġinferior ity
Ġboun cer
ĠSweet ie
ĠSweet heart
Ġvic ar
Ġacqu aint
Ġcob bles
Ġcalcul ated
Ġinfidel ity
ĠBol ton
An n
Ġclaw ed
Ġmong ol
Ġpops icle
Ġpy re
Ġlux urious
ĠRy gel
Ġhalluc inating
Ġdocument ary
Ġscan ned
Ġcaf fe
ĠPitt s
Ġelectroc ute
cross ing
Ġsill iest
Ġamput ated
urg atory
Ġarrange ment
ĠSna pe
Con nor
bor o
pan ics
ĠIsab ella
ĠWork ing
Ġprejud iced
Ġsob bing
ĠCrim inals
Ġeg omaniac
ĠGwen hwy
Ġhyd rogen
Ġevac uation
Ġflatten ed
Ġmig raine
Ġreception ist
Ġghoul s
Some one
ĠSac rament
ingu ished
Ġathlet ic
Ġanticip ation
Ġjugg ling
Ġautom obile
Ġtab let
ĠBry ce
Ġundert aker
Ġtut or
Ġaven ged
Ġdash board
Ġhumane ly
Ġscor ched
Ġdefence less
ĠOper ation
ĠDist rict
Ġdigest ive
Ġlod ged
Ġplag ued
Ġsolemn ly
ĠWhis key
Ġaspir in
Ġsib lings
Ġunsav ory
ĠPenn sylvania
Ġhoriz on
ĠLest at
ĠPra gue
Ġoppress ors
ĠBless ed
ucha mp
Ġnincomp oop
Ġflab by
Ġerr atic
ĠBelg ium
Ġoverse as
Ġwhirl wind
Ġceremon ial
Ġdwe eb
ĠCaucas ian
Ġnons ensical
Ġingred ients
ĠLuft hansa
Ġoutn umbered
Ġembod iment
absor bed
Ġcancell ed
Ġobit uary
Ġembro idered
Ġslugg ish
Ġcondescend ing
ĠOrland o
Ġecl ip
ĠJarl axle
ĠOklah oma
ĠGwenhwy far
" ?!
' ."
1 7
8 00
A d
A w
A ng
B ob
C har
C aptain
F ace
F irst
M om
N ice
Q aeda
S omet
S IGHS
T E
W omen
a el
b aked
b bles
c ats
d iot
e h
g arbage
h yp
i ard
l ick
l eness
p ace
r ations
s se
s ister
t aker
v als
x ie
è ¿
Ġt am
Ġt ous
Ġt ilted
Ġa we
Ġa ching
Ġa rose
ou in
ou ge
Ġy ield
Ġm m
Ġm ould
Ġm antle
Ġd ots
Ġd airy
Ġf oe
Ġf usion
Ġf ainting
ing es
Ġc oop
is se
is ocial
Ġo ps
Ġg arb
Ġl ush
Ġl aced
Ġl ids
an al
Ġhe aving
ed ged
Ġp ence
Ġp umm
Ġh umbled
or iously
Ġn urt
en cer
om fort
om well
at z
at os
at ri
at hed
at ures
Ġbe ams
Ġha p
Ġk at
... '
ad al
Ġli bid
Ġst umbling
Ġis olated
Ġsh t
Ġsh ines
Ġr auc
ic ity
Ġdo cks
Ġwas hes
ĠT ank
ĠT oll
ĠT rey
ĠT aco
Ġfor ge
Ġfor ked
ver ine
ĠS pl
ĠW a
ĠW isc
Ġre ins
ĠY ale
st ru
Ġj ig
ie re
ĠA L
ĠA pes
Ġse als
Ġse aring
Ġse agull
Ġkn if
ĠH os
ĠH ipp
ĠH oud
op l
op ular
Ġde hyd
ĠM ell
ĠM ain
ĠB ard
ĠB arl
ĠB hell
Ġwant to
il ers
ĠD O
ĠD one
ĠD aph
Ġwhe e
ĠC ic
ĠC reat
ĠC OM
ĠC avanaugh
ĠC NN
ĠC zech
ĠG an
ĠThe resa
Ġbl ister
Ġbl ankly
Ġman hunt
Ġtr oph
Ġtr illion
od dy
ag l
ag ol
Ġsu ed
and ering
ab ul
ĠL ama
ist y
ist ing
ĠN Y
ĠN ino
ĠN SA
ĠJ ob
ĠO bs
ĠO leg
ĠHe ights
han ks
han ging
ĠP ict
ĠF o
ĠF IL
Ġpe pp
Ġpe bble
ĠR iker
Ġar ched
ĠE ck
Ġbr unch
Ġfe ck
Ġcon co
Ġag on
Ġcl apped
ine y
Ġch ucked
Ġtw ent
ud der
ĠK icking
che on
Ġco co
be ats
be arded
reat he
Ġun just
Ġsl ums
Ġen raged
au kee
âĢ ķ
Ġcr utch
ĠTh y
ĠTh orn
ĠTh roat
ac ists
Ġcut ter
Ġmay hem
Ġdis reg
Ġkid die
ew itness
ret ti
Ġgr illed
ber ty
ons in
Ġcar amel
Ġfl am
Ġfl ap
Ġro cked
ĠSt ink
ĠSt iles
Ġcare free
Ġshut s
Ġunder mine
ĠSh ore
ĠSh outed
Ġmust y
ond or
ĠV iper
ĠV ito
Ġshow ering
Ġsk ates
ren ia
Ġdes ired
Ġatt ended
Ġfire cra
ĠU nd
ĠU ng
ĠBe hold
iet h
Ġgra ph
ho ea
Ġcop pers
Ġhum ming
Ġpre occupied
Ġmar ched
Ġad am
Ġad apt
ĠDo akes
Ġfound ation
Ġcompl iments
you ng
ĠAll ie
Ġph leg
Ġsch ol
Ġgl um
ĠIn v
Ġpol ic
Ġfin ishing
Ġcomp on
Ġcomp ulsive
Ġfront ier
ĠFr uit
arn ish
ĠBl ade
ĠBl unt
Ġbur geoning
Ġpay roll
cept ic
cept able
ĠOr c
Ġpar amed
Ġfore man
me al
Ġbag pipes
Ġinter fering
Ġreason ably
ric ian
ole um
Ġcock ed
Ġchar itable
ony m
fuck in
ze es
ĠZ and
ĠHell er
Ġill um
ĠHis panics
Ġpres ume
Ġpres erved
ĠOn es
ĠGo at
Ġdef iance
min a
Ġknock out
Ġgrow l
ik aze
af il
ru ary
Ġprop ped
Ġdeser ter
Ġdep os
Ġdep ressive
Ġsat an
ĠHar mon
Ġsub t
Ġpu berty
Ġmillion aires
Ġblind s
Ġart istic
cl ose
Ġhide out
Ġve al
Ġris en
Ġadv ocate
Ġwear ily
Ġsus pension
Ġdam aging
und ra
ĠSha k
ĠEl iot
ĠEl sa
ĠPe ep
Ġbum med
que z
ĠCar ver
erm o
Ġprep aration
Ġev olve
Ġbow ing
ĠGr imes
Ġpot ion
ĠTr ouble
ĠTr uman
yn et
Ġmot ives
Ġwhis perer
Ġtight er
ĠSe Ã±or
hell o
Ġoper ative
Ġage nda
ĠEd u
ĠMe aning
Ġsens ors
ĠAd mit
Ġlim ped
Ġpin hole
ĠMad d
ĠMad rid
ĠChe ap
Ġchop pers
Ġbat ty
Ġapolog ise
Ġform ation
Ġdry er
Ġinfect ions
ĠCarl son
ĠCarl ito
Ġver ify
ĠPat rol
ĠBet ray
do ing
AN N
Ġsharp est
Ġcup cakes
Ġkey board
Ġ8 00
Ġspec ulation
rod ite
Ġsupport s
Ġconnect s
Ġwel c
ĠSim ple
Ġcult ured
ann ies
Ġmort ar
ĠAnt ar
Ġpoo per
ĠAlex is
ĠMal az
ĠMal enf
Ġsen ators
Ġaccount ing
ĠPol gara
ĠBel fast
ĠTra itor
ĠHel ena
Ġfraud ster
Ġbright er
Ġtoss er
ĠNorth man
Ġinfl amed
Ġweight s
Ġresult ed
ĠEll a
hold ers
Ġsubject ed
ĠMer cy
ĠMer cer
ĠSuck er
Ġeduc ate
Ġaffect s
ĠDel iver
ĠDel acroix
ĠChan ge
OU S
Ġhump ed
ĠGar rett
ĠIm bec
ĠPete y
Ġtun ic
Ġtooth brush
Ġchat ted
Ġpork ing
ĠFe z
ĠFe ld
Ġmanip ulation
Ġactiv ate
Ġactiv ated
Ġimpl anted
Ġnest s
ĠWhe eler
Ġenter prise
Ġunw illing
Ġagg ression
ĠRich mond
Ġpartners hip
Ġexperiment ed
Ġvirt uous
ĠDa ily
ĠCos mo
Ġconspir ator
ĠSa udi
win ning
Ġpud gy
ĠCa o
Ġclock ed
Ġspr ang
Ġcontain ers
ĠGal axy
form ation
Ġcontempt ible
ĠTen nessee
Ġnit wits
ĠTal yn
ĠKal ten
Ġwrink les
ĠTri ad
Ġpra irie
Ġintim acy
Ġprev iously
Ġgrace ful
kick er
ĠTob in
ĠBoo bs
Ġloat hing
ĠComp ared
Not hing
vet te
tra itor
Ġresent ful
Ġperpet rators
ĠLex i
Ġunbelie vably
Ġdiver s
ĠSister s
ĠFort un
Ġperv s
ĠCom pton
Ġappoint ed
Ġod ious
ĠFle ming
ĠDol ores
Ġcleans ing
Ġmache tes
Wh ich
ĠLen nie
power ful
Ġmamm al
ĠFreak in
ĠHob bs
ĠCons ider
Ġshuff led
Ġpengu ins
Ġcaut iously
ĠAx el
ĠCH AP
Ġlaun cher
Ġpyram ids
ĠGriff ith
Ġtempor arily
Ġexhib it
Ġhybr ids
ĠSke et
Ġobt use
Ġumb ilical
Ġscenar ios
OS E
ĠRu iz
somet imes
Ġexcess ive
Ġtransform ation
Ġwoo lly
ĠFound ation
Ġreass uring
Ġtox in
ĠInter pol
Ġsprink le
ĠClaud ia
ĠTap ia
ĠBraz il
ĠIgn ore
ĠAid an
oca ust
stant ial
Ġpurcha sed
Ġmalar ia
ĠSpani ard
Ġstere ot
Ġrecl use
Ġconsult ed
Ġther m
Ġperce ive
Ġjeopard ize
Ġfundamental ist
ĠFrig gin
Ġxaxt damned
ĠJab ba
Ġseeming ly
Ġaqu arium
Ġendanger ing
ĠSever al
ĠWarri or
ĠWarri ors
Ġenforce ment
Ġcatal ogue
Ġcarniv orous
Ġvoy age
Ã½ ch
Ġcoug hed
Ġorient ation
Ġsuburb an
ĠThel ma
LAUGH S
Bet ter
Ġphilosoph ical
Ġannoun cing
Ġscarce ly
ĠLun atic
Ġchast ity
Ġfoss il
ĠStack house
ĠSopran o
Ġtribun al
ĠCros by
Ġdracon ian
Ġdiscred it
ĠBM W
ĠEz ra
ĠHundred s
ĠShang hai
ĠNikol ai
ĠFres no
Ġcaterpill ar
æĺ ¯
Ġhein ie
ĠScarl ett
ĠFeb ruary
Ġcerebr al
Ġscy the
Ġassail ant
ĠTimbuk tu
ĠTsur ani
Ġretal iation
Ġzer oes
Ġnonex istent
ĠWisc onsin
ĠBhell iom
Ġtroph ies
4 8
B S
B en
B ad
B ig
I K
N uts
N edra
P A
R ay
S I
S ay
T R
Z Y
b il
b ear
b read
b ott
c one
c omb
d ong
d ened
g om
l m
l ake
l orn
l isted
m ile
m ale
p ark
r unt
s qu
t old
t rick
v iol
w es
w ah
Â «
Ã §
Ġ =
Ġa ids
Ġa hold
in ari
Ġw iry
Ġs assy
Ġb anger
Ġm un
Ġd ren
Ġd uties
ll ers
it udes
ĠI M
Ġf aker
Ġf udge
Ġc ens
Ġc uz
Ġto ken
Ġo ct
Ġg ivin
Ġl s
Ġp once
Ġp ungent
Ġh uddle
or mer
ve led
Ġof your
es i
Ġn ig
en re
ar azz
at own
us et
Ġha cks
Ġha gs
Ġk i
Ġk enn
im at
Ġme xic
Ġme gal
ad dle
ad ena
gh dad
Ġst unk
Ġst ork
Ġsh un
Ġsh udder
Ġr ook
Ġwas p
ĠT our
ĠT el
ĠT eg
ĠT rem
Ġfor lorn
Ġwh oo
Ġwh oop
Ġwh ilst
Ġan a
ĠS ang
ĠS tern
ĠW an
ĠW ang
Ġre w
st an
Ġj ars
Ġdon ut
ĠA C
ust ers
all o
Ġhis s
ĠH atch
ĠH ors
ĠH unting
ĠH agen
ĠH mong
op y
ĠM ak
ĠM uch
Ġcan oe
ĠB ess
ĠB ast
ĠB rew
il ot
il ation
ĠD up
ĠD ary
ĠD ance
Ġne ural
Ġab und
ĠC rew
ĠC ary
ĠC ocks
ĠC omes
ĠC ousin
ĠG ed
ĠG ru
ĠG oli
ick el
ore en
ig ion
Ġbl ames
Ġman aging
Ġtr ipe
Ġtr uce
Ġhell s
ag ain
ag ery
ul sed
ĠL oc
ĠL iver
ĠN ile
ĠN aughty
ĠJ ade
el in
ĠO g
ĠO UT
ĠHe ads
Ġle opards
Ġal arms
ĠP E
ĠP ell
ĠP ray
ĠP iece
ĠP eps
ĠP rentice
ĠP urgatory
ĠF est
ĠF ri
ĠF ail
ĠF arm
ven ting
Ġv ortex
Ġex its
Ġback lash
Ġ... '
Ġsc at
oot ie
ĠE isen
Ġhead band
Ġhead aches
ath om
Ġsex ting
Ġfe isty
Ġcon n
Ġcl a
Ġcl od
Ġcl ans
Ġcl av
Ġcl ones
Ġsm ut
th on
ĠK ip
ĠK au
ĠK int
ĠK iev
Ġput ty
thing s
Ġpr at
Ġpr un
ire ct
ob ic
Ġpo ised
Ġco zy
Ġco aster
Ġmo ll
ĠGod father
be it
Ġfat ten
Ġun m
Ġun ity
Ġun happ
Ġqu iz
Ġsl ed
Ġsl its
Ġcr utches
ew ee
ue z
ret s
Ġgr oo
Ġgr ub
Ġsw ill
Ġsw itches
iz ations
Ġfl ashes
Ġfl aky
Ġfl imsy
ĠSt as
ĠSt il
ĠSt acy
ĠSh orty
Ġdest it
ĠV and
ank ing
Ġplay ful
Ġplay boy
Ġsuch Ã½ch
Ġmind ing
Ġask in
ĠDon t
Ġper il
Ġper ky
Ġhar med
Ġrun aways
ird re
Ġhome y
oss ibly
Ġunt rue
Ġgra vy
ho ver
ĠMy st
Ġser mon
Ġname ly
oll o
Ġbu oy
Ġmin ers
Ġwar p
Ġres erv
Ġhang ar
oke e
Ġbus hy
Ġpus hover
so on
Ġsur rend
Ġsur vey
Ġid ly
Ġid ios
Ġfin als
Ġsn acks
ĠFr ito
Ġrec ite
Ġrec oll
ĠDe irdre
Ġdick ing
Ġmiss us
Ġent reprene
Ġent rails
ĠIs is
Ġfact ories
ĠAl b
Ġdem o
hes is
Ġble nd
ĠMar l
ĠMar ley
ĠMar go
Ġswe ets
Ġsqu ish
Ġes e
Ġes ophagus
Ġes pionage
Ġmet iculous
Ġmist ook
Ġmag s
Ġtor ched
Ġcock amam
ĠAn kh
ph ones
Ġmil ky
ĠZ ar
ĠZ eal
ĠCl ive
ĠCl umsy
Ġship wre
Ġcat heter
Ġpres umably
ray s
Ġdef ied
ĠDr own
Ġtruth ful
Ġ5 6
Ġtrust worthy
Ġdeser ters
Ġind ict
Ġsecret aries
Ġorder ly
Ġdist ribut
Ġsub cut
Ġsub miss
Ġboo ed
Ġpap arazz
co x
Ġpack s
Ġspeak ers
ĠQu agmire
rel ated
Ġmeat ball
Ġve gan
Ġsim ult
ĠBlack thorne
Ġopp ressive
Ġmass aging
Ġlow lifes
Ġcool ing
Ġur gency
Ġdisc omfort
ĠGu ido
Ġdrown s
Ġcommand ers
ĠCar a
ĠPut ting
ĠNe ck
ĠGra cie
omm un
ĠRob bins
ĠEx ter
Ġpublic ist
ĠGre er
Ġhost ess
Ġsoft en
Ġpit cher
wh ipped
Ġgrave ly
Ġexam ining
Ġpin ball
ĠMad den
ĠChe ese
de f
Ġmod er
Ġeng ra
Ġprod ucing
ino is
Ġdry ing
Ġinfect ious
Ġcard iac
Ġver tical
ĠNaz are
Ġvan illa
ĠBig foot
Ġorgasm ic
Ġtem ples
Ġtech no
Ġsoc ieties
Ġadm its
Ġdull est
[...]
